#version: 0.2 - Trained by `huggingface/tokenizers`
ã ģ
ã ĥ
ã Ĥ
ãĤ ĭ
ãĥ ¼
ãĥ ³
ãģ Ħ
ä ¸
ãĤ ¹
æ ľ
ãĥ Ī
å ®
å ħ
ãĥ «
ãģ Ļ
ãĤ Ĭ
å ı
ãģ Ĺ
ç Ķ
ä º
å ¤
ãĤ ¤
ãģ ĭ
ãģ Ĩ
ãĥ ĥ
ãģ ı
å Ī
ãĥ ª
ãĤ ¯
å Ĳ
ãĥ ©
ãĤ ¢
æ ĸ
é Ģ
é ģ
ä »
ä ½
ãģ ¾
è ¦
ãĥ¼ ãĥ
ï ¼
ãĤ Į
å Ľ
å Ń
ãģ ¨
è ¨
ãģ ĳ
ãģ į
ãĤ ī
æ ī
ãģ ¤
ãģ ª
ãģ Ł
æ Ĺ
ãĤ ¿
ãģ Ī
ãĤ ĵ
å ĭ
ç Ľ
ãģ Ĭ
å ¾
ãĥ ¬
å ĩ
è ª
ãĤ ·
å °
ãģ £
ãĥ ķ
è ¡
ãģ «
ãĤ ģ
å º
æ ķ
ç µ
å į
æ °
å ¼
é ĩ
å ľ
ãĥ³ ãĥ
å ¹
æ Ŀ
æ Ń
é Ľ
å Ĭ
å ¯
ãĤ ¸
ãĤ Ģ
ä ¼
ãģ ¦
ãĤ «
å ±
ãģ ¡
ãĥ Ń
ç ´
é ĸ
æ Ī
æ ĺ
ãģ ĵ
å ¿
ãĤ ı
åĩ º
ç ī
è ²
ãģĪ ãĤĭ
å ¸
å ½
ãĤ ³
å¤ §
å ·
ãģ Ĥ
ã Ģ
ãĥ ŀ
ãĤ Ĥ
å ī
ãģ ķ
å Ĩ
ãģ ¿
ä¸ Ģ
æ Ľ
æ Ħ
ãĥ Ĺ
äº º
é Ļ
ç «
ç ·
å ĳ
æ Ģ
è ³
ãĤĮ ãĤĭ
è ¾
ãĤ £
ç Ļ
æ Ĭ
ãĥ Ĳ
ä ¿
è ¿
ãĤ Ń
ãģĳ ãĤĭ
æ ³
é ĥ
æĹ ¥
ãĤ °
ä¸ Ĭ
æ İ
å Į
ãģ Ŀ
ãĤ Ħ
ãĤ· ãĥ
æ µ
ãĤģ ãĤĭ
å ¥
æ Ķ
ãĥ Ĩ
å £
ç Ħ
é Ŀ
ãģ Į
æ ł
ãĤ ¦
æ ¸
è ©
è ĩ
é ł
æľ ¬
æ Ļ
ãģ ®
è »
ãĤ µ
çĶ Ł
æ Į
ç ľ
ãģ ©
ãĤ ª
å ł
ç ķ
æī ĭ
æ ¥
ç Ł
ãĥ ī
åŃ ¦
ç ¨
åĲ Ī
ç §
ï ½
ä¸ Ń
è £
é £
ãĥ ģ
åĽ ½
è Ń
ãĤ ¨
ãĥĥ ãĤ¯
ä ¾
ãģ Ľ
ãĥ ¡
æ ²
è¦ ĭ
é ¡
ãģ ĺ
ãĥ ĳ
è Ģ
ãģ ł
é ļ
ãĥ ĭ
æ ĭ
ãģĹ ãģĦ
è¡ Į
å İ
ãģ ¯
ä ¹
è «
ãĥ ĸ
ãĥ £
ãĥ Ĭ
æ° Ĺ
åľ °
æ ±
ãĥ ĩ
ãĥ ł
ãĥĥ ãĥĪ
åŃ Ĳ
æ ĥ
ãĤ »
çĶ °
ç Ĳ
å® ļ
åħ ¥
å Ģ
ç ©
è Ī
ãģ Ĵ
æ ı
è ģ
ãĥ¼ ãĥ«
ä¸ į
æ ¨
ç ¤
ç ¥
é ħ
ãĥ Ł
å¹ ´
å ĵ
ä¸ ĭ
çī ©
æ ®
ãĥ¼ ãĥĪ
åĪ Ĩ
æĸ ¹
é ķ
åı ĸ
ç« ĭ
éķ ·
æ ´
ãĥ ¥
å Ĥ
ãĥ Ģ
ãĥ ı
ãĥķ ãĤ
ä¼ ļ
å ģ
æ ¬
æ ¯
äº ĭ
ãģ §
ç Ĥ
ç Ń
è §
è Ĥ
åĭ ķ
çĻ º
ç ¾
ä½ ĵ
è¾ ¼
èĩ ª
æ Ĥ
è µ
ãĤ º
ãĤ¹ ãĥĪ
åĨ ħ
æ º
ç ¶
æľ Ī
éĥ ¨
çĲ Ĩ
è ī
ãĤ Ī
çĶ ¨
å½ ĵ
ãĤ·ãĥ §
é «
æĸ °
éĢ ļ
åĬ Ľ
ãĢ ħ
çĦ ¡
æ ģ
æ ħ
ãģ ³
ãĥ ĵ
ãĥ³ ãĤ°
åī į
æ Ł
ç ļ
ãģ Ĳ
ãĥ ¢
ãĤ¿ ãĥ¼
å° ı
æ ļ
ç Ĺ
ãĤ į
ãĥ³ ãĥĪ
å® Ł
ãĥª ãĥ¼
éĸ ĵ
å »
å ĸ
è ¶
ãģ ļ
æĽ ¸
æ ¼
ãĥ į
ãĥ Ļ
åĲ Į
åĲ į
æĸ ĩ
åº ¦
æĺ İ
ãģĽ ãĤĭ
å ¢
å Ł
è ĥ
é ¤
ãĥ Ŀ
ãĤ ±
ãĥ© ãĤ¤
ä» ĺ
éĩ ĳ
éĿ ¢
å Ħ
æ ŀ
ãģ ¶
ä¸ »
åĪ ĩ
å¾ Į
ç Ŀ
ãģ °
ãĤ ¬
æľ ī
å¤ ĸ
éģ ĵ
è¨ Ģ
çĽ ®
æķ °
å± ±
æĦ ı
æĻ Ĥ
æ ·
è Ħ
è ĭ
ãĥ ¯
åħ Ī
æī Ģ
ç ½
é Ł
åħ ¬
ãĥ¼ãĥ ī
ãĥ³ãĥ ī
çŁ ¥
è¾¼ ãĤĢ
é« ĺ
å ¦
å ķ
æ §
ãĥ ľ
ä½ ľ
çĽ ´
å¼ ķ
å¿ ĥ
æ³ ķ
æ¥ Ń
åł ´
ãģĴ ãĤĭ
å ²
ç ²
è ¬
è ±
è Ĭ
ãģ ²
ãĥ Ķ
ãĥĥ ãĥĹ
åĽ ŀ
æķ Ļ
æĪ ¦
åİ Ł
ç¤ ¾
ãĤ·ãĥ§ ãĥ³
å §
æ ¤
æ ©
ãģ Ķ
æľ Ł
åĭ Ļ
éĩ İ
æĪ Ĳ
è ¼
ãģ Ń
ãģ¾ ãĤĭ
æ° ´
æŃ £
æĢ Ŀ
è§ £
çĿ Ģ
ç ®
ç ¸
ç İ
ç ı
ãģ µ
ãĤ ĥ
éĢ £
å¯ ¾
åĩº ãģĻ
æĦ Ł
èĢ ħ
å ĥ
ç Ī
è ·
é ¦
ï ©
ãģ »
ãĥ İ
ãĤ §
ãĤ¤ ãĥ³
é£ Ł
çĤ ¹
çĶ £
æ° ĳ
å ¡
å Ĵ
ç ¹
ç ģ
ç ĭ
è Ĳ
ï ¾
ãĥ Ľ
æľ Ģ
åħ ¨
ãģĹ ãģ¦
ãĥ¼ãĥ ł
éĩ į
æĿ ¥
æ ¶
ç ĸ
è º
é ľ
åı Ĺ
å¼ ·
å¹ ³
éĸ ĭ
çī ¹
åĳ ³
æĢ §
è¿ ĳ
å£ ²
ãĥĩ ãĤ£
æ »
æ Ĵ
ç ¬
ç ł
è ĳ
è ĸ
è Ĺ
ãģ ¹
ãĤ ½
å® ¶
ä½ ķ
è¦ ģ
è¨ ĺ
èª ¿
çµ Ĳ
æĿ ±
æ ¡
æ £
ç ¿
è ¥
è ħ
é ĺ
ãĥ¼ ãĤ¹
å® ī
ä» £
éĽ »
éĽ Ĩ
è³ ª
èŃ °
å ³
æ ¿
ç ¯
åı £
å¤ ļ
æĸ Ń
èª ŀ
èª Ń
ãģ£ ãģ¨
å· Ŀ
åĮ ĸ
æł ¼
è» Ĭ
è« ĸ
ç© º
åĵ ģ
åıĸ ãĤĬ
æ Ĩ
æ į
ãĥ ļ
ãĤ ´
åı į
åĪ ¥
éĢ ²
ç· ļ
ä¿ ¡
ä¿ Ŀ
éħ į
çļ Ħ
æ© Ł
çı ¾
åĴ Į
èĲ ½
ç ¦
ç ª
ç Ĭ
è į
ãģ İ
ãĤ ®
ãĥ³ ãĤ¹
åħ ±
åĲ ĳ
ä» Ĭ
çµ Į
åľ ¨
éĸ ¢
ãĥĨ ãĤ£
æĮ ģ
çľ ģ
çľ Ł
æ± º
åĵ ¡
æ ½
è Ļ
é §
ãĥ Ħ
ãĥ¼ ãĤ¸
æľ ¨
å¤ ī
åĪ ©
ãĥª ãĤ¢
éģ İ
çĽ ¸
ãģ¦ ãĤĭ
ãĤı ãĤĭ
æĦ Ľ
æµ ģ
è© ±
æ¥ ½
ãĥķãĤ ¡
èµ ·
èº «
å Ļ
æ Ĳ
ç ³
è ı
é »
ãĥ¼ ãĤ¯
ãģ£ ãģ¦
ä¼ Ŀ
å· ¥
æµ ·
å¥ ³
æĶ ¾
çĦ ¶
è» ¢
æĤ ª
éŁ ³
é ¨
ãĥ ¤
ä¸ ĸ
åı İ
æĸ Ļ
ãģª ãģĦ
å° ĳ
åį Ĭ
ãģķ ãĤĵ
ãĥĹ ãĥŃ
å¥ ½
ç¨ İ
ä¹ Ĺ
æĥ ³
ç¥ ŀ
æ¬ ¡
èī ²
è¶ ³
èĥ ½
æĢĿ ãģĦ
¢ ¨
å ©
ç ±
ç Ĩ
é Ĥ
é Ĭ
é Į
ãģ ¼
çĶ »
éĢ ģ
éģ ¸
éģ ĭ
ä» »
ä½ į
è¦ ³
è¨ Ī
éĩ ı
åĬ ł
ãĤ¸ ãĥ£
å± ĭ
ç´ ł
éĻ ¢
ç¶ ļ
æ¤ ľ
è¥ ¿
å ´
é º
ï ¨
ãģ ĸ
ãĤ Ĩ
åħ ĥ
äº ¤
äº Ī
äº ķ
åĪ ¶
åĪ Ŀ
ä» ķ
åĽ £
åĭ Ŀ
åº Ĺ
åľ Ł
è¿ Ķ
åĮ Ĺ
çŁ ³
ä¾ ¡
ãģĺ ãĤĭ
æĥ ħ
èģ ·
å¢ Ĺ
åķ ı
æ§ ĺ
å¼ķ ãģį
èĹ ¤
å Ķ
å ŀ
æ ĩ
æ ĵ
é ī
ãģ ¥
ãĤ ĩ
ãĤ¹ ãĤ¿
ãģĻ ãĤĭ
è¦ ª
ãĥķ ãĤ£
è¡ ¨
åº ĥ
çµ ¶
çµ Ħ
å¸ ¸
å· ®
åĳ ½
åĳ Ĭ
ä¿ ®
ãģĮ ãĤĭ
åł ±
é¤ ¨
å³ ¶
å «
å Ŀ
ç ¢
ç ħ
é ¢¨
ãĤ ¶
ãĥ¼ ãĥ³
åı ¤
çĶ ³
å¤ ©
ãģĭ ãĤĭ
åĪ ¤
ä½ ¿
å¼ ı
æĿ ĳ
å½ ¹
æĢ ¥
è³ ĩ
çĻ ½
æĬ ķ
æİ ¥
ãĤ·ãĥ £
æĶ ¹
æĶ ¿
æĮ ĩ
ä¾ ĭ
æ² »
é¡ Į
èĤ ²
ç¾ ©
åĦ ª
æ¡ Ī
æ ¹
ç Į
é Ń
ãĥ §
ãĥ Ĵ
ä¸ ī
æľ Ľ
å® ³
å® ĺ
åħ ļ
åı Ĥ
ãĤ¤ ãĤ¹
æī ĵ
ãģ¤ ãģı
ãģª ãĤĭ
ãĥ¬ ãĥ¼
æŃ ¢
æŃ ©
éĽ ¢
å¸ °
éĻ Ĳ
è¿ ½
ãĤŃ ãĥ£
ãģĿ ãĤĮ
æĶ ¯
æł ¹
è© ¦
æĮ ¯
ç¨ ®
ãĥģ ãĥ£
ç© į
èģ ŀ
ãĥķãĤ ©
æº Ģ
æ¼ Ķ
è· ¯
ç į
è Į
è Ķ
é ³
æľ «
åı °
ãĥĥ ãĥī
éĢ Ģ
éĢ ł
éģ Ķ
è¦ ĸ
è¨ Ń
ãģŁ ãģĦ
æĹ ©
å¾ ħ
å¾ Ĺ
çµ ¦
çµ Ĥ
æĿ ¾
éĽ £
åĬ ©
å¯ Ł
ãģ¡ ãĤĥ
ç´ Ħ
å¸ Ĥ
å½ ¢
åī ²
æĽ ¿
ç« ¯
ç· ¨
ç· ı
è¾ ²
éĥ ½
æĹ¥ æľ¬
å£ «
æ¸ Ľ
éł Ń
çķ °
è£ ģ
æ¨ ©
åĤ Ļ
æ¶ Ī
ã ĩ
è ¢
ãĥ ¦
ãĥ ĺ
æľ Ŀ
å® ¹
åı ¯
å¤ ±
ãĤ¢ ãĥ«
éģ ©
ä½ ı
è¦ ļ
åĽ ³
ãĤĵ ãģª
åĩ ¦
ãģ£ ãģ
åį Ĺ
åį ĺ
ãĥ³ãĥ Ĺ
ä¼ ĳ
ç´ °
è² ·
åĨ į
æĽ ľ
ä¸Ĭ ãģĴãĤĭ
ãģĿ ãģĨ
æł ¡
æ¥ µ
ç§ ĳ
è£ ħ
è£ ľ
èĢ ĥ
æ´ »
æ¯ į
ç¾ İ
èī ¯
èĭ ¦
ç½ ®
ãģŃ ãĤĭ
ãģ¹ ãĤĭ
éĺ ²
è ¸
ãĤ ²
ãĥ³ ãĤ¯
ãĥ³ ãĤ¿
ãĤ¹ ãĥĨ
ãģĭ ãģĦ
ãģĭ ãĤī
éĢ Ł
ãĥ¼ãĥ ĸ
åŃ Ĺ
åŃ ĺ
ãĤī ãģĻ
çĽ Ľ
å¾ ©
èª ¬
åº ģ
å¼ µ
æĿ Ĳ
å¯ Ħ
å¯ Ĩ
å¿ µ
å¿ ħ
å¿ ľ
è² ł
æĽ ²
çķ ª
çķ Ļ
ç§ °
ãĥĥãĤ¯ ãĤ¹
é¡ į
è« ĩ
æı Ľ
æ® µ
çŃ ī
çĹ ħ
å» º
é¤ Ĭ
æŀ ľ
åķ Ĩ
æ§ ĭ
å² ¡
ç® Ĺ
çĭ ¬
ç¬ ĳ
ç¿ Ĵ
åĻ ¨
ä¸ İ
ãĤ¹ ãĤ¯
æľ ª
å® ¢
å® ®
åħ Ĳ
å¤ ľ
ãĤ¤ ãĥ«
ãĤ¯ ãĥĪ
è¦ ı
ãģ¨ ãĤĤ
è¨ ¼
ãģŁ ãĤĬ
åĭ ¢
ãĥķ ãĥ©
è¡ ĵ
ãĥ³ãĥ Ĩ
æŃ »
æŃ Į
åĬ ´
å¿ «
åī µ
æĬ ľ
æ³ ¢
æ³ ¨
åĮ »
ãĤ·ãĥ ¥
æ¸ Ī
è» į
ãģ© ãģĨ
ç¨ ĭ
ç§ »
é£ Ľ
èŃ ĺ
æ® ĭ
ãĥ¥ ãĥ¼
ãĥķãĤ §
ç² ¾
è¬ Ľ
æĴ ĥ
æĮģ ãģ¡
ç¢ º
â Ģ
ç Ĵ
ä¸ ¡
å® ¤
å® Ī
å¤ ª
ãģĭ ãģĻ
ãĥĥ ãĥģ
ãĤ¯ ãĥª
éģ ķ
ä½ Ļ
ãģª ãĤĵ
ãģŁ ãĤĭ
ãĤ¿ ãĤ¤
èª į
åº §
åį Ķ
åľ §
åľ Ĵ
éĽ ĳ
å± ħ
å± ŀ
ãĥĹ ãĥ¬
éĻ ¤
éĥ İ
å£ °
çķ Į
èŃ ·
æ² ¢
åĢ ¤
èĪ ŀ
ç¤ º
åģ ´
çŃ Ķ
è¶ Ĭ
åĪĩ ãĤĬ
å§ ĭ
çİ ĭ
çģ «
èĸ ¬
ç¦ ı
çª ģ
ç± ³
çĨ ±
å ¨
æ ĳ
ç °
ç ĩ
è Ĩ
é Ĩ
é Ĺ
ãģ ľ
ãĥ ¨
ãĥ¼ ãĤ·ãĥ§ãĥ³
æľ į
ãĥĪ ãĥ©
åħ µ
åħ ·
ãģĹ ãģŁ
çĶ ·
ãģĭ ãĤĬ
åĪ Ĭ
ãĥª ãĥ³
ãĥ© ãĤ¹
éģ ł
ä» ®
ä» ¶
ãĥ¼ãĥ ŀ
è¨ ³
ãģ¤ ãģĳãĤĭ
æĹ ı
çĽ Ĭ
å° Ħ
ãĥķ ãĥĪ
æķ £
çµ ±
å¼ ģ
ãĥ³ãĥ ģ
æŃ ¦
ãĤ¸ ãĤ§
ãĥŃ ãĥ¼
ç´ Ļ
æĺ Ł
çī ĩ
è² ¡
è² »
å¸ ¯
å¸ Ń
ãĥŀ ãĤ¤
åĨ ·
è³ ŀ
æĬ ¼
æİ ¨
çĦ ¼
æ¸ ¡
æ¸ ©
çĶŁ ãģį
çŁ Ń
åĲĪ ãģĨ
è£ ½
ä¹ ħ
ãĥĸ ãĥ«
åĢ ĭ
æı Ĳ
èģ ´
æ® º
ãĥĢ ãĤ¤
åģ ¥
æ¬ ł
è§ Ĵ
èµ ¤
èµ °
æº Ĳ
æģ Ĳ
åĸ ¶
æĽ¸ ãģį
åŁ º
ãĤ± ãĥĥãĥĪ
åĪĩ ãĤĭ
æ· ±
æ· ·
èĭ ±
èĬ ±
èĬ ¸
ãģ² ãģ¨
çİ ĩ
çĪ ¶
é¦ ¬
ãģ» ãģ©
çł ´
æ¿ Ģ
èªŃ ãģ¿
å´ İ
åŀ ĭ
å« Į
èĶ µ
° ·
ç ŀ
è °·
ĩ ãĤ£
ãģ ģ
ä¸ ¦
å® ¿
å® Į
åħ ī
åı ³
åı ·
åı ¸
ãģĹ ãģĭ
çĶ º
äº ¬
äº ī
åĪ Ĺ
åĲ Ħ
ãĥ© ãĥ¼
ãĥ© ãĥ³ãĥī
éĢ Ķ
ä» ĸ
ãĥ¼ãĥ Ĭ
ãĥ¼ãĥ Ĺ
åĽ º
è¨ ´
ãģ¤ ãģĦ
ãĥ¬ ãĤ¹
å° Ĥ
å° İ
è¡ Ľ
åº «
æķ ĳ
æķ Ĺ
åį ģ
ãĥ³ãĥ Ģ
åĬ ¹
ãĤ¸ ãĥ§
ç´ į
ç´ ļ
éĸ ī
æĪ ¸
å¸ «
å¸ ĥ
ãĤ³ ãĥ³
ç· ł
æİ ¡
æİ ¢
åĮ º
ãĤĦ ãģĭ
éĿ Ĵ
éĿ ŀ
è© ķ
æĻ ¯
è» ½
ãĤµ ãĤ¤
çľ Į
çķ ¥
èŃ ¦
ä¾ ¿
é¡ ĺ
åİ »
æ± Ĥ
æ¨ ¡
æ¨ ª
åıĸ ãĤĭ
ç«ĭ ãģ¤
æ´ ¾
æ´ ĭ
æ¯ İ
æ¯ Ķ
ãĤĪ ãģĨ
æħ ĭ
æŁ »
æļ ´
æļ Ĺ
å» ¶
å¢ ĥ
è± ¡
çĸ ĳ
æ» ħ
ç³ »
â Ķ
â ķ
æ ¢
è ¤
é İ
ãĤ ¼
ãĥ³ ãĤ¸
ãģĦ ãģĭ
ãģĦ ãģĨ
ãģĦ ãģ¾
å® ħ
åħ ¸
äº Į
å¤ «
å¤ ķ
ãĥĥ ãĤ·ãĥ¥
åĲ ī
ãĥ© ãĥł
ãĤ¢ ãĥĥãĥĹ
éĢ ĥ
éģ º
ä» ¥
ä» ĭ
ä½ İ
ä½ Ĳ
ãĥ¼ãĥ Ĩ
ï¼ ¦
ï¼ °
è¨ ±
ãģŁ ãģł
å¾ ĵ
èª ²
èª ĺ
è¡ Ĩ
æķ ħ
åį ł
å¼ ¾
æĿ ¡
åĬ ĩ
å¯ Į
ãĤ« ãĥ¼
å± ķ
ãģ¡ ãĤĩ
æĪ ĳ
æĺ ¥
æĺ ł
ãģĵ ãģ¨
ãģĵ ãģ®
ãģĵ ãĤį
ãģķ ãģ¾
åĳ ¨
æĬ Ģ
æĬ ĺ
ãĥĲ ãĤ¤
è¿ °
ãģĿ ãģ®
æĶ »
æĮ Ļ
ãĤª ãĥ³
é¡ ŀ
ãĥĭ ãĤ¢
ä¹ ±
çĲ ĥ
åĢ Ĵ
èĪ Ī
èģ ĸ
æ¨ Ļ
ç¤ ¼
åĤ ·
ãģ§ ãĤĤ
çļ ĩ
çĹ ĩ
çĹ Ľ
åĸ Ħ
åŁ Ł
ä»ĺ ãģĳãĤĭ
èĦ ±
èĦ ³
éŁ ¿
ç® ¡
ç¸ ®
é¦ ĸ
èĳ Ĺ
çĬ ¶
é§ Ĩ
æĲ į
å© ļ
éī Ħ
çĶ³ ãģĹ
èĮ ¶
æ ¦
é ©
é ®
é ½
ãģ ¬
ãĥ¼ ãĤº
ãĥ¼ ãĤ¿ãĥ¼
ãģĦ ãģ¤
åħ ħ
ãĥ« ãĥĪ
ãĤĬ è¾¼ãĤĢ
åı ĭ
çĶ ±
äº Ĩ
ãģĭ ãģĳ
ãģı ãĤĬ
ãģı ãĤī
ãĥª ãĤ¹ãĥĪ
ãĤ¯ ãĥŃ
ãĥ© ãĥ³
éĢ ±
ãģ¾ ãģĻ
ãģ¾ ãĤĬ
ãģ¾ ãģĹãģ¦
ãĥ¼ãĥ ģ
ãĥ¼ãĥ Ħ
åĽ ²
åĽ Ľ
åĽ ł
ãģ¨ ãģĨ
æī ķ
ãģª ãĤī
æĹ ħ
åĭ ¤
çĽ ¤
ãģĬ ãģĦ
å¾ ¡
å° ±
æķ ´
åį °
åį ´
æ° ¸
å¯ ©
ãĤ¸ ãĥ¥
ãĤ« ãĤ¦
å± Ģ
æĪ ¿
æĺ ¨
æĺ ¼
æĺ ĵ
å¿ Ĺ
è² ¸
ãĤ³ ãĥ³ãĥ
å· ¦
ãģĤ ãĤĬ
ãģķ ãģĦ
éĻ ¸
ç· ´
åĳ ¼
çĻ »
ãĥĲ ãĥ¼
ä¸Ĭ ãģĴ
ãĤĦ ãĤĬ
æµ ®
éĿ Ļ
æ¸ ¬
è© ŀ
éł ĥ
éł Ĩ
éł ĺ
ãĤµ ãĥ¼
åĲĪ ãģĦ
åĲĪ ãĤı
ç§ ĺ
é£ ²
æ² ³
èĢ ģ
éļ Ĭ
æĭ ħ
è¡Į ãģį
åİ ļ
è« ĭ
ãĥĬ ãĥ«
æĥ ĳ
åħ¥ ãĤĮ
ç¥ ĸ
åģ ½
åģ ľ
çŃ Ĩ
èĤ ī
æŀ Ĺ
è¨Ģ ãģĦ
èĭ ¥
æ¤ į
è¼ ī
åĥ į
åĥ ı
çĪ Ĩ
è· ¡
çģ ½
åıĹ ãģĳ
èĳ ī
ç¯ ī
èį ī
é» Ĵ
é¨ ĵ
éĮ ²
çµĦ ãģ¿
è¢ «
ãģ£ãģ ±
çĴ °
å ĺ
ç ¡
è ĵ
è Ľ
é ª
é ¬
é ¹
é į
Ĳ ãĥ¼
ãģ ŀ
ãĥ¼ ãĤ¿
ãģĦ ãģ£
ãģĦ ãģ¡
ãģĦ ãĤĦ
ãĥĪ ãĥ«
ãĥĪ ãĥª
å® Ŀ
åħ į
ãĤĬ åĩºãģĻ
åı Ĭ
äº Ĵ
ãģĭ ãģĳãĤĭ
ãģı ãĤĭ
åĪ »
åĪ ĳ
ãĥª ãĤ¹
ãĥª ãĥ³ãĤ°
ãĤ¯ ãĤ·ãĥ§ãĥ³
åĲ ¦
ä» ¤
ä» ²
è¦ §
ãĥ¼ãĥ ĩãĤ£
ï¼ ®
ï¼ ĳ
ãģį ãĤĬ
ãĤī ãģĹãģĦ
æī ±
æī ¿
ãģ¤ ãģĭ
ãģª ãģĨ
ãģª ãģı
ãģŁ ãģĻ
æĹ ¢
çĽ £
å¾ Ĵ
ãĥķ ãĥ¬
è¡ Ģ
è¡ Ĺ
åº ķ
å¼ ±
å¹ ¸
å¹ ¹
ãĤ« ãĥ«
å± ¤
ãģĵ ãģĨ
ãĤı ãĤĬ
è² ´
å½ ¼
å¤§ åŃ¦
å· »
å· ŀ
ãĥŀ ãĥ³
åī ĩ
åĨ Ļ
è³ Ľ
è¾ º
è¾ ŀ
ä¿ Ĥ
è¿ «
ãĤŃ ãĥ¥
ãĤ° ãĥ©
æİ Ľ
ãģĮ ãĤĬ
æł ª
è© °
éł ¼
æĻ ©
çľ ł
ç§ ģ
ä¾ Ľ
æ² ¹
é¡ Ķ
ãģł ãģĳ
éļ £
éļ Ľ
ãĥĭ ãĥ¼
æĭ ł
åİ ³
ãĥĸ ãĥ©
ãĥĬ ãĥ¼
åĢ Ļ
èĪ ¹
æı ´
æ¨ ¹
éħ ¸
ãĥŁ ãĥ¥
ç«ĭ ãģ¡
æ´ Ĺ
åĤ µ
æ¬ ²
æ¯ Ľ
çŃ ĸ
æĤ ²
æº ĸ
ç¶ Ļ
æĸ° èģŀ
éĢļ ãĤĬ
æģ ¯
æģ µ
æŁ Ħ
æŁ ĵ
æļ ®
ãĥĻ ãĥ«
åĦ Ģ
åĦ Ł
ãĥ¯ ãĤ¤
ç½ ª
å² ©
è± ª
æ© ĭ
é¦ Ļ
éľ ²
æ£ ®
ç¯ Ģ
ç¯ Ħ
æį ķ
çĬ ¯
èį Ĵ
èı ¯
å© ¦
éĬ Ģ
çħ §
ä½¿ ãģĦ
æīĵ ãģ¡
é³ ´
ãģ¡ãĤĥ ãĤĵ
æĽľ æĹ¥
è¸ ı
éĹ ĺ
æ¦ Ĥ
ç £
è ´
è ŀ
é ĳ
ãģ ¸
ãĤ ħ
ä¸ ¸
ä¸ ĩ
ãĤ¹ ãĤ³
ãĥĪ ãĥ¬
å® £
åħ «
ãĤĬ ãĤĭ
åı ²
ãģĹ ãģı
ãģĹ ãĤĥ
äº ¡
åĪ º
ãĤ¯ ãĥ©
ãĤ¢ ãĥ³
ãĤ¢ ãĤ¤
æĸ ½
éģ ħ
ãģ¾ ãģŁ
ãĥ¼ãĥ ķ
ï¼ ¢
ï¼ £
ï¼ ¤
ï¼ §
ï¼ ¯
ï¼ ³
ï¼ ´
è¨ º
ãģį ãĤĭ
ãĤī ãģĭ
ãĤī ãģı
ãģ¤ ãģį
çĽ Ĺ
å¾ ®
å¾ ³
å¾ ĭ
èª ¤
å° ¾
ãģ£ ãģ¡
è¡ £
ãĤģ ãģ¦
æķ ¬
åį ±
åį ³
åį ļ
å¹ ¼
å¹ ¾
æĿ Ł
æŃ ¯
æŃ ´
å¯ ¿
å¯ Ŀ
ãĤ¸ ãĤ¢
ä¼ ¼
ä¼ Ĭ
å± Ĭ
ç´ ¢
éĸ Ģ
æĺ ĩ
ãģĵ ãĤĮ
ãĤı ãģĻ
è² ¨
è² ©
è² ¯
ãĥŀ ãĥį
ãģķ ãĤī
æĽ ´
éĻ ½
éĻ į
ç« ¶
ç« ¹
æĢ ª
æĬ Ĺ
ãĤŃ ãĥ¼
æ³ ģ
åĮ ħ
ãĤĦ ãģĻ
æµ ´
å¥ ¥
å¥ ı
ãĥĨ ãĤ¯
ãĥĨ ãĥ¬
å£ ģ
å£ Ĭ
ãģĮ ãĤī
æł Ħ
ãĤ¦ ãĤ§
èĩ ´
éł Ĥ
æĻ ´
åł Ĥ
ç¨ ¼
ç§ Ģ
è£ ı
é£ ¯
ãĥ¡ ãĥ³ãĥĪ
ãģĺ ãĤĥ
éļ ľ
ãĥĭ ãĥ¥
æ± ļ
æ± ł
ãĤ» ãĥ«
èĪ ª
ç¥ Ŀ
ç¥ Ń
éħ Ĵ
åĤ ¬
æ¬ §
çĤ Ń
çŃ ĭ
è¾¼ ãģ¿
ãĤº ãĥł
ãģ³ ãĤĭ
ãģĲ ãĤĭ
å» ĥ
åĸ ľ
èĥ Į
ä»ĺ ãģĳ
ãĥ¯ ãĥ¼
å¦ Ĥ
å¦ Ļ
å² ¸
è± Ĩ
åĽŀ ãĤĭ
å§ Ķ
è¼ ¸
ç¹ ģ
ãĥĽ ãĥ¼ãĥł
éľ ĩ
éľ Ĭ
ç¬ ¬
èħ ¹
ç¦ ģ
çľŁ ãģ£
ç± į
éº »
ãģ¥ ãģı
ãģ¥ ãģĳãĤĭ
åĿ Ĥ
éŃ Ķ
é³ ¥
è²· ãģĦ
æĬ¼ ãģĹ
ãĥ¼ãĥĨ ãĤ£
é® ®
éª ¨
æ ¾
ç ĵ
è Ĵ
é ĭ
Ģ ãĥ¼
ãĤ Ĵ
ãģĦ ãĤĭ
ãģĦ ãģĦ
ä¸ ģ
ãĤ¹ ãĤ¿ãĥ¼
æľ Ń
åħ Ħ
åı ¥
ãģĹ ãĤĢ
ãģĹ ãģ¿
äº Ķ
å¤ ı
ãģĭ ãģĹ
ãģĭ ãģĨ
ãģĭ ãģı
ãĥĥ ãĤ¸
åĪ °
ãĥª ãĤ«
ãĤ¯ ãĥ«
ãĤ¯ ãĤ¿ãĥ¼
åĲ Ľ
ãĥ© ãĥ«
ãĤ¢ ãĤ¯
ãĤ¢ ãĥī
éĢ Ĩ
éģ ¿
éģ Ĥ
éģ ĩ
éģ Ĭ
ä½ µ
ãģ¾ ãģļ
ãĥ¼ãĥ Ģãĥ¼
ï¼ ¡
ï¼ «
ï¼ ·
ï¼ Ń
ãģ¨ ãĤĬ
è¨ İ
ãģŁ ãģı
æĹ ¨
æĹ ¬
åĭ ĺ
åĭ Ł
å¾ ¹
ãĥ¬ ãĥ³
èª ł
ãĤ· ãĥ³
ãĤ· ãĤ¢
å° Ĩ
å° Ĭ
ãģ£ ãģıãĤĬ
ãģ£ ãģįãĤĬ
ãĥķ ãĥ«
åº ľ
çµ µ
åį Ĵ
æ° ı
ãĥ³ãĥ ĳ
å¹ ķ
æĿ ¯
æĿ ī
æŃ ³
éĽ ¨
ä¼ ¸
ç´ Ģ
ç´ Ķ
ãģĵ ãĤĵ
ãĤı ãĤī
è² ¬
å½ ±
ãģĤ ãĤī
ãĥŀ ãĥ¼
ãĥŀ ãĥ«
ãĤĤ ãģĨ
ãĤĤ ãģ®
åī ¤
åĨ Ĩ
ãĥĹ ãĥ©
éĻ ³
ç« ł
ç· ©
è³ Ģ
çĻ Ĥ
ãĥĲ ãĥª
ãĥĲ ãĥĥãĤ¯
éĥ µ
ä¸Ĭ ãģĮãĤĭ
æİ §
æİ Ī
æİ Ĵ
ãģĿ ãģĵ
æµ ¦
æµ ľ
éĿ ©
ãģĮ ãģĦ
æł ¸
ãĤ¦ ãĥ³
æ¸ ¯
æ¸ ħ
èĩ ³
èĩ ĵ
éł ħ
æĻ ®
ãĤª ãĥª
çŁ ¢
åŃ¦ éĥ¨
ç¨ ¿
ç§ ĭ
ï½ į
ãĥģ ãĤ§
èŃ ²
ãĤ¨ ãĤ¢
ä¾ µ
ä¾ Ŀ
ãĥĳ ãĤ¤
ãĥĳ ãĥ¼ãĥĪ
èĢ Ĳ
ãģł ãĤĵ
éļ İ
éļ ı
éļ ł
æĭ ¬
è« ¸
ãĤ» ãĥ³
ç© ¶
èĪ İ
æı º
éħ Ķ
å¹´ åº¦
æ¯ Ĵ
ãģ§ ãĤĭ
çĤ º
è§ ¦
ç¾ ¤
ç¾ ½
èī ¦
å½ĵ ãģ¦
æħ ¢
æħ £
æħ ®
æŁ Ķ
çļ Ĩ
åŁ ·
åŁ ĭ
ãĥĿ ãĥ¼ãĥĪ
èĦ Ī
ç½ °
ç² ī
è¬ Ŀ
å§ ī
è¼ ª
ãģ» ãĤĵ
å¡ ļ
çĸ ²
å£² ãĤĬ
æ» ĳ
çł Ķ
èĳ ¬
èĸ Ħ
æ£ Ħ
æĨ ²
èį ·
ãģİ ãĤĭ
ãĤ® ãĥ£
æ½ ®
æ½ ľ
é¨ Ĵ
ä¹Ĺ ãĤĬ
è¿Ķ ãģĻ
æĩ ¸
æĵ į
å·® ãģĹ
ãĥ¦ ãĥĭ
æıĽ ãģĪãĤĭ
é£Ľ ãģ³
å¨ ģ
ç° ¡
çĩ ĥ
è¤ ĩ
é© ļ
èŀ į
â ĸ
å ª
ç Ģ
é ¶
é Ī
é ı
ĭ ãĥ³ãĤ°
ãĤ ©
ãĤ ¾
ãĤ¹ ãĤ±
ãĤ¹ ãĥļ
ãĤ¹ ãĥĨãĤ£
å® ľ
ãģĻ ãģĲ
åı Į
ãģĹ ãĤģãĤĭ
ãģĹ ãĤĩ
å¤ ¢
ãģĭ ãĤĵ
ãĥĥ ãĤ·ãĥ§ãĥ³
åĪ ¸
åĲ ¸
ãĤ¢ ãĥĬ
éģ £
ä» ı
ãģ¾ ãģĨ
ãģ¾ ãģ¾
ãģ¾ ãģĪãĤĭ
ãģ¾ ãģĹãģĦ
è¦ Ĩ
è¦ ĩ
ï¼ ©
åĽ °
åŃ £
ãģ¨ ãĤģãĤĭ
è¨ ª
è¨ Ĺ
ãĤī ãģĦ
ãĤī ãģĨ
ãģ¤ ãģª
ãģ¤ ãģ¶
ãģª ãģĻ
ãģª ãĤĬ
ãģª ãģĭ
ãģª ãģ«
ãģŁ ãģŁ
ãģŁ ãģ¡
æĹ §
åĭ §
ãģĬ ãģĭ
å¾ ´
ãĥ¬ ãĤ¤
åĩ Ħ
èª Į
ãĤ· ãĥ¼
ãĤ· ãĤ§
å° ½
å° ģ
å° ĭ
ãģ£ ãģĵ
ãģ£ ãģĭãĤĬ
è¡ Ŀ
åº Ĭ
åº Ń
æķ µ
æķ ·
çµ ¡
ãĥ³ãĥ Ĳãĥ¼
å¹ ħ
æĿ ¿
åĬ ±
å¯ º
å± ¥
å± Ī
ãģ¡ ãĤĭ
ãģ¡ ãĤī
ç´ ħ
æĪ »
æĺ Ķ
ãģĵ ãģĻ
å¿ ł
ãĤı ãģĦ
ãĤı ãģĸ
åĩº ãģĹ
åĩº æĿ¥
çī Ī
è² §
å¸ Į
å½ ©
å· ¡
å· ¨
ãģĤ ãĤĭ
ãģĤ ãģĦ
ãĤĤ ãĤĭ
åī Ĭ
ãĥĹ ãĥ©ãĤ¤
éĻ °
ç· Ĭ
ç· ĳ
ç· Ĵ
æĢ Ĵ
è³ ¢
è³ ĥ
æĬ ±
æĬ ĳ
ãĥĲ ãĥĥ
ãĥĲ ãĥ©
ä¿ Ĺ
è¿ ·
è¿ İ
ãĤŃ ãĥ³ãĤ°
æ³ ī
æ³ Ĭ
ãĤ° ãĥŃ
æİ ²
æİ ĺ
åĮ ł
ãĤĦ ãģı
æµ ħ
å¥ ĩ
ãĥĨ ãĥ³
ãĤ¦ ãĥ«
ãĤ¦ ãĤ£
ãĤ¦ ãĤ©
éł Ĳ
æĻ ¶
ãĤµ ãĥ«
ãģ© ãĤĤ
ãĤª ãĥ¼
ãĥī ãĥª
ç¨ ²
è£ ķ
é£ ¼
é£ ¾
æ² ¡
æ² ¿
é¡ §
é¡ ķ
ãģĺ ãģĦ
ãģĺ ãĤģ
ãĥĳ ãĥ³
ãģł ãģĦ
éļ Ķ
ãĥĭ ãĥĥãĤ¯
æĭ ¡
æĭ Ŀ
ä¹ ³
ä¹ Ŀ
æ± Ł
ãĤ» ãĥ³ãĥĪ
åħ¥ ãĤĮãĤĭ
åĢ ī
åĢ į
åĢ Ł
èĪ ¬
æı ¡
æı ı
ãĥ¼ãĥ« ãĥī
ä¸į åı¯
ç¥ ¥
ç¥ Ī
æ® ¿
æ® ĸ
æ´ ŀ
åĤ ¾
ãĥĢ ãĥ¼
ãĥı ãĥ³
ãĥı ãĤ¤
åģ ı
ãģ§ ãģĻ
æĤ ©
æĤ Ł
æº ¶
ç¶ ±
ãĤĪ ãģĦ
ãĤĪ ãĤĬ
é« ª
æģ ĭ
æħ °
ãĥĵ ãĥ¼
ãĥ¢ ãĥ³
ãĤ¿ãĥ¼ ãĥ³
åĸ «
è¶ £
è¶ ħ
æ¼ ¢
æ¼ ģ
æ¼ ı
åŁ İ
ä»ĺ ãģı
ãĤ¬ ãĥ³
æĻĤ éĸĵ
æ· »
èĦ ħ
ç½ ²
çŁ¥ ãĤī
çĽ´ ãģĻ
è± Ĭ
èĬ Ŀ
ãĥĶ ãĥ¼
ãģĶ ãģ¨
ç¸ ¾
ç¸ ģ
ãĤ¤ãĥ³ ãĤ¿
å¡ Ĺ
ç¹ °
ç¹ ĭ
ç¹ Ķ
çģ ¯
çĭ Ĥ
æ¶ ²
éľ Ģ
æ» ŀ
æĴ ¤
æĴ ®
çł Ĥ
ãĤ½ ãĥķãĥĪ
ç¿ Į
èħ Ĳ
éĺ ª
æ¿ ĥ
æį ¨
çĬ ¬
ãĥĨãĤ£ ãĥĸ
èĻ Ĳ
é§ Ĳ
æĲ º
ç³ ĸ
é» Ħ
é» Ļ
çĨ Ł
éĤ ª
éĤ Ħ
éĬ Ń
ãģ¼ ãĤĭ
ä½į ç½®
ãĤ¸ãĥ£ ãĥ¼
éº ¦
ãĤĨ ãĤĭ
éī ±
åĿ ĩ
çħ Ļ
æ¹ ¾
çĮ ®
éŃ ħ
æĮ¯ ãĤĬ
çį ²
å¾ħ ãģ¡
æĽ¿ ãģĪãĤĭ
è£ģ åĪ¤
ãĥĺ ãĥ«
ãĤĵãģª ãģ«
çĽĽ ãĤĬ
ç° ¿
éİ ĸ
åĲĪãĤı ãģĽ
ç¡ ¬
èĵ Ħ
é¹ ¿
ç£ ģ
è´ Ī
éĳ ĳ
ãĤħ ãģĨ
ãĥĨãĥ¬ ãĥĵ
èĴ ¸
éı ¡
â Ĺ
å ¬
å Ĺ
ç ¼
è ®
è ľ
é ¯
é ¼
ï ¤
ħ åŃĲ
ãĥ ¶
ãĥ Į
ä¸ ĥ
ä¸ Ī
ãĤ¹ ãĥª
ãĤ¹ ãĤ«
ãĤ¹ ãĥŀ
ãĤ¹ ãĤŃ
ãĤ¹ ãĥĿ
ãĥĪ ãĥŃ
å® ´
å® ĩ
å® Ĺ
å® Ļ
åħ Ĩ
åħ Ń
åı «
ãģĹ ãĤį
ãģĹ ãģ°
çĶ ²
çĶ ĺ
äº Ģ
ãĤ¤ ãĥ©
ãĤ¤ ãĥī
ãĤ¤ ãĤº
ãĤ¤ ãĥĦ
ãĤ¤ ãĥ¤
ãĤ¤ ãĥ³ãĥĨ
ãģĭ ãģĭ
ãģĭ ãģĽãĤĭ
ãģĭ ãģĭãĤĭ
ãģĨ ãĤĵ
ãĥĥ ãĤµ
ãĥĥ ãĤ»
ãĥĥ ãĤ«ãĥ¼
ãģı ãģ«
ãģı ãģł
ãĥª ãĤª
ãĥª ãĥĨãĤ£
ãĥª ãĤºãĥł
ãĤ¯ ãĤ¹
åĲ «
åĲ ¹
åĲ Ĳ
ãĥ© ãĥĢ
ãĤ¢ ãĥ¼
ãĤ¢ ãĤ¹
ãĤ¢ ãĥ¡
ãĤ¢ ãĤ¸ãĤ¢
æĸ İ
æĸ ľ
éĢ ¸
éĢ ı
ä» °
ãģ¾ ãģĦ
ãģ¾ ãģ£
ãģ¾ ãģķ
ãģ¾ ãģł
ãģ¾ ãģ§
ãĥ¼ãĥ Ĳ
ãĥ¼ãĥ ĳ
ãĥ¼ãĥ Ń
ï¼ ¨
ï¼ ª
ï¼ ²
ï¼ ¶
ï¼ Ĵ
åŃ ¤
ãģ¨ ãģį
ãģ¨ ãģĹãģ¦
ãģ¨ ãģĵãĤį
è¨ ĵ
ãĤī ãģĪãĤĭ
æī ¹
æī į
ãģª ãģĺ
ãģª ãģĮãĤī
ãģŁ ãģ¾
æĹ ¦
ãĤ¿ ãĥ«
ãĤ¿ ãĥªãĤ¢
ãĤĵ ãģ©
åĭ ī
çĽ Ł
ãģĬ ãģĻ
ãģĬ ãģ¾
ãģĬ ãģ£
ãģĬ ãĤĪ
ãĥ¬ ãĤ¸
ãĥ¬ ãĥ¼ãĥĪ
ãĥ¬ ãĤ¯ãĥĪ
ãĥ¬ ãĥ³ãĤ¸
åĩ į
åĩ Ŀ
èª ĩ
ãĥķ ãĥŃ
ãģ« å¯¾
ãģ« éĸ¢
åº ·
åº ı
åį ĥ
åį Ī
åį ĵ
å¼ Ł
éĩ £
éĩ Ī
éĩ Ŀ
ãĥ³ãĥ Ĭ
ãĥ³ãĥ ľ
å¹ ²
æŃ ĵ
éĽ ª
éĽ Ħ
éĽ ĩ
åĬ £
åĬ Ł
ãĤ¸ ãĥ¼
ä¼ ¯
ä¼ ´
ä¼ º
ä¼ ģ
ãģ¦ ãģĦ
ãĥŃ ãĤ°
éĸ £
æĪ ¯
å¿ į
å¿ ĺ
å¿ Ļ
ãĤı ãģı
ãĤı ãĤĮãĤĭ
ãĤı ãģĮ
çī §
çī Ľ
å¸ ³
å¸ Ŀ
å½ «
ãĤ³ ãĥ¼ãĥ«
ãĤ³ ãĥ¼ãĥĩãĤ£
å· §
å· ±
ãģĤ ãĤĮ
ãģĤ ãģį
ãģĤ ãģŁ
ãģĤ ãĤĵ
ãģĤ ãģ£
ãģĤ ãĤı
åī £
åī ¯
ãģķ ãĤĭ
åĨ Ĭ
ãģ¿ ãĤĭ
ä¸Ģ ãģ¤
ä¸Ģ äºº
æĦ ī
éĻ º
ç« ¥
åĳ ª
è³ ¼
è¾ Ľ
çĻ ¾
çĻ Ĵ
æĬ µ
æĬ ½
æĬ ŀ
ãĥĲ ãĤ¹
ãĥĲ ãĥ«
ãĥĲ ãĥ¬
ä¿ ĥ
æ³ £
éĥ ·
ä¸Ĭ ãģĮãĤĬ
æİ ĥ
ãģĿ ãĤį
ãĤĦ ãĤĭ
ãĤĦ ãĤī
æµ ª
æµ ¸
å¥ ¨
å¥ ª
å¥ ´
ãĥĨ ãĥ«
ãĤ¦ ãĥ³ãĥī
æ¸ ĭ
è© ©
èĩ £
èĩ ¨
éł »
éł ĳ
æĮ ĳ
çľ ¼
çľ ĭ
ãģ© ãģį
ãģ© ãģĵãĤį
ãĤª ãĤ¹
åł ħ
ãĥī ãĥ«
ãĥī ãĥ©
åŃ¦ çĶŁ
åŃ¦ æł¡
ï½ ĭ
ä¸Ń åĽ½
ãĥģ ãĥ³
èŃ ľ
ãĤ¨ ãĥ«
ãĤ¨ ãĥª
ãģĽ ãĤĵ
ãĥ¡ ãĥĩãĤ£
æ² Ī
ãģĺ ãģ¦
ãĥĳ ãĥ¼
æĭ į
æĭ Ĵ
æĭ Ľ
ãģ¯ ãģª
ãģ¯ ãģļ
ä¹ ¾
ãĥĸ ãĥª
ãĥĬ ãĤ¤
æ°Ĺ æĮģãģ¡
ãĤ» ãĥĥãĥĪ
åħ¥ ãĤĬ
èĪ Ĺ
æı ļ
éħ ·
åĵ ²
åĵ Ģ
åıĸ ãĤĮãĤĭ
ç«ĭ ãģ¦ãĤĭ
æ´ ¥
åĤ į
ãĥĢ ãĥ³
ãĥĢ ãĥ«
ãĥı ãĥ¼ãĥī
ä¼ļ ç¤¾
èĤ ©
èĤ Ŀ
èĩª æ²»
æĤ Ķ
ç¶ ¿
ç¶ Ń
ãĤĪ ãģı
å½ĵ ãģŁãĤĬ
å½ĵ ãģŁãĤĭ
æģ ¥
ãĥĵ ãĥ¥ãĥ¼
ãĥ³ãĤ° ãĥ«
æŁ ³
çļ ®
æļ ĸ
çĹ ´
ãĤį ãģĻ
ãģļ ãĤĭ
æĺİ ãģĳ
åĦ ²
ãģ° ãģĻ
ãģ° ãĤĵ
ãĤ¬ ãĥ¼
æĻĤ ãģ«
æ· ¡
èĦ Ĥ
ãĥ¯ ãĥ¼ãĥī
ãĥ¯ ãĥ¼ãĤ¯
å¦ »
åķ ĵ
ãĥľ ãĥ¼ãĥ«
ä½ľ ãĤĬ
çĽ´ ãģĹ
å¼ķ ãģ£
å¿ĥ åľ°
å² Ĳ
ç² ĭ
è¬ Ģ
å§ ¿
è¼ ©
è¼ Ŀ
çĿĢ ãģı
ç® ±
ç¸ Ħ
çİ Ħ
çİ ī
ãģµ ãĤĭ
åĥ §
åĥ ķ
åĥ ļ
è· Ŀ
çĸ ¾
çĸ İ
èº į
åıĹ ãģĳãĤĭ
å¼· ãģĦ
ãĥĩãĤ£ ãĥ¼
ç¬ ¦
èĸ ¦
æ£ Ĵ
æ£ ļ
ç¿ ¼
è¥ ²
èħ ķ
éĺ »
æĨ ¶
æĨ İ
æį ľ
çª ĵ
ãģİ ãĤĬ
ãĤ® ãĥ¼
ãĤ® ãĥª
åħ± çĶ£
çµĮ æ¸Ī
æ½ Ķ
èĻ «
èĻ ļ
é§ Ħ
é§ ħ
è©± ãģĹ
ãĥķãĤ¡ ãĥ¼
ãĥķãĤ¡ ãĤ¤
èı ĵ
çĨ Ĭ
éĤ ¦
éĬ ĥ
ç¶ļ ãģį
å´ ©
åĶ ±
æĩ ²
æĩ Ĳ
ãĥķãĤ£ ãĥ«
å« ģ
åĿ Ĭ
ãĤ¶ ãĥ¼
ç¾© åĭĻ
æ¹ ¯
æ¹ ¿
éŃ ļ
ãĥ¬ãĥ¼ ãĤ·ãĥ§ãĥ³
è¿½ ãģĦ
æĮ¯ ãĤĭ
ç©į ãģ¿
ãĥķãĤ© ãĥ¼ãĥł
çį £
åī² ãĤĬ
æĽ¿ ãģĪ
è¢ ĭ
æľĿ æĹ¥
èĢĥ ãģĪ
è¸ Ĭ
å¼µ ãĤĭ
å¯Ħ ãģĽãĤĭ
ç¬ĳ ãģĦ
ãĤ¿ãĤ¤ ãĥł
èĪŀ ãģĨ
è¶Ĭ ãģĹ
æĳ ĺ
èĨ ¨
éĨ ¸
æ¸¡ ãģĻ
æ·± ãģĦ
ãģ²ãģ¨ ãĤĬ
ãģ²ãģ¨ ãģ¤
çŀ ¬
ãĤ¸ãĥ§ ãĥ³
æ¢ ħ
é½ ¢
ãĤ«ãĤ¦ ãĥ³ãĥĪ
åĳ¼ ãģ³
æµ® ãģĭ
åĲĪãĤı ãģĽãĤĭ
äºĴ ãģĦ
æİĽ ãģĳãĤĭ
ãĥŁãĥ¥ ãĥ¼ãĤ¸
è¸ı ãģ¿
´ ãĤĭ
µ Ĳ
· ãĤĬ
å ļ
å µĲ
æ ¢¨
ç ĥ
ç ĺ
è ½
è İ
è ļ
è ł
é Ĳ
ï ¹
Ń ãģĦ
ãģ ½
ãģ ĩ
ãĥ ´
ãĤ ¡
ãĥ³ ãĤ»
ãģĦ ãģı
ãģĦ ãģ¨
ãģĦ ãĤį
ãģĦ ãģŁãģł
ãģĦ ãģıãĤī
ä¸ ¹
ãĤ¹ ãĤ¤
ãĤ¹ ãĥĹ
ãĤ¹ ãĥĶ
æľ ´
æľ Ĺ
åħ ¼
ãĥ« ãĥ¼
ãģĻ ãģĶ
åı ¬
åı Ī
åı Ķ
ãģĹ ãĤĤ
ãģĹ åĩºãģĻ
ãģĹ ãģ¾ãģĹãģ¦
äº ĳ
äº ľ
å¤ ®
ãĤ¤ ãĥ³ãĥ
ãĤ¤ ãĥģ
ãĤ¤ ãĥ³ãĥī
ãģĭ ãģ¤
ãģĭ ãĤĤ
ãģĭ ãģĮ
ãģĭ ãģĹãģĦ
ãģĭ ãģ£ãģĵ
ãģĨ ãģ«
ãĥĥ ãĤ³
ãĥĥ ãĤŃ
ãģı ãģĻ
ãģı ãģķãģĦ
åĪ ĥ
ãĥª ãĥĥãĥĪ
åĲ İ
ãĥ© ãĥ³ãĥĢ
ãĤ¢ ãĥķ
ãĤ¢ ãĥŀ
ãĤ¢ ãĤ¦
ãĤ¢ ãĥĭ
ãĤ¢ ãĥł
ãĤ¢ ãĥĢ
ãĤ¢ ãĤ¤ãĤ¹
æĸ ¬
æĸ ī
éģ į
éģ Ń
ä» Ļ
ãģ¾ ãĤĮ
ãģ¾ ãģ¤
ãģ¾ ãģ¡
ãģ¾ ãģĤ
ãģ¾ ãģĽãĤĭ
ãĥ¼ãĥ ĩ
ãĥ¼ãĥ Ļ
ãĥ¼ãĥ Ĳãĥ¼
ãĥ¼ãĥ ĭãĥ³ãĤ°
ï¼ ¥
ï¼ ¬
ï¼ ±
ï¼ µ
ï¼ ¸
ï¼ ¹
ï¼ Ī
ï¼ ī
ï¼ ĵ
ï¼ Ķ
ï¼ ķ
ï¼ ĸ
ï¼ Ĺ
åŃ «
ãģ¨ ãģĦ
ãģ¨ ãģĭ
è¨ Ĥ
ãģĳ ãĤĮ
ãģį ãģ¡
ãģį åĩºãģĻ
ãĤī ãģªãģĦ
æī ¶
ãģ¤ ãģ¾
ãģ¤ ãĤĮ
ãģª ãģ®
ãģª ãģľ
ãģŁ ãģ¨
ãģŁ ãĤĵ
ãģŁ ãĤģ
ãģŁ ãģ©
ãģŁ ãģ³
æĹ ĭ
æĹ Ĺ
ãĤ¿ ãĥ³
ãĤ¿ ãĥĲ
ãģĪ ãģ°
åĭ ĩ
çĽ ¾
çĽ Ĩ
ãģĬ ãĤĭ
ãģĬ ãĤĬ
ãģĬ ãģı
ãģĬ ãģ¨
ãģĬ ãĤĤ
ãģĬ ãģķ
ãģĬ ãģĿ
ãģĬ ãģ°
å¾ ª
å¾ Ģ
å¾ ģ
ãĥ¬ ãĥĥ
åĩ ¶
èª °
èª ī
èª ķ
ãĤ· ãĥ«
ãĤ· ãĥĥãĤ¯
ãĤ· ãĥĥãĥĹ
ãĤ· ãĥªãĤ¢
å° »
å° ¿
ãģ£ ãģĿ
ãĥķ ãĤ¸
ãĥķ ãĥªãĥ¼
ãĥķ ãĥ©ãĤ¤
è¡ °
ãģ« ãģĭ
ãģ« ãĤı
ãģ« ãĤĤ
ãĤģ ãģı
ãĤģ ãģ¡ãĤĥ
æķ ı
çµ ŀ
åį ¸
å¼ ¥
å¼ ¦
å¼ Ĭ
å¼ Ķ
ãĥ³ãĥ Ħ
ãĥ³ãĥ Ķ
ãĥ³ãĥ ĸ
ãĥ³ãĥ ŀ
å¹ £
å¹ »
æŃ ª
éĽ ²
éĽ ¶
éĽ ·
éĽ ħ
åĬ ª
å¯ ¸
å¯ Ĥ
å¯ Ĵ
å¯ Ľ
ä¼ İ
ãĤ« ãĤ¹
ãĤ« ãĤ¤
ãĤ« ãĥª
ãĤ« ãĥ©
ãĤ« ãĥ¡
ãĤ« ãĥĬ
ãĤ« ãĥĥãĥĹ
ãĥŃ ãĥ³
ãĥŃ ãĥĥãĥĪ
ãĥŃ ãĥ¼ãĥ«
ç´ «
ç´ ¯
ç´ ĭ
ç´ Ľ
éĸ ²
æĪ ´
æĪ Ĵ
æĺ §
æĺ ¯
æĺ Ĩ
æĺ Ń
ãģĵ ãĤĭ
ãģĵ ãģ¾
ãģĵ ãģĪãĤĭ
ãģĵ ãģĿ
ãĤı ãĤĮ
ãĤı ãģĳ
ãĤı ãģĹãģĦ
åĩº ä¼ļ
è² «
å¸ ½
å½ °
ãĤ³ ãĥ³ãĥĪ
ãĤ³ ãĥĦ
ãĤ³ ãĥ³ãĥĨ
ãĤ³ ãĥŁãĥ¥
å¤§ ãģį
å¤§ äºº
å¤§ èĩ£
ãģĤ ãģĨ
ãģĤ ãģı
ãģĤ ãģŁãĤĬ
ãģĤ ãģ¾ãĤĬ
ãĢ ľ
ãĤĤ ãģ¨
ãĤĤ ãģ£ãģ¦
åī °
ãģķ ãģķ
åĨ ¬
åĨ Ĵ
ãģ¿ ãģª
ä¸Ģ ä½ĵ
ä¸Ģ åº¦
ä¸Ģ æ®µ
æĦ ļ
ãĥĹ ãĥĪ
ãĥĹ ãĥª
äºº äºĭ
éĻ £
éĻ ¥
éĻ ¶
éĻ Ħ
ç« ľ
åĳ Ĥ
åĳ Ĩ
åĳ Ī
æĢ ĸ
æĢ ł
è³ Ń
è¾ ±
æĬ «
æĬ Ĭ
ãĥĲ ãĥ³
ãĥĲ ãĥ³ãĤ¯
ä¿ ³
ä¿ Ĭ
ãĤŃ ãĤ¹
ãĤŃ ãĥªãĤ¹ãĥĪ
æ³ ¥
æ³ ³
éĥ Ĭ
åĮ ¹
ãĤĦ ãĤĢ
æµ Ħ
å¥ ®
å¥ Ī
å¥ ĳ
å£ ®
å£ ĩ
å£ Į
çĦ ¦
éĿ ´
éĿ ĸ
ãĤ¦ ãĤ¹
ãĤ¦ ãĥł
æ¸ ī
è© ²
è© ³
éł Ī
æľ¬ å½ĵ
è» Į
è» Ł
ãĤµ ãĥ³
ãĤµ ãĥ©
çĶŁ æ´»
çľ º
ãĤª ãĥļ
åł ¤
åł ª
åł Ģ
çķ ľ
æīĭ ä¼Ŀ
ãĥī ãĥ©ãĤ¤
ãĥī ãĤ¤ãĥĦ
ç¨ ½
ç¨ ļ
ï½ Ĥ
ï½ ĥ
ï½ ħ
ï½ ĩ
è£ Ĥ
é£ ¢
ãĥģ ãĥ¥
ãĥģ ãĥ§
ãĤ¨ ãĥ³
ãĤ¨ ãĤ³
ãĤ¨ ãĤ¹ãĥĪ
ãĤ¨ ãĥ³ãĤ¿
ãĤ¨ ãĥ³ãĤ¸
ãĤ¨ ãĥĥãĤ»
ãĥ¡ ãĥ³
ãĥ¡ ãĥ¢
æ² ¸
æ² ĸ
æ² Ļ
è¦ĭ ãĤĭ
è¦ĭ ãģ¤
è¦ĭ ç©į
ãĥĳ ãĤ¹
ãĥĳ ãĥ©
èĢ ķ
ãģł ãĤī
ãģł ãģ«
ãģł ãģĭãĤī
éļ ħ
éļ Ļ
ãĥĭ ãĤ³
ãĥĭ ãĥ³ãĤ°
ãĥĭ ãĥ¥ãĥ¼
æĭ ³
æĭ ĵ
æĭ ĺ
æĭ Ń
ãģ¯ ãĤĦ
ãģ¯ ãģĺ
ãģ¯ ãģ¾ãĤĭ
ä¹ ı
ä¹ Ļ
è« ¾
è« Ń
ãĥĸ ãĥ¬
æ°Ĺ ãģ«
åľ° æĸ¹
æ± °
æ± ģ
ãĥĩ ãĤ¶
æĥ §
æĥ ľ
åĢ «
ç© ´
ç© ı
æı ®
æı ĥ
ä¸į è¶³
ç¥ ¨
éħ µ
ãĥŁ ãĥĥãĤ¯
å¹´ æľĪ
ä¸ĭ ãģĴ
ä¸ĭ ãģĴãĤĭ
ãĥ¼ãĥĪ ãĥ«
åĪĨ ãģĳãĤĭ
ç«ĭ ãģ¦
éķ· æľŁ
åĤ ĺ
ãĥı ãĥª
ä¼ļ è¨Ī
åģ µ
åģ ¶
åģ ī
æ¬ º
ãģ§ ãģ¯
çĤ İ
çŃ Ĵ
èĤ ¥
ç¾ ħ
èĩª åĭķ
èĩª çĦ¶
æĤ £
èµ ´
ãĤ¹ãĥĪ ãĥ©
æº ľ
ç¶ ²
ãĤĪ ãĤį
ãĤ·ãĥ§ ãĥĬãĥ«
ãĢħ ãģ¨
çĦ¡ ãģĹ
çĦ¡ çĲĨ
æģ ¨
æģ ©
æģ Ĵ
æħ ¶
æħ Į
ãĥĵ ãĤ¢
ãĥ¢ ãĥĭ
æļ ¦
æļ «
æļ ĩ
æļ ĳ
ãĤį ãģĨ
ãĥªãĥ¼ ãĥ³
éĸĵ éģķ
å» ·
æ¼ ł
ãĥį ãĤ¹
ãĥį ãĥ«
ãĥĻ ãĥĥãĥĪ
ãĥĻ ãĤ¹ãĥĪ
æĸĩ åĮĸ
æĸĩ åŃĹ
å¢ ĵ
åŁ ¹
èĥ Ĩ
èĥ ŀ
ãĤ± ãĥ¼ãĤ·ãĥ§ãĥ³
ãĥ©ãĤ¤ ãĥ³
ä»ĺ ãģį
æŀ ¶
æŀ Ĳ
æŀ ļ
æŀ ł
ãģ¶ ãĤĭ
ãģ¶ ãĤĵ
çĿ ¡
ãģ° ãĤī
ãĤ¬ ãĤ¤ãĥī
æĦı åĳ³
èĦ ļ
ãĥ¯ ãĤ¯
éŁ »
éŁ ĵ
çŁ¥ äºĭ
å¦ ¥
å¦ ¨
å¦ ¹
å¦ ĥ
å¦ Ĭ
å¦ ĸ
ãĥľ ãĥ¼
ãĥľ ãĥ³
ãĥľ ãĥŃ
çĽ´ ãĤĭ
çĽ´ ãģĲ
å¼ķ ãģı
æ³ķ åĭĻ
ç² Ĵ
ç² Ĺ
ç² ĺ
è¬ Ļ
è± ļ
èĬ ½
åĽŀ ãģĻ
åĽŀ ãĤĬ
åĽŀ ãģĹ
ãģĶ ãĤį
è¼ ĥ
ç¸ ¦
ç¸ Ľ
çı į
çĪ ½
ãĥİ ãĥ³
ãĥİ ãĥŁ
æ°ĳ åħļ
å¡ ©
å¡ ¾
å¡ Ĭ
å¡ ŀ
åĴ ²
ç¹ Ĭ
çģ °
çĭ ©
çĭ Ļ
æľĢ é«ĺ
æ¶ ¼
ãĥĩãĤ£ ãĤ¹
æĴ ²
çł ²
çł ķ
ãĤ½ ãĥ³
çµĲ ãģ³
æĿ± äº¬
æ¡ ľ
æ£ Ł
ç¿ »
èħ °
èŃ° ä¼ļ
æ¿ «
æĨ Ĥ
æį ®
ãĥļ ãĥ³
ãĥļ ãĥ¼ãĤ¸
ãĤ´ ãĥŃ
ãĤ´ ãĥ¼ãĥ«
æ©Ł å«Į
èĲ½ ãģ¨
èĲ½ ãģ¡
èį ĺ
åĲĳ ãģı
åĲĳ ãģį
éĸ¢ å¿ĥ
ãĥĨãĤ£ ãĥ³ãĤ°
æ½ ¤
æ½ °
èĻ ľ
éģİ ãģĶ
éģİ ãģİ
èµ· ãģĵãģĻ
åĻ ´
æĲ Ń
ç³ §
èı Ĭ
èı Į
èı ľ
å¥³ åŃĲ
æĶ¾ å°Ħ
çĦ¶ ãģ¨
é¨ °
é¨ İ
ãĥ¤ ãĥŀ
ä¸ĸ çķĮ
ãĥĹãĥŃ ãĤ°ãĥ©
å¥½ ãģį
ç¥ŀ æĪ¸
å© Ĩ
éĤ £
éĤ ¸
éĬ ĺ
éĮ ¬
éĮ ¯
ãģ¼ ãģĻ
ãĤ¸ãĥ£ ãĥ¼ãĥĬ
æ¤ľ å¯Ł
å´ ĩ
éº Ĺ
ãģĸ ãĤĭ
åĭĿ æīĭ
è¿Ķ ãģĹ
åķı ãģĦ
åĶ ¯
åĶ Ħ
åĶ Ĳ
åŀ £
åŀ Ĥ
æĩ ĩ
æĵ ¦
éī Ľ
ãĤ¹ãĤ¿ ãĥ³ãĥĪ
çµĦ ãĤĢ
çħ ®
ãĤ·ãĥ£ ãĥ«
ãĤ·ãĥ£ ãĥĦ
çĮ Ľ
çĮ Ł
å¸° ãĤĬ
æĶ¯ æīķ
èģŀ ãģį
çį Ħ
æĹ© ãģĦ
å¾Ĺ ãĤĭ
éĽ£ ãģĦ
åĬ© ãģĳ
æĽ¿ ãĤıãĤĭ
è¾² æŀĹ
æľĿ é®®
ãģ£ãģ ½
ãģ£ãģ ·ãĤĬ
ä¼ĳ ãģ¿
ç¾İ åĳ³
èī¯ ãģĦ
ç½® ãģį
ãĤ² ãĥ³
å¯Ħ ãĤĭ
è²ł ãģĨ
ãĥ³ãĥĨ ãĤ£
æĬľ ãģı
æ³¨ æĦı
é£Ľ è¡Į
ãĥĹãĥ¬ ãĤ¼
çªģ ãģį
æĳ ©
æĳ Ĥ
éĹ ĩ
ãģľ ãĤĵ
ãĥ¼ãĥŀ ãĥ³
çĦ¼ ãģį
ä¹ħ ä¿Ŀ
ãĥĢãĤ¤ ãĥ¤
å«Į ãģĦ
çŀ Ń
ä¸¦ ãģ¿
ãĥ¼ãĥĬ ãĥ¼
åįģ åŃĹ
éĿŀ å¸¸
èŃ¦ å¯Ł
åİ» ãĤĭ
è¤ Ĵ
å¯Į å£«
ãģ¡ãĤĩ ãģĨ
æĪĳ ãģĮ
é§Ĩ ãģĳ
ãģĤãĤĬ ãģĮ
é£² ãģ¿
åĥį ãģį
çĴ° å¢ĥ
åĺ Ĩ
éį µ
ãĥĪãĥª ãĥĥãĤ¯
æī± ãģĦ
ç¶Ļ ãģĲ
æļ® ãĤī
ãģĹãĤĥ ãĤĭ
ãĥŀãĥį ãĥ¼ãĤ¸
ãĤ¦ãĤ§ ãĤ¢
æ¾ Ħ
éĭ ¼
ãĤıãĤī ãģļ
çĸ² ãĤĮ
åª Ĵ
çĢ ¬
é¶ ı
éĪ ´
åĩĦ ãģĦ
ç¹° ãĤĬ
æį¨ ãģ¦ãĤĭ
è£ģåĪ¤ æīĢ
å¬ ¢
ç¼ ¶
ãĤ¢ãĥ¡ ãĥªãĤ«
ãĥ¼ãĥĳ ãĥ¼
ãĥ¡ãĥĩãĤ£ ãĤ¢
è·Ŀ éĽ¢
åħ±çĶ£ åħļ
èıĵ åŃĲ
çĥ Ī
ãĤ¢ãĤ¦ ãĥĪ
ãĤ³ãĥŁãĥ¥ ãĥĭ
¢ ãģĨ
¥ ãģĭ
« »
° ãģĨ
´ æŁĵ
¿ ãĤĭ
Ã ·
â Ĩ
â Ī
æ «»
ç º
è ¹
è ĺ
è Ł
é ·
ï §
ï ¿
ĩ ãĤĭ
Ĭ ãģı
į ãĥ«
Ķ ãĥ¥ãĥ¼
ãģ ¢
ãģ ±
ãģ ´
ãģ ·
ãģ º
ãģ ī
ãĥ ²
ãĤ Ĳ
ãĤ Ľ
ãĤ ľ
ãĤ Ŀ
ãĤ ŀ
ãĤĭ ãģĦ
ãĥ¼ ãĤŃ
ãĥ¼ ãĤ±ãĥĥãĥĪ
ãĥ¼ ãĥ©ãĥ³ãĥī
ãģĦ ãģį
ãģĦ ãģ¦
ãģĦ ãĤı
ãģĦ ãģ¯
ä¸ ¼
ä¸ Ķ
ä¸ ĺ
ãĤ¹ ãĥ©ãĤ¤
ãĤ¹ ãĤŃãĥ£
ãĤ¹ ãĥŃãĥ¼
ãĤ¹ ãĥĳãĤ¤
æľ ±
æľ º
ãĥĪ ãĥ¼
ãĥĪ ãĥ³
ãĥĪ ãĤ¦
ãĥĪ ãĥ©ãĤ¤
ãĥĪ ãĥĶ
ãĥĪ ãĥĥãĥĹ
å® °
å® Ľ
åħ ĭ
ãĥ« ãĤ¹
ãĥ« ãĥį
ãĥ« ãĥ¼ãĥĹ
ãģĻ ãģĻ
ãģĻ ãģĭ
ãģĻ ãģı
ãģĻ ãģ¿
ãģĻ ãģ°
ãģĻ ãģ¹
ãĤĬ ãĤĵ
ãĤĬ ãĤĥ
ãĤĬ åĲĪãģĨ
åı ©
åı ª
åı ¶
ãģĹ ãģªãģĦ
ãģĹ ãģĭãĤĭ
ãģĹ ãĤĪãģĨ
äº «
äº Ń
ãĤ¤ ãĤ¤
ãĤ¤ ãĥ¬
ãĤ¤ ãĤ¨
ãĤ¤ ãĥ³ãĥĪ
ãĤ¤ ãĥ³ãĥģ
ãĤ¤ ãĥĨãĤ£ãĥĸ
ãĤ¤ ãĤ¿ãĥªãĤ¢
ãģĭ ãģª
ãģĭ ãĤĮãĤĭ
ãģĭ ãģ®
ãģĭ ãģªãģĨ
ãģĭ ãĤıãģĦ
ãģĨ ãĤĭ
ãģĨ ãĥ¼
ãģĨ ãģĦ
ãģĨ ãģ¾
ãģĨ ãģ¤
ãģĨ ãģª
ãģĨ ãģŁ
ãģĨ ãģĪ
ãģĨ ãģ¡
ãģĨ ãĤı
ãģĨ ãģķ
ãģĨ ãģĭãģĮ
ãĥĥ ãĤ°
ãĥĥ ãĥĿ
ãĥĥ ãĤŃãĥ¼
ãģı ãģĦ
ãģı ãģĺ
ãģı ãģªãĤĭ
åĪ ·
åĪ Ģ
ãĥª ãĥ©
ãĥª ãĥ¼ãĥĪ
ãĥª ãĥ¥
ãĥª ãĥı
ãĥª ãĥ¢
ãĥª ãĥĥãĥĹ
ãĥª ãĥ¼ãĥĢãĥ¼
ãĤ¯ ãĤ·
ãĤ¯ ãĥ©ãĤ¤
ãĤ¯ ãĤ·ãĥ¼
ãĤ¯ ãĥ¬ãĤ¸
ãĤ¯ ãĤ¨ãĤ¹ãĥĪ
åĲ Ł
ãĥ© ãĤ¸
ãĥ© ãĥĸ
ãĥ© ãĤ¹ãĥĪ
ãĥ© ãĥªãĥ¼
ãĥ© ãĥľ
ãĥ© ãĥĨãĥ³
ãĥ© ãĥĵãĤ¢
ãĤ¢ ãĤ¿
ãĤ¢ ãĥ¬
ãĤ¢ ãĤ«
ãĤ¢ ãĥŁ
ãĤ¢ ãĥķãĤ
ãĤ¢ ãĥªãĥ¼
æĸ Ĳ
æĸ Ĺ
éĢ ®
éĢ Ĳ
éĢ Ŀ
éĢ ¢ãģĨ
éģ ¡
éģ ®
éģ µ
éģ ·
éģ ¥ãģĭ
ä» ģ
ä½ ³
ä½ Ĩ
ãģ¾ ãģĹ
ãģ¾ ãģ¨
ãģ¾ ãĤĵ
ãģ¾ ãĤĮãĤĭ
ãģ¾ ãģĵãģ¨
ãģ¾ ãĤıãĤĬ
ãģ¾ ãģ¨ãĤģãĤĭ
ãĥ¼ãĥ ¢
ãĥ¼ãĥ ¯
ãĥ¼ãĥ ĭ
ãĥ¼ãĥ į
ãĥ¼ãĥ ĵ
ãĥ¼ãĥ Ł
ï¼ º
ï¼ »
ï¼ ½
ï¼ ģ
ï¼ Ĩ
ï¼ Į
ï¼ İ
ï¼ Ĳ
ï¼ ĺ
ï¼ Ļ
ï¼ ļ
ï¼ Ľ
ï¼ Ł
ãĤĮ ãģĦ
åĽ ļ
åŃ ¸
åŃ Ķ
åŃ Ŀ
ãģ¨ ãĤī
ãģ¨ ãĤĵ
ãģ¨ ãģ£
ãģ¨ ãģ«
ãģ¨ ãģ¦
ãģ¨ ãģ©
ãģ¨ ãģ£ãģ¦
ãģ¨ ãģĦãģĨ
ãģ¨ ãģªãģı
è¨ Ł
ãģĳ ãģĦ
ãģĳ ãģ£
ãģĳ ãģ«
ãģĳ ãģ©
ãģĳ åĩºãģĻ
ãģĳ ãģªãģĦ
ãģį ãģ®
ãģį è¾¼ãĤĢ
ãģį åĽŀãĤĭ
ãĤī ãĤĵ
ãĤī ãģ£
ãĤī ãĤĢ
æī ī
ãģ¤ ãģĨ
ãģ¤ ãģŁ
ãģ¤ ãĤĤ
ãģ¤ ãģİ
ãģª ãģĹ
ãģª ãģŁ
ãģª ãģĬ
ãģª ãģ¿
ãģª ãģģ
ãģŁ ãĤī
ãģŁ ãģ¤
ãģŁ ãģļ
ãģŁ ãģĹãģ¦
ãģŁ ãģ£ãģ¦
ãģŁ ãģĹãģĭ
æĹ º
æĹ Ń
ãĤ¿ ãĥ¬
ãĤ¿ ãĥĸ
ãĤ¿ ãĥ¼ãĥ«
ãĤ¿ ãĥ¯ãĥ¼
ãģĪ ãģ¦
ãģĪ ãģļ
åĭ ²
åĭ ĥ
ãģĬ ãģĨ
ãģĬ ãģį
ãģĬ ãģĬ
ãģĬ ãģĳãĤĭ
ãģĬ ãĤĦ
ãģĬ ãģĺ
ãģĬ åŃĲ
ãģĬ å®¢
ãģĬ ãģĹãĤĥ
ãģĬ ãģĺãģĦ
ãģĬ ãģªãģĺ
ãģĬ äºĴãģĦ
ãģĬ çĸ²ãĤĮ
å¾ Ħ
å¾ Ĳ
ãĥ¬ ãĤ³
ãĥ¬ ãĤª
ãĥ¬ ãĤ¿ãĥ¼
ãĥ¬ ãĥĻ
ãĥ¬ ãĥ¼ãĥī
ãĥ¬ ãĥ¼ãĤ¸
ãĥ¬ ãĥ³ãĤ¿
ãĥ¬ ãĤªãĥ³
ãĥ¬ ãĥĻãĥ«
ãĥ¬ ãĤ¿ãĥªãĤ¢
åĩ ¡
åĩ ¹
åĩ ½
åĩ Ĩ
èª ĵ
ãĤ· ãĤ«
ãĤ· ãĤ¹ãĥĨ
ãĤ· ãĤ¹ãĤ³
å° º
å° ¼
å° ļ
ãģ£ ãģŁ
ãģ£ ãģĭãģĦ
ãģ£ ãģŁãĤĬ
ãĥķ ãĥ¼
è¡ ¡
ãģ« ãģ¡
ãģ« ãĤĪ
ãģ« ãģŁãģĦ
ãģ« ãģĬãģĦ
ãģ« ãģ¤ãģį
ãģ« ãĤĪãĤĬ
ãģ« ãģ¤ãĤĮ
ãĤģ ãĤĵ
ãĤģ ãģ§
ãĤģ ãģĲ
ãĤģ è¾¼ãĤĢ
åº ¶
æķ ¢
çµ ¹
åį µ
åį ĳ
æ° ·
æ° ¾
å¼ Ħ
å¼ ĵ
éĩ Į
éĩ ľ
åľ ĭ
åľ ı
åľ ĵ
ãĥ³ãĥ Ŀ
ãĥ³ãĥ ĭãĥ³ãĤ°
ãĥ³ãĥ įãĥ«
å¹ ½
éĽ °
éĽ Ģ
éĽ Į
å¯ ¦
å¯ §
å¯ ®
ãĤ¸ ãĥ³
ãĤ¸ ãĥ«
ãĤ¸ ãĥ©
ãĤ¸ ãĥĥãĤ¯
ãĤ¸ ãĥ¼ãĥ³
ãĤ¸ ãĥįãĤ¹
ä¼ ı
ä¼ Ĳ
ãĤ« ãĥ³
ãĤ« ãĤ¿
ãĤ« ãĥ¬
ãĤ« ãĥĨ
ãĤ« ãĥĭ
ãĤ« ãĥĥãĥĪ
ãĤ« ãĥŁ
ãĤ« ãĥ¼ãĥī
ãĤ« ãĤ¹ãĤ¿
ãĤ« ãĥĥãĤ³
ãĤ« ãĥĪãĥªãĥĥãĤ¯
ãģ¡ ãģı
ãģ¡ ãģ«
ãĥŃ ãĤ¹
ãĥŃ ãĥĥãĤ¯
ãĥŃ ãĥ¼ãĥī
ãĥŃ ãĥĩãĤ£
ç´ ³
ç´ ¹
éĸ ¥
æĪ ĸ
æĪ ļ
ãģĵ ãģĦ
ãģĵ ãĤī
ãģĵ ãĤĢ
ãģĵ ãģł
ãģĵ ãĤĵãģª
ãģĵ ãģªãģĻ
ãģĵ ãĤĤãĤĭ
ãģĵ ãĤĵãģªãģ«
ãĤı ãģĨ
ãĤı ãģĪãĤĭ
ãĤı ãģļ
åĩº ãĤĭ
åĩº ãģĽãĤĭ
çī ²
çī Ļ
è² ¢
è² ¼
è² ¿
è² Į
è² Ŀ
è² ŀ
å¸ Ĩ
å½ Ļ
ãĤ³ ãĥ¼
ãĤ³ ãĥĪ
ãĤ³ ãĥ«
ãĤ³ ãĤ¯
ãĤ³ ãĥŃ
ãĤ³ ãĥŀ
ãĤ³ ãĥ³ãĤ¯
å¤§ ãģĦ
å¤§ ä½¿
å¤§ èĶµ
å· £
ãģĤ ãģ¨
ãģĤ ãģ¦
ãģĤ ãĤĦ
ãģĤ ãģ®
ãģĤ ãģĴãĤĭ
ãģĤ ãģ£ãģ¨
ãģĤ ãģķãĤĵ
ãģĤ ãģĮãĤĭ
ãģĤ ãģŁãĤĭ
ãĢ ĥ
ãĢ Ĩ
ãĢ ĩ
ãĢ Ī
ãĢ ī
ãĢ Ĭ
ãĢ ĭ
ãĢ Ĵ
ãĢ ĵ
ãĢ Ķ
ãĢ ķ
ãĥŀ ãĤ¹
ãĥŀ ãĥ¬ãĥ¼
ãĥŀ ãĥĥãĤ¯ãĤ¹
ãĥŀ ãĥĭãĤ¢
ãĤĤ ãĤĵ
ãĤĤ ãģ¡
ãĤĤ ãĤį
ãĤĤ ãģ£ãģ¨
ãĤĤ ãģĹãģĭ
ãĤĤ ãģªãģı
åī ĸ
åī Ľ
ãģķ ãģĻ
ãģķ ãĤĬ
ãģķ ãģ¨
ãģķ ãģį
ãģķ ãģ¤
ãģķ ãģ£
ãģķ ãģ¦
ãģķ ãģĪãĤĭ
ãģķ ãĤĪãģĨ
åĨ ¥
åĨ Ĺ
åĨ ł
ãģ¿ ãģĿ
ãģ¿ ãģļ
ä¸Ģ çĶŁ
ä¸Ģ æĸ¹
ä¸Ģ æľĪ
ä¸Ģ éĥ¨
ä¸Ģ çĽ®
ä¸Ģ æĻĤ
ä¸Ģ åħĥ
ä¸Ģ æŃ©
ä¸Ģ éĥİ
ä¸Ģ æĺ¨
ä¸Ģ æĿ¯
ä¸Ģ èĪ¬
æĽ °
æĽ ¹
æĽ ½
æĽ ĸ
æĦ ķ
ãĥĹ ãĥ¬ãĥ¼
ãĥĹ ãĥªãĥ³
ãĥĹ ãĥ©ãĤ¹
äºº éĸĵ
äºº æķ°
éĻ ª
éĻ µ
éĻ Ľ
ç· ¯
ç· »
åĳ ī
æĢ ¯
è³ Ħ
è³ Ĭ
è³ ĳ
è³ ľ
è³ ł
è¾ °
çĻ ĸ
æĬ ¹
ãĥĲ ãĤ°
ãĥĲ ãĥ¼ãĤ¸
ãĥĲ ãĤ¤ãĤ¹
ä¿ µ
ä¿ º
è¿ ħ
ãĤŃ ãĥ³
ãĤŃ ãĥ©
ãĤŃ ãĥł
ãĤŃ ãĥĥãĥĪ
ãĤŃ ãĥ¥ãĥ¼
æ³ ¡
æ³ °
æ³ Į
éĥ ¡
éĥ Ń
æĹ¥ ãģ®
æĹ¥ ä¸Ń
æĹ¥ çµĮ
ãĤ° ãĥĥ
ãĤ° ãĥ©ãĥł
ä¸Ĭ æīĭ
ä¸Ĭ æĺĩ
æİ ª
åĮ ¿
åĮ Ĥ
ãģĿ ãĤĭ
ãģĿ ãĤĤ
ãģĿ ãĤĵãģª
ãĤĦ ãĤĮ
ãĤĦ ãĤĦ
ãĤĦ ãģ£ãģ¦
ãĤĦ ãģ£ãģ±
ãĤ·ãĥ Ł
å¥ ī
ãĥĨ ãĥŃ
ãĥĨ ãĤŃ
ãĥĨ ãĥĥãĥī
ãģĮ ãģĨ
ãģĮ ãģį
ãģĮ ãĤĵ
ãģĮ ãģĳãĤĭ
ãģĮ ãģĭãĤĬ
æł ½
æł ĥ
æł ĵ
ãĤ¦ ãĥŃ
ãĤ¦ ãĥŀ
ãĤ¦ ãĥĥãĥī
ãĤ¦ ãĤ¨ãĤ¢
æ¸ ¦
æ¸ ĵ
è© ®
è© Ĳ
èĩ Ń
éł ģ
éł Ĵ
æľ¬ å±ĭ
ãģ® ãĤĬ
ãģ® ãģ¡
ãģ® åŃĲ
è» ¸
è» Ĵ
ãĤµ ãĤ¹
ãĤµ ãĤ¦
ãĤµ ãĥł
ãĤµ ãĥ³ãĥī
ãĤµ ãĥ³ãĥĹ
ãĤµ ãĥ¼ãĥģ
çĶŁ ãģĪãĤĭ
çĶŁ çī©
çĶŁ çĲĨ
çĶŁ æħĭ
çĶŁ ãģ¾ãĤĮ
æĮ ¨
æĮ «
æĮ ¿
æĮ Ł
çľ ī
çľ ŀ
ãģ© ãĤĭ
ãģ© ãģĦ
ãģ© ãĤĮ
ãģ© ãĤĵ
ãģ© ãģĵ
ãĤª ãĥ«
ãĤª ãĥķ
ãĤª ãĥĸ
ãĤª ãĥ¼ãĥĪ
ãĤª ãĥķãĤ£
ãĤª ãĥªãĥ³
ãĤª ãĥ¼ãĥĹ
ãĤª ãĥ¼ãĥĩãĤ£
åł µ
åł ķ
çķ ³
çķ ¿
çķ ĳ
æ¥ ¼
çŁ ¯
çŁ Ľ
ãĥī ãĤ¢
ãĥī ãĥŃ
ãĥī ãĤŃ
ãĥī ãĤŃãĥ¥
åŃ¦ ä¼ļ
åĲĪ ãģĽ
åĲĪ çĲĨ
åĲĪ æł¼
åĲĪ è¡Ĩ
ç§ ©
ç§ Ĵ
ç§ Ł
ï½ ģ
ï½ Ĳ
ï½ ĵ
ï½ ĸ
ï½ Ĺ
ï½ ĺ
ï½ Ľ
ï½ Ŀ
ä¸Ń éĢĶ
ä¸Ń åŃ¦æł¡
ä¸Ń å¤®
è£ ¸
é£ ½
ãĥģ ãĥĥãĤ¯
ãĥģ ãĥ¼ãĥķ
åĽ½ åĨħ
åĽ½ åĭĻ
ãĤ¨ ãĥī
ãĤ¨ ãĥ¼ãĥ«
ãĤ¨ ãĥ³ãĥĪ
ãĤ¨ ãĥĩãĤ£
ãĤ¨ ãĥ¼ãĤ·ãĥ§ãĥ³
ãĤ¨ ãĤŃãĤ¹
ãĤ¨ ãĥ¬ãĥĻ
ä¾ ®
ä¾ ¶
ä¾ į
ãģĽ ãģĦ
ãģĽ ãģ£
ãĥ¡ ãĥ¼
ãĥ¡ ãĥ¼ãĥ«
ãĥ¡ ãĤ¬
ãĥ¡ ãĤ¤ãĥ³
ãĥ¡ ãĥ¼ãĤ¸
ãĥ¡ ãĥ³ãĤ¿
ãĥ¡ ãĥ³ãĥĨ
ãĥ¡ ãĥ¼ãĤ·ãĥ§ãĥ³
ãĥ¡ ãĥĢãĥ«
ãĥ¡ ãĥªãĥĥãĥĪ
ãĥ¡ ãĥ¼ãĥĪãĥ«
æ² ¼
é¡ İ
ãģĺ ãĤı
ãĥĳ ãĥĥ
ãĥĳ ãĥ¼ãĥ«
ãĥĳ ãĥ¯ãĥ¼
ãĥĳ ãĥ¼ãĥĨãĤ£
èĢ ³
èĢ Ĺ
ãģł ãģĻ
ãģł ãģĭ
ãģł ãģı
éļ ·
éļ »
éļ Ĩ
ãĥĭ ãĤ¹
ãĥĭ ãĥĥãĥĿ
æĭ ¶
æĭ ·
æĭ ¾
æĭ ī
æĭ Ĳ
æĭ Ļ
åİ Ħ
ãģ¯ ãĤĭ
ãģ¯ ãĤĬ
ãģ¯ ãĤĵ
ãģ¯ ãģ¦
ãģ¯ ãĤģãĤĭ
ãģ¯ ãģĺãĤģ
ä¹ ŀ
ä¹ Ł
è« ¦
è« ®
ãĥĸ ãĥ³
ãĥĸ ãĥĥãĤ¯
ãĥĸ ãĥ©ãĤ¤
ãĥ£ ãĥ¼
ãĥĬ ãĤ¹
ãĥĬ ãĥĬ
ãĥĬ ãĥ³ãĤ¹
ãĥĬ ãĥ³ãĥĲãĥ¼
æ°Ĺ ãģĮ
æ°Ĺ åĳ³
æ°Ĺ è±¡
åľ° ä¸Ĭ
åľ° ä¸ĭ
æ± ½
æ± İ
æ± Ĺ
ãĥĩ ãĥ³
ãĥĩ ãĥ«
ãĥĩ ãĤª
ãĥĩ ãĥ¼ãĥĪ
ãĥĩ ãĥ¥
ãĥĩ ãĥ¼ãĤ¿
æĥ ¨
æĥ ļ
ãĤ» ãĤ¹
ãĤ» ãĥ¼ãĥ«
ãĤ» ãĥŁ
ãĤ» ãĥ³ãĤ¹
ãĤ» ãĤŃãĥ¥
çĲ ´
å®ļ æľŁ
åħ¥ ãĤĭ
åħ¥ éĩĳ
åĢ £
ç© «
ç© Ģ
ç© Ĥ
èĪ ¶
èĪ Į
èĪ Ľ
èĪ Ł
ãģĴ ãĤĵ
ãģĴ åĩºãģĻ
ãĥ¼ãĥ« ãĤº
ä¸į åĭķ
ä¸į å®ī
ä¸į åĪ©
æ¨ ½
ç¤ İ
ç¥ ī
éħ ¢
éħ ¬
éħ İ
ãĥŁ ãĥ³
ãĥŁ ãĤ¹
ãĥŁ ãĥ«
ãĥŁ ãĤµ
ãĥŁ ãĥĭ
ãĥŁ ãĥ³ãĤ°
å¹´ æľ«
ä¸ĭ ãĤĬ
ä¸ĭ ä½į
ä¸ĭ è«ĭ
ä¸ĭ ãĤįãģĻ
çī© èªŀ
æ® »
æ® Ĭ
åĪĨ ãģĳ
æĸ¹ åĲĳ
åıĸ å¼ķ
åıĸ ç·ł
æ´ ª
ãĥ¥ ãĤ¢
ãĥ¥ ãĥ©ãĥ¼
åĤ ²
åĤ ĳ
ãĥĢ ãĤ¦
ãĥĢ ãĥł
ãĥĢ ãĤ¦ãĥ³
ãĥı ãĥĥ
ãĥı ãĥ©
ãĥı ãĥŃ
ãĥı ãĥ³ãĥī
ãĥı ãĥ¯ãĤ¤
ãĥı ãĥ³ãĥĲãĥ¼
ãĥı ãĤ¦ãĤ¹
ä¼ļ ãģĨ
ä¼ļ è©±
æ¬ ¾
æ¬ Ħ
æ¯ Ģ
äºĭ æ¥Ń
äºĭ åĭĻ
ãģ§ ãģį
ãģ§ ãĤĵ
ãģ§ ãģ«
ãģ§ ãģįãĤĭ
çĤ ī
èĤ ¢
èĤ ª
èĤ ¯
èĤ º
èĤ Į
èĤ ĸ
èĤ ĺ
åĭķ åĬĽ
ç¾ ¨
ç¾ Ĭ
ä½ĵ èĤ²
è¾¼ ãĤģãĤĭ
èĩª åĪĨ
èĩª è¡Ľ
èĩª çĶ±
æĤ ¼
æĤ ł
èµ ¦
ãĤº ãĥĭãĥ¼
æº º
æº Ŀ
ç¶ »
éĥ¨ å±ĭ
èī ¶
èī ĩ
å½ĵ ãģ¦ãĤĭ
ãĤ·ãĥ§ ãĥ¼ãĥĪ
ãĤ·ãĥ§ ãĥĥãĥĹ
æĸ° åħ¥
æĸ° æ½®
éĢļ çĶ£
éĢļ ä¿¡
çĦ¡ é§Ħ
æģ £
æħ ¨
æħ Ī
æħ İ
æħ ķ
ãģ³ ãģ«
ãģ³ ãģĹãģĦ
ãĥĵ ãĥ³
ãĥĵ ãĥ³ãĤ°
ãĥĵ ãĤ¸ãĥ§ãĥ³
ãĥĵ ãĤ¸ãĥįãĤ¹
åīį ç·ļ
åīį æıĲ
æŁ ±
æŁ ´
æŁ µ
æŁ ¿
æŁ ı
æŁ Ĳ
çļ ¿
ãģĲ ãĤĮ
ãĥ¢ ãĥŃ
ãĥ¢ ãĥ¼ãĥ«
ãĥ¢ ãĥİ
ãĥ¢ ãĤ¹ãĤ¯
å°ı åŃ¦
å°ı åħĲ
å°ı éº¦
æļ ģ
çĹ ¢
çĹ ©
çĹ ķ
ãĤį ãĤĵ
ãĥ³ãĥĪ ãĥ³
ãĥªãĥ¼ ãĤ¹
ãĥªãĥ¼ ãĤ°
ãĥªãĥ¼ ãĤº
éĸĵ ãģ«
å» £
å» ī
å» Ĭ
åĸ ©
åĸ ª
åĸ ī
åĸ ļ
ãģļ ãĤĮ
ãģļ ãģĭãģĹãģĦ
æĽ¸ åºĹ
æ¼ «
æ¼ ¬
æ¼ Ĥ
ãĥį ãĥĥãĥĪ
ãĥį ãĥ¼ãĥĪ
ãĥį ãĥ¼ãĥł
ãĥĻ ãĥ¼
ãĥĻ ãĥ¼ãĥĪ
ãĥĻ ãĥ¼ãĤ¹
ãĥĻ ãĥ³ãĥģ
åĲĮ ãģĺ
åĲĮ æĢ§
åĲĮ æĻĤãģ«
åĲį äºº
åĲį è©ŀ
æĸĩ åŃ¦
æĸĩ éĥ¨
æĸĩ åº«
æĺİ ãģĳãĤĭ
æĺİ æĹ¥
æĺİ æ²»
å¢ ¨
å¢ ³
å¢ ľ
åŁ ¼
èĥ ´
èĥ ¸
èĥ ĥ
èĥ İ
é¤ ħ
é¤ Į
é¤ ĵ
ãĥĿ ãĥ«
ãĥĿ ãĥª
ãĥĿ ãĤ¸
ãĥĿ ãĥ¼ãĥ«
ãĥĿ ãĥĥãĥĹ
ãĤ± ãĥ³
ãĥ©ãĤ¤ ãĥĪ
ãĥ©ãĤ¤ ãĥķ
ãĥ©ãĤ¤ ãĥĸãĥ©
ãĥ©ãĤ¤ ãĥĢãĥ¼
éĿ¢ çĻ½
éĿ¢ åĢĴ
åĦ Ħ
æŀ ¢
æŀ ¯
æŀ ķ
æŀ Ŀ
ãģ¶ ãĤĬ
ãģ¶ ãĤī
ãģ¶ ãģ¤
ä¸» äºº
ä¸» é¡Į
ä¸» ç¾©
åĪĩ ãĤĮ
åĪĩ ãĤĮãĤĭ
åĪĩ æīĭ
å¾Į æĹ¥
çĿ £
ãģ° ãĤĭ
ãĤ¬ ãĤ¹
ãĤ¬ ãĥ«
ãĤ¬ ãĤŃ
æľī ãĤĬ
å¤ĸ åĭĻ
å¤ĸ ç·ļ
éģĵ è·¯
éģĵ åħ·
éģĵ å¾³
çĽ® è¦ļ
æķ° å¤ļ
æĦı æ°Ĺ
æĦı åľ°
æĦı å¤ĸ
æĦı ç¾©
æĦı èŃĺ
æĻĤ çĤ¹
æĻĤ è¨Ī
èĦ ĩ
èĭ Ĺ
èĭ Ľ
ãĥ¯ ãĤ·
ãĥ¯ ãĥ¼ãĥ«ãĥī
åħĪ ç«¯
æīĢ åľ¨
ç½ ł
åħ¬ åĭĻ
åħ¬ å¹³
åħ¬ éĸĭ
åħ¬ åĽ£
åħ¬ å¼ı
ãĥ³ãĥī ãĥ³
çŁ¥ ãĤīãģĻ
çŁ¥ èŃĺ
é«ĺ æł¡
å¦ ¬
å¦ Ħ
æ§ ½
ãĥľ ãĥĪãĥ«
ä½ľ çī©
ä½ľ çĶ¨
çĽ´ æİ¥
åł´ æīĢ
å² ¬
å² ³
ç² §
ç² Ľ
è¬ ¡
è¬ İ
èĬ ¯
èĬ ³
èĬ ĭ
ãģ² ãĤī
ãģ² ãĤĩ
ãĥĶ ãĥ³
æķĻ ãģĪ
æķĻ èĤ²
æķĻ ç§ĳ
æķĻ å¸«
æķĻ å¾Ĵ
æķĻ æİĪ
æĪ¦ äºī
åİŁ åŃĲ
ç¤¾ ä¼ļ
ç¤¾ åĵ¡
å§ »
å§ ĵ
æ¤ İ
æ¤ ħåŃĲ
ãģĶ åŃĺ
æľŁ éĸĵ
æĪĲ ãĤĬ
æĪĲ çĶ°
è¼ Ķ
æ°´ çĶ£
æŃ£ æľĪ
è§£ ãģı
ç® ¸
ç® ĩ
ç® ĭ
ç¸ «
çİ ©
çı ł
çı Ń
ãģµ ãĤī
ãģµ ãĤĵ
ãģµ ãĤĮãĤĭ
ãģµ ãģĨãģ«
å¯¾ éĿ¢
æĦŁ ãģĺ
åĥ ħ
çĪ ª
çĪ µ
è· µ
é¦ ³
é¦ ´æŁĵ
ãģ» ãģĭ
ãģ» ãģ£ãģ¨
ãĤ¤ãĥ³ ãĤµãĤ¤
ãĤ¤ãĥ³ ãĤ¿ãĥ¼ãĥ³
çĶ£ çī©
çĶ£ çµĮ
æ°ĳ ä¸»
å¡ Ģ
å¡ ģ
å¡ Ķ
ç¹ ķ
èĲ ¬
èĲ İ
ãĥĽ ãĥ³
ãĥĽ ãĥ«
ãĥĽ ãĥ¯ãĤ¤
æľĢ å¤§
æľĢ å°ı
æľĢ ä½İ
ãģĹãģ¦ ãĤĤ
éĩį çĤ¹
éĩį ãģŃãĤĭ
æĿ¥ ãĤĭ
æ¶ ¯
æ¶ Ļ
çĸ «
éľ §
åıĹ é¨ĵ
å¹³ çŃī
å¹³ æ´ĭ
éĸĭ ãģı
çī¹ å®ļ
çī¹ è¨±
åĳ³ åĻ
æĢ§ èĥ½
ãĥĩãĤ£ ãĤ¹ãĤ¯
ãĥĩãĤ£ ãĤºãĥĭãĥ¼
æ» ´
æ» ĭ
æ» Ŀ
ç¬ Ľ
èĳ £
èĳ Ľ
èĸ ª
èĸ «
èĹ ©
èĹ į
èĹ Ŀ
ãģ¹ ãģį
ãĤ½ ãĥ«
ãĤ½ ãĥŃ
ãĤ½ ãĥ¼ãĤ¹
ä½ķ æķħ
è¦ģ ãģĻãĤĭ
çµĲ å©ļ
æ¡ ģ
æ¡ ĥ
æ£ ĭ
èħ «
èħ ¸
èħ İ
éĺ ľ
å®ī å¿ĥ
å®ī ä¿Ŀ
ä»£ çĲĨ
éĽ» è©±
éĽ» ç£ģ
èŃ° éĻ¢
å³ ¡
å³ °
å³ ł
æ¿ ¯
æ¿ ±
ç¯ ¤
èªŃ å£²
ãģ£ãģ¨ ãģĹãģŁ
æł¼ éĹĺ
ç©º æ¸¯
åıĸãĤĬ æ¶Ī
åıĸãĤĬ ç·ł
æĨ ¤
æĨ §
æĨ ©
æĨ ¾
æį ī
æį Ĺ
ãĥļ ãĥĥãĥĪ
ãĥļ ãĥ¼ãĤ¹
ãĤ´ ãĥ¼
ãĤ´ ãĥ«
ãĤ´ ãĥŁ
åıį å¯¾
éĢ² ãĤĢ
éĢ² ãĤģãĤĭ
ä¿Ŀ èĤ²
ä¿Ŀ åģ¥
æ©Ł éĸ¢
ç¦ ħ
çª ®
çª ĥ
çª Ĵ
çª Ł
çĬ ł
åħ± ãģ«
åħ± åĲĮ
åħ± åĴĮ
åĲĳ ãģĭãģĨ
çµĮ é¨ĵ
éĸ¢ ä¿Ĥ
ãĥĨãĤ£ ãĥ¼
çľŁ ä¼¼
æ±º ãĤģ
æ±º å®ļ
æ±º åĭĿ
æ½ Ł
èĻ ¹
èĻ İ
é§ Ĵ
å¤ī ãĤıãĤĭ
ãĥªãĤ¢ ãĥ«
éģİ ãģİãĤĭ
çĽ¸ æīĭ
çĽ¸ å¿ľ
æĦĽ åĽ½
æµģ ãĤĮ
æµģ è¡Į
ãĥķãĤ¡ ãĥ³ãĥī
èµ· è¨´
åĻ Ĥ
æĲ ¬
æĲ ¾
ç³ ¸
ç³ ¾
èı ħ
æµ· å²¸
æĶ¾ ãģĻ
æĶ¾ éĢģ
éŁ³ æ¥½
ãĥ¤ ãĥ³
ä¸ĸ ä»£
ä¸ĸ è©±
å°ĳ ãģĹ
å°ĳ åŃĲ
å°ĳ å¹´
å°ĳ å¥³
å°ĳ ãģªãģĦ
åįĬ æķ°
åįĬ èº«
åįĬ å³¶
åįĬ ç«¯
ãĥĹãĥŃ ãĥĢ
ãĥĹãĥŃ ãĥ¬ãĤ¿ãĥªãĤ¢
å¥½ ãģ¿
å¥½ èª¿
ç¨İ åĭĻ
ä¹Ĺ ãĤĭ
æĥ³ ãģĦ
ç¥ŀ ç¤¾
ç¥ŀ çµĮ
æ¬¡ ãģĲ
æ¬¡ å®ĺ
æ¬¡ ç¬¬
ç± ł
éĬ ħ
éĮ ¦
éĮ ł
ãģ¼ ãĤĵ
ãģ¼ ãģ¡
éĢģ ãĤĭ
éĢģ ãĤĬ
éģ¸ æīĭ
éģ¸ ãģ³
éģ¸ æĬŀ
éģĭ åĭķ
éģĭ è»¢
éģĭ è¼¸
åĬł ãģĪãĤĭ
åĬł æ¸Ľ
ãĤ¸ãĥ£ ãĥ³
éĻ¢ çĶŁ
ç¶ļ ãģı
æ¤ľ æŁ»
æ¤ľ è¨İ
å´ ĸ
éº º
éº ĵ
ãģĸ ãģĻ
ãģĸ ãģ¾
ãĤĨ ãģį
ãĤĨ ãģĪ
äº¤ éĢļ
äº¤ å·®
äº¤ éŁ¿
äºĪ åĳĬ
äºĪ åĤĻ
åĪ¶ éĻĲ
ä»ķ äºĭ
åĭĿ ãģ¡
è¿Ķ ãĤĭ
åĮĹ æµ·
æĥħ åł±
èģ· åĵ¡
åĶ Ĩ
åĶ ĩ
åŀ ¢
æĩ ī
æĵ ¬
æĵ ģ
éī ¢
ãĤĩ ãģĨ
ãĤ¹ãĤ¿ ãĥ³
ãĤ¹ãĤ¿ ãĤ¤ãĥ«
ãģĻãĤĭ ãģ¨
ãĥķãĤ£ ãĥ¼ãĥī
ãĥķãĤ£ ãĤ¯ãĤ·ãĥ§ãĥ³
åºĥ ãģĦ
åºĥ ãģĴãĤĭ
åºĥ ç¯Ħ
çµ¶ å¯¾
å·® åĪ¥
ä¿® éģĵ
å« ī
åĿ ª
ç¢ ģ
ç¢ ĳ
å¤© æ°Ĺ
å½¹ æīĢ
è³ĩ æĸĻ
ãĤ·ãĥ£ ãĥ¼
ãĤ·ãĥ£ ãĥ³
æĶ¿ æ²»
æĮĩ ãģĻ
åĦª ç§Ģ
æ¹ §
æ¹ ĸ
çĮ «
çĮ ¶
çĮ ¿
éŃ Ĥ
ãĥ§ ãĥ³
ãĥĴ ãĥ«
ãĥĴ ãĥŃ
ä¸ī èĢħ
ä¸ī è§Ĵ
ãĤ¤ãĤ¹ ãĥ©
ãĤ¤ãĤ¹ ãĥ©ãĥł
æŃ¢ ãĤģ
æŃ¢ ãĤģãĤĭ
æŃ¢ ãģ¾ãĤĭ
æŃ© ãģı
éĽ¢ ãģĻ
éĽ¢ ãĤĮãĤĭ
å¸° ãĤĭ
ãĤŃãĥ£ ãĥ©
ãģĿãĤĮ ãģ«
ãģĿãĤĮ ãģ§
ãģĿãĤĮ ãģłãģĳ
æĶ¯ ãģĪãĤĭ
ãĥģãĥ£ ãĥ¼
ãĥģãĥ£ ãĥ³
ãĥķãĤ© ãĥ¼
ãĥķãĤ© ãĥ¼ãĥŀ
èĮ ¨
èĮ Ĥ
èĮ İ
èĶ ½
èĶ ĳ
é³ ©
æĹ© ãģı
æĹ© ç¨²
å¸Ĥ è¡Ĺ
éĥ½ åĲĪ
éĥ½ å¸Ĥ
è¢ ĸ
ãĥ¦ ãĥ¼
ãĥĺ ãĥ³
ãĥĺ ãĥª
ãĥĺ ãĥĥãĥī
åı¯ æĦĽ
å¤± ãģĨ
ãĤ¢ãĥ« ãĥķãĤ¡
éģ© åĪĩ
ä½ı æ°ĳ
åĽ³ æĽ¸
åĩ¦ åĪĨ
åĩ¦ æĸ¹
åĩ¦ çĲĨ
åįĹ ç±³
åįĺ èªŀ
æ¥µ ãĤģãĤĭ
æ¯į ãģķãĤĵ
ç¾İ è¡ĵ
èĭ¦ åĬ´
éĺ² è¡Ľ
è¸ ª
ãĥ¼ãĥĸ ãĥ³
ãĥ¼ãĥĸ ãĥ«
å¼µ ãĤĬ
æĿĲ æĸĻ
å¯Ħ ãĤĬ
å¿ħ ãģļ
å¿ħ è¦ģ
è²ł ãģĳ
çķĻ å®Ī
å»º è¨Ń
æŀľ ãģ¦
æ§ĭ ãģĪ
çĭ¬ ãĤĬ
ç¿Ĵ ãģĨ
åĻ¨ çĶ¨
å¤ľ ä¸Ń
ãĤ¤ãĥ« ãĥī
è¦ı æ¨¡
ãģ¨ãĤĤ ãģ«
ãĥķãĥ© ãĥ³
ãĥķãĥ© ãĥ³ãĤ¹
ãĥķãĥ© ãĥ³ãĤ¯
æŃĮ èĪŀ
åĬ´ åĥį
æĬľ ãģį
æĬľ ãģĳãĤĭ
åĮ» èĢħ
åĮ» èĸ¬
ç¨ĭ åº¦
æ®ĭ ãĤĭ
æ®ĭ ãģĻ
æ®ĭ ãĤĬ
ãĥķãĤ§ ãĥ³ãĤ¹
ç²¾ ç¥ŀ
ç¢º ãģĭ
âĢ ¥
âĢ »
âĢ ķ
âĢ Ļ
çĴ §
å®Ī ãĤĭ
å®Ī ãĤĬ
å¤ª éĥİ
å¤ª éĻ½
å¤ª å¹³æ´ĭ
ãĤ¯ãĥª ãĤ¹
ãĤ¯ãĥª ãĥ¼ãĥł
éģķ ãģĦ
éģķ ãģĨ
ä½Ļ ãĤĬ
åº§ ãĤĭ
åľ§ åĢĴ
ãĥĹãĥ¬ ãĥŁ
éĻ¤ ãģı
èĪŀ ãģĦ
çŃĶ ãģĪ
è¶Ĭ ãģĻ
è¶Ĭ ãģĪãĤĭ
çİĭ åŃĲ
èĸ¬ åī¤
å¨ ¯
å¨ ĺ
å¨ ł
æĳ ¯
çĩ ¥
èĨ ļ
èĨ ľ
èĨ Ŀ
éĨ ľ
ãģľ ãģ²
ãĥ¨ ãĥ¼
ãĥĪãĥ© ãĥĥãĤ¯
åħµ åĻ¨
åħ· åĲĪ
ä»® éĿ¢
å¼ģ èŃ·
æŃ¦ èĶµ
ãĤ¸ãĤ§ ãĥ¼ãĥł
ãĤ¸ãĤ§ ãĤ¯ãĥĪ
ãĥŃãĥ¼ ãĤº
è²¡ åĭĻ
è²¡ æĶ¿
ãĥŀãĤ¤ ãĤ¯ãĥŃ
ä¹ħ ãģĹ
ãĥĸãĥ« ãĤ¸ãĥ§
åĢĭ ãĢħ
ãĥĢãĤ¤ ãĤ¨
èµ° ãĤĬ
æģĲ ãĤĭ
åĸ¶ æ¥Ń
èĬ¸ èĥ½
èĬ¸ è¡ĵ
çĪ¶ ãģķãĤĵ
çĪ¶ æ¯į
çŀ ³
è°· å·Ŀ
å®Į åħ¨
ãģĹãģĭ ãģĹ
çĶº æĿĳ
äº¬ éĥ½
å°Ĥ éĸĢ
æķĳ æĢ¥
åįģ åĪĨ
ãĥ³ãĥĢ ãĥ¼
ãĥ³ãĥĢ ãĥ«
ãĤ³ãĥ³ ãĤµãĥ«
ç·ł ãĤģ
æĻ¯ æ°Ĺ
ãĤµãĤ¤ ãĥĪ
ãĤµãĤ¤ ãĤ¯ãĥ«
ä¾¿ ãĤĬ
é¡ĺ ãģĦ
æ±Ĥ ãĤģãĤĭ
æ¯İ æĹ¥
æ¯Ķ è¼ĥ
æļ´ åĬĽ
æļĹ ãģĦ
å»¶ ãģ³ãĤĭ
æ¢ °
éİ Į
ãģĦãģĭ ãģĳãĤĭ
äºĮ æľĪ
éĢĥ ãģĻ
éģº ä¼Ŀ
ï¼¦ ï¼¡
å¾ĵ ãģ£ãģ¦
èªĺ ãģĦ
æĿ¡ ä»¶
æĺł çĶ»
ãĥĲãĤ¤ ãĥĪ
è¿° ãģ¹ãĤĭ
èĪĪ åĳ³
ãģ§ãĤĤ ãģªãģĦ
é½ ĭ
ãģĦãģ¤ ãģ®
åĽ² ãĤĢ
æīķ ãģĨ
æĹħ è¡Į
ãĤ¸ãĥ¥ ãĥ¼ãĥ«
ãĤ¸ãĥ¥ ãĤ¢ãĥ«
ãĤ«ãĤ¦ ãĥ³ãĤ»
è²¸ ãģĹ
ãĤ³ãĥ³ãĥ ĵ
ãĤ³ãĥ³ãĥ Ķãĥ¥ãĥ¼
åİļ ãģĦ
åİļ çĶŁ
ãģ£ãģ± ãģĦ
èĵ ĭ
èĽ ®
èĽ ĩ
èĽ į
é¬ ±
é¬ ¼
éį ĭ
éį Ľ
ãģĦãģ£ ãģŁ
ä»² èī¯
ãĥ¼ãĥĩãĤ£ ãĥ³ãĤ°
æī± ãģĨ
ãĥķãĥ¬ ãĥĥãĤ·ãĥ¥
å¹¹ ç·ļ
å½¼ å¥³
å·» ãģı
ãĤ°ãĥ© ãĤ¦ãĥ³ãĥī
æİĽ ãģĳ
æłª å¼ı
è©° ãĤģãĤĭ
åĢĻ è£ľ
éħ¸ åĮĸ
æļ® ãĤĮ
ãĥ¯ãĤ¤ ãĥ¤
å²© æ³¢
éĬĢ è¡Į
é³´ ãĤĭ
ç£ ¨
ãģ¸ ãĤĵ
ãĤ¹ãĤ³ ãĥĥãĥĪ
ãģĹãģı ãģ¯
ãĤ¢ãĤ¤ ãĥĩ
ãĥ¼ãĥķ ãĤ§
ãĤīãģĭ ãģ®
ãģ£ãģ¡ ãĤħãģĨ
åį± æĥ§
å¹¼ åħĲ
å¹¼ ç¨ļ
å±Ĭ ãģı
éĻį ãĤĬãĤĭ
ãĥĨãĤ¯ ãĥİ
ç¨¼ ãģİ
ãĥĭãĥ¥ ãĥ¼ãĤ¹
èĪª ç©º
ç¥Ŀ ãģĦ
ç¥Ń ãĤĬ
çĤŃ ç´ł
ãģĲãĤĭ ãģ¿
å¦Ĥ ä½ķ
éľĩ çģ½
éŃĶ æ³ķ
ãĥ¼ãĥĨãĤ£ ãĥ³ãĤ°
æ¾ ¤
çĵ ¦
çĵ ¶
ãĤĴ éĢļ
ãģĭãģĹ ãĤī
ãĤ¢ãĥī ãĥ¬ãĤ¹
éģĤ ãģĴãĤĭ
å¾¹ åºķ
åºľ çľĮ
åįĴ æ¥Ń
ãģĵãĤĵ ãģ°ãĤĵ
ãģĵãĤĵ ãģ«ãģ¡
è²¬ ä»»
å½± éŁ¿
ãģĤãĤī ãĤĨãĤĭ
ãĥŀãĥ« ãĥģ
ãĥŀãĥ« ãĤ¯ãĤ¹
éĥµ æĶ¿
æİ§ ãģĪ
ãĥģãĤ§ ãĥĥãĤ¯
ä¾Ŀ çĦ¶
ãĥĳãĥ¼ãĥĪ ãĥĬãĥ¼
ãģłãĤĵ ãģłãĤĵ
éħĶ ãģĦ
æħ£ ãĤĮãĤĭ
æŁĶ è»Ł
çłĶ ç©¶
é¨Ĵ ãģİ
æĩ¸ åĳ½
èŀį è³ĩ
åª Ľ
é¶ ´
éĪ į
ãģĹãĤĩ ãģĨ
éģ£ ãģĦ
ãĤ·ãĤ§ ãĥ«
æĪ» ãģĻ
ãĤ°ãĥŃ ãĥ¼ãĥĲ
æİ² ç¤º
ãĤ¦ãĥ« ãĥĪãĥ©
ä¹Ŀ å·ŀ
æıı ãģı
ç¥Ī ãĤĬ
åĸ« èĮ¶
çŁ¥ãĤī ãģĽ
é»Ħ èī²
åĹ ħ
èľ Ĥ
èľ ľ
é¯ ¨
é¼ »
é¼ ĵ
ä¸Ī å¤«
å®ĩ å®Ļ
ãĤ¤ãĥ¤ ãĥ¼
ãĤ¤ãĥ³ãĥĨ ãĥª
éĢı æĺİ
ãģĬãĤĪ ãģĿ
ä¼ģ çĶ»
å¿Ļ ãģĹãģĦ
ãĤ³ãĥ¼ãĥĩãĤ£ ãĥ³ãĤ°
ãģĤãĤı ãģĽ
åĨĬ åŃĲ
æĦī å¿«
ãĥĲãĤ¹ ãĤ±ãĥĥãĥĪ
çľĭ èŃ·
ãģ©ãģĵãĤį ãģĭ
èĩªæ²» ä½ĵ
åĦ² ãģĳ
æľĿæĹ¥ æĸ°èģŀ
æµ®ãģĭ ãģ¹ãĤĭ
åļ ĩ
çĺ į
è½ Ħ
èļ Ĭ
éĲ ĺ
ãĥ´ ãĤ¡
ãģĻãģĶ ãģĦ
ãĥĥãĤŃ ãĥª
ãĤ¢ãĥķ ãĥªãĤ«
ãĥ¼ãĥĩ ãĥ³
ãĥ¼ãĥĻ ãĥ«
ãģĳãĤĮ ãģ©
ãģªãģ® ãģ«
ãģŁãģ© ãĤĬ
ãģĬãģ¨ ãģª
ãģĬãģĿ ãĤīãģı
å¾ª çĴ°
ãģ£ãģĿ ãĤĬ
ãĥ³ãĥĸ ãĥ«
ãĤ«ãĥ¡ ãĥ©
æĺ¯ éĿŀ
æĬ« éľ²
éĿĸ åĽ½
æīĭä¼Ŀ ãģĦ
ãĥģãĥ§ ãĤ³
ãĤ¨ãĤ³ ãĥİãĥŁ
ãĤ¨ãĥ³ãĤ¿ ãĥ¼ãĥĨ
ãĤ¨ãĥ³ãĤ¸ ãĥĭãĤ¢
å¹´æľĪ æĹ¥
ãĥ¢ãĥĭ ãĤ¿
æļĳ ãģĦ
æį® ãģĪãĤĭ
ãĤ´ãĥ¼ãĥ« ãĥĩãĥ³
èĲ½ãģ¨ ãģĻ
æļ®ãĤī ãģĹ
âĪ Ĵ
ãĤ¯ãĥ¬ãĤ¸ ãĥĥãĥĪ
ãĤ¢ãĥķãĤ ¬
ãĤīãģ£ ãģĹãĤĥãĤĭ
ãĤ·ãĤ¹ãĥĨ ãĥł
ãĤ«ãĥĨ ãĤ´
ãģĤãģ£ãģ¨ ãģĦãģĨ
ãĥĲãĥ¼ãĤ¸ ãĥ§ãĥ³
åĲĪè¡Ĩ åĽ½
ãĥĭãĥĥãĥĿ ãĥ³
ãĤ»ãĤŃãĥ¥ ãĥªãĥĨãĤ£
ãĥĽãĥ¯ãĤ¤ ãĥĪ
åĳ³åĻ Į
æĹ©ç¨² çĶ°
æŃĮèĪŀ ä¼İ
ãĥĸãĥ«ãĤ¸ãĥ§ ãĤ¢
ãĥ´ãĤ¡ ãĤ¤
A D
C AD
T ãĤ·ãĥ£ãĥĦ
¡ ãĥ³
¡ ãĤĮãĤĭ
¡ ãĥ³ãĥĪ
¡ æĹĭ
¢ ª
¢ ãĤĮãĤĭ
£ å·¥
¤ ãĥ¼
¤ åĩ¦
¤ æ²¹
¤ ç½ª
¥ °
¦ æĹ¥
§ ãģĴãĤĭ
§ è·¯
§ åĺ
¨ ãĤĢ
¨ ãĥ¼ãĤ¯
¨ æĪ¿
ª ¢
ª çĢ¬
« å¤§
« ãģ³
« ãģ§ãĤĭ
° ãģĪãĤĭ
± ãĤĭ
± çŁ³
± åĮħ
² ãĤĢ
³ ãģĨ
´ ¨
´ ãĤĬ
´ ãĤĢ
´ ãĤ§
µ ¬
µ æľĪ
¶ ½
¶ ãģ®
¶ æı
¶ æ¥½
· ãģı
¸ İ
¸ ãĤĭ
¸ è£Ĥ
¹ ãģı
¹ è¬
¹ ãģ§ãĤĭ
º éºĹ
» ãĤĭ
¼ ãģı
½ ãĤĭ
½ å¼ķ
¾ ľ
¿ éĥ¨
¿ è«ĸ
Â ¡
Â ¤
Â ¥
Â ¦
Â ª
Â ¬
Â ³
Â µ
Â ¸
Â ¹
Â ¼
Â ¾
Â ¿
Ã ¬
Ã ²
Ã µ
Ã ¹
Ã ½
Ã ¾
Ã ¿
Ã Ģ
Ã ģ
Ã Ħ
Ã ħ
Ã Ĩ
Ã ĩ
Ã Ī
Ã Ĭ
Ã ĭ
Ã Į
Ã İ
Ã ı
Ã Ĳ
Ã ĳ
Ã Ĵ
Ã ĵ
Ã Ķ
Ã ķ
Ã ĸ
Ã ĺ
Ã Ļ
Ã ļ
Ã ľ
Ã Ŀ
Ã ŀ
Æ Ĵ
Î £
Î ©
Î Ķ
â ī
â Ļ
å ¶½
æ ª¢
ç ĳ
è ķ
è Ŀ
é Ħ
é ŀ
é ¢ª
é ´¨
é µ¬
é ¾ľ
ï ¥°
ï ¸İ
ð ł
Ģ Ċ
Ģ ãĤĭ
ģ ãĥ¥
ĥ ãĤĭ
ĥ åŃĲ
Ħ ç¾İ
ħ æ²¢
Ĩ ãĤ£
Ĩ ãģ©
Ĩ å¼±
ĩ ãĥ¼
ĩ ãĥĥãĤ¯ãĤ¹
Ī è£
Ī çĲ
ī ãģĹãģĦ
ī çĲĥ
ī ãĥĭãĥ¼
Ĭ ãĤĭ
Ĭ èº
Ĭ ãĥªãĤª
ĭ ãĤĭ
ĭ ãĤ¯
ĭ ãĤ¢
ĭ ãģĹãģĦ
ĭ åı£
ĭ çĻ½
Į ãģĪãĤĭ
į ãĥŀ
į éĨ
İ éº¦
ı ãĥĥ
ı éĢł
Ĳ ãĤģãĤĭ
Ĳ åĳ³
Ĳ ãĥ¬ãĥ¼
ĳ ãĤĢ
ĳ æĥ³
ĳ ãĤ¯ãĥĪ
Ĵ ãĥ¼
Ĵ ãģĦ
Ĵ ãģĻ
Ĵ ãģı
Ĵ ãĤģãĤĭ
Ĵ èĲ½
ĵ ãĤ¢
ĵ å»¶
Ķ èĸ
ķ ãģĲ
ĸ çĦ¶
ĸ éĽ¢
Ĺ ãģı
Ĺ åŃĲ
Ĺ æĺŁ
ĺ ãĥ³
ĺ åįĹ
ĺ æ±°
Ļ ãģĻ
Ļ ãģĨ
Ļ ãĥªãĤ¢
ļ ãĥ¼ãĥ³
Ľ ãĤĢ
Ľ ç´°
ľ ãĥ¼ãĥī
ľ å¥½
ľ åł±
Ŀ ãĥ³
Ŀ ãĥ¼ãĥį
Ł ãģı
ł Ģ
ł ãģĪãĤĭ
ł åİŁ
Ń ãĥ¼ãĥī
ãģ ĥ
ãģ ħ
ãĥ °
ãĥ ±
ãĥ ½
ãĥ ¾
ãĥ Ĥ
ãĥ ħ
ãĥ µæľĪ
ãĤ ¥
ãĤ İ
ãĤ ĳ
ãĤ Ķ
ãĤ ķ
ãĤ ĸ
ãĤ Ļ
ãĤ ļ
ãĤ Ł
ãĤĭ ãĤĭ
ãĥ¼ ãĤ¢
ãĥ¼ ãĤ»
ãĥ¼ ãĥªãĥ¼
ãĥ¼ ãģ£ãģ¨
ãĥ¼ ãĥ©ãĥ¼
ãĥ¼ ãĥªãĥ³ãĤ°
ãĥ¼ ãĤŃãĥ³ãĤ°
ãĥ¼ ãĤµãĥ«
ãĥ³ ãĤ¿ãĥ¼
ãĥ³ ãĥ©ãĥ³ãĥī
ãĥ³ ãĥ¬ãĤ¹
ãĥ³ ãĤµãĥ¼
ãĥ³ ãĤ»ãĥ«
ãģĦ ãģĻ
ãģĦ ãģĹ
ãģĦ ãĤĢ
ãģĦ ãģĪãĤĭ
ãģĦ ãĤĤ
ãģĦ ãĤĮãĤĭ
ãģĦ ãģĳãĤĭ
ãģĦ æīĭ
ãģĦ ãģĺ
ãģĦ ãģ§
ãģĦ ä¸»
ãģĦ è¾¼ãĤĢ
ãģĦ ãģµ
ãģĦ ãģĸ
ãģĦ ãģĺãĤĭ
ãģĦ ãģŁãĤĭ
ãģĦ ãģĦãģĭ
ãģĦ ãģ¬
ãģĦ ãģ¨ãģĨ
ãģĦ ãģŁãģĻ
ãģĦ ãģĺãĤģ
ãģĦ ãĤĪãģĦ
ãģĦ ãĤıãģı
ãģĦ ãģĪãģ°
ãģĦ ãģķãģķ
ãģĦ ãģ¶ãĤĵ
ãģĦ ãģŁãģļ
ãģĦ ãģ®ãģ¡
ãģĦ ãģłãģĻ
ãģĦ ãģļãĤĮ
ãģĦ ãģ£ãģ±ãģĦ
ãģĦ ãģĲãĤĭãģ¿
ãģĦ ãĤīãģ£ãģĹãĤĥãĤĭ
ä¸ ¨
ä¸ ²
ä¸ ¶
ä¸ ¿
ä¸ Ļ
ä¸ ŀ
ãĤ¹ ãĤĭ
ãĤ¹ ãĥ¼
ãĤ¹ ãĥ³
ãĤ¹ ãĥģ
ãĤ¹ ãĥ¡
ãĤ¹ ãĥĳ
ãĤ¹ ãĥĬ
ãĤ¹ ãĥł
ãĤ¹ ãĤº
ãĤ¹ ãĥªãĥ¼
ãĤ¹ ãĥ¯
ãĤ¹ ãĤ¤ãĤ¹
ãĤ¹ ãĥ¼ãĥĹ
ãĤ¹ ãĥ©ãĥł
ãĤ¹ ãĥ¼ãĥĦ
ãĤ¹ ãĤ«ãĤ¦
ãĤ¹ ãĤŃãĥ¼
ãĤ¹ ãĤ¦ãĤ§
ãĤ¹ ãĥĶãĥ¼
ãĤ¹ ãĥ¼ãĥĳ
ãĤ¹ ãĥ«ãĥ¼
ãĤ¹ ãĥŃãĥĥãĥĪ
ãĤ¹ ãĥ¼ãĥĳãĥ¼
ãĤ¹ ãĥŁãĤ¹
ãĤ¹ ãĥĥãĤŃãĥª
æľ ½
æľ ĥ
æľ ķ
ãĥĪ ãĤ¹
ãĥĪ ãĥŀ
ãĥĪ ãĥĬ
ãĥĪ ãĥł
ãĥĪ ãĥªãĥ¼
ãĥĪ ãĥĽ
ãĥĪ ãĥ¼ãĤ¯
ãĥĪ ãĥ¼ãĥ³
ãĥĪ ãĥ¨
ãĥĪ ãĥ¼ãĥŀ
ãĥĪ ãĥ¼ãĥĬ
ãĥĪ ãĥ¼ãĤ¿
ãĥĪ ãĥĭãĥ¼
ãĥĪ ãĥĶãĥ¼
ãĥĪ ãĥ³ãĥľ
ãĥĪ ãĤ¤ãĥ¬
ãĥĪ ãĥ³ãĥįãĥ«
ãĥĪ ãĤ³ãĥ«
å® µ
å® Ģ
å® ĭ
å® ı
åħ ©
åħ İ
åħ Ĵ
åħ ¶ãģ®
ãĥ« ãĤ¤
ãĥ« ãĤ«
ãĥ« ãĥī
ãĥ« ãĥ¡
ãĥ« ãĥ¼ãĥ«
ãĥ« ãĥ¼ãĥĪ
ãĥ« ãĥ¼ãĥł
ãĥ« ãĤ¤ãĤ¹
ãĥ« ãĥ¼ãĥŀ
ãĥ« ãĥĭãĤ¢
ãĥ« ãĥ¼ãĥĦ
ãĥ« ãĤ¦ãĤ§
ãĥ« ãĥĵãĥ¼
ãĥ« ãĥĢãĥ³
ãĥ« ãĤ®ãĥ¼
ãģĻ ãģĦ
ãģĻ ãģĹ
ãģĻ ãģĨ
ãģĻ ãĤĮ
ãģĻ ãģį
ãģĻ ãĤī
ãģĻ ãģª
ãģĻ ãģ£
ãģĻ ãĤģ
ãģĻ ãĤĢ
ãģĻ ãģ¦
ãģĻ ãģĵ
ãģĻ ãģĳãĤĭ
ãģĻ ãģĺ
ãģĻ ãģĴãĤĭ
ãģĻ ãģŃ
ãģĻ ãģİ
ãģĻ ãĤıãĤĭ
ãģĻ ãģĮãĤĭ
ãģĻ ãĤĵãģª
ãģĻ ãģŃãĤĭ
ãģĻ ãģĦãģ¾
ãģĻ ãģķãģ¾
ãģĻ ãģ¾ãģĻ
ãģĻ ãģĮãĤĬ
ãģĻ ãģ£ãģįãĤĬ
ãģĻ ãģİãĤĭ
ãģĻ ãģ£ãģĭãĤĬ
ãģĻ ãģ¾ãģĽãĤĭ
ãģĻ ãģ§ãģ«
ãĤĬ ãģĪ
ãĤĬ çī©
ãĤĬ æĸ¹
ãĤĬ ãģªãģĦ
ãĤĬ ç´Ļ
ãĤĬ åĲĪãģĦ
ãĤĬ ãģ£ãģ±
ãĤĬ ãģĭãģĳãĤĭ
ãĤĬ ä¸ĭãģĴãĤĭ
ãĤĬ ãĤĩãģĨ
åı ĥ
åı Ļ
åı ±ãĤĭ
ãģĹ ãĤĭ
ãģĹ ãģ¾
ãģĹ ãģį
ãģĹ ãĤī
ãģĹ ãģ¤
ãģĹ ãĤĵ
ãģĹ ãĤĮãĤĭ
ãģĹ ãģĮ
ãģĹ ãģ®
ãģĹ ãģĴ
ãģĹ ãģ¹
ãģĹ ãģ£ãģ¨
ãģĹ ãģİ
ãģĹ ãģ¥
ãģĹ ãģ¤ãģĳãĤĭ
ãģĹ ãģ¬
ãģĹ ãģįãĤĬ
ãģĹ ãģ£ãģıãĤĬ
ãģĹ ãģ¾ãģĨ
ãģĹ ãģ£ãģĭãĤĬ
ãģĹ ãģłãģĦ
ãģĹ ãģ¼ãĤĭ
ãģĹ ãĤħãģĨ
ãģĹ ãģ¾ãģĦ
ãģĹ ãĤĵãģ©
ãģĹ ç©´
ãģĹ ãģ£ãģ½
ãģĹ éĢ²ãĤģãĤĭ
ãģĹ éģĤãģĴãĤĭ
ãģĹ ãģĤãĤıãģĽ
ãģĹ æļĳãģĦ
çĶ ¥
çĶ ģ
çĶ ļ
äº ®
äº Ĥ
äº ħ
äº ŀ
äº ł
äº Ľç´°
å¤ Ĭ
ãĤ¤ ãĥĪ
ãĤ¤ ãĤ¯
ãĤ¤ ãĤ«
ãĤ¤ ãĥĸ
ãĤ¤ ãĥĬ
ãĤ¤ ãĥ¼ãĥ«
ãĤ¤ ãĥ³ãĤ°
ãĤ¤ ãĥ¢
ãĤ¤ ãĤ¿ãĥ¼
ãĤ¤ ãĥªãĥ¼
ãĤ¤ ãĥĻ
ãĤ¤ ãĥ©ãĤ¤
ãĤ¤ ãĥİ
ãĤ¤ ãĥ¼ãĤ¹
ãĤ¤ ãĤ®
ãĤ¤ ãĤ¶
ãĤ¤ ãĥ¼ãĥ³
ãĤ¤ ãĥ³ãĥĹ
ãĤ¤ ãĥĥãĥģ
ãĤ¤ ãĥŀãĤ¤
ãĤ¤ ãĤªãĥ³
ãĤ¤ ãĥ©ãĥ³
ãĤ¤ ãĥĬãĥ¼
ãĤ¤ ãĥ¡ãĥ³ãĥĪ
ãĤ¤ ãĥ³ãĥĳ
ãĤ¤ ãĥĮ
ãĤ¤ ãĤ³ãĥ¼ãĥ«
ãĤ¤ ãĥ¡ãĥ¼ãĤ¸
ãĤ¤ ãĥĩãĤª
ãģĭ ãģ¾
ãģĭ ãĤĮ
ãģĭ ãģ¨
ãģĭ ãģŁ
ãģĭ ãģĪ
ãģĭ ãģĬ
ãģĭ ãģ«
ãģĭ ãĤĢ
ãģĭ ãĤı
ãģĭ ãģĪãĤĭ
ãģĭ ãģķ
ãģĭ åĽ½
ãģĭ ãģĽ
ãģĭ æľĪ
ãģĭ ãģĲ
ãģĭ ãģ¶
ãģĭ ãģĶ
ãģĭ ãģŃ
ãģĭ ãĤıãĤĭ
ãģĭ ãģ£ãģ¦
ãģĭ ãģ¼
ãģĭ ãģĺãĤĭ
ãģĭ ãģŃãĤĭ
ãģĭ ãģģ
ãģĭ ãĤĪãģĨ
ãģĭ ãģªãĤī
ãģĭ ãĤıãĤĬ
ãģĭ ãĤıãģĻ
ãģĭ ãģİãĤĭ
ãģĭ ãģ¾ãģĨ
ãģĭ ãģªãĤĬ
ãģĭ ãģŁãģ¡
ãģĭ ãģİãĤĬ
ãģĭ ãĤįãģĨ
ãģĭ ãģ¶ãĤĭ
ãģĨ ãĤĬ
ãģĨ ãģĹ
ãģĨ ãĤĮ
ãģĨ ãĤī
ãģĨ ãĤĢ
ãģĨ ãģĳãĤĭ
ãģĨ ãģĿ
ãģĨ ãģªãĤĭ
ãģĨ ãģ£ãģĭãĤĬ
ãģĨ ãģ¾ãģĦ
ãģĨ ãĤįãģĨ
ãģĨ ãģ©ãĤĵ
ãĥĥ ãĤ¿
ãĥĥ ãĥķ
ãĥĥ ãĥĨ
ãĥĥ ãĥĳ
ãĥĥ ãĤ¿ãĥ¼
ãĥĥ ãĥĶ
ãĥĥ ãĤ»ãĥ«
ãĥĥ ãĤ»ãĥ³
ãĥĥ ãĤŃãĥ³ãĤ°
ãĥĥ ãĤ·ãĥ§ãĥĬãĥ«
ãĥĥ ãĥĨãĤ£ãĥ³ãĤ°
ãĥĥ ãĤ·ãĥ£ãĥ¼
ãģı ãģĹ
ãģı ãģĨ
ãģı ãģ¾
ãģı ãĤĮ
ãģı ãģ¤
ãģı ãĤĵ
ãģı ãģ£
ãģı ãĤĢ
ãģı ãĤĮãĤĭ
ãģı ãģĽ
ãģı ãģ¡ãĤĥ
ãģı ãģıãĤĭ
ãģı ãĤıãģĻ
ãģı ãģĲãĤĭ
ãģı ãģ£ãģįãĤĬ
ãģı ãģ¡ãĤĭ
ãģı ãĤıãģĹãģĦ
ãģı ãĤıãģĪãĤĭ
ãģı ãģ©ãģĦ
åĪ ¹
åĪ Ī
ãĥª ãĥķ
ãĥª ãĥŀ
ãĥª ãĤ¨
ãĥª ãĥĥãĤ¯
ãĥª ãĥĢ
ãĥª ãĥĻ
ãĥª ãĥ¼ãĥī
ãĥª ãĥ¼ãĥł
ãĥª ãĥ¬ãĥ¼
ãĥª ãĥģãĥ£
ãĥª ãĥ³ãĤ¯
ãĥª ãĤ¹ãĤ¯
ãĥª ãĥĥãĥģ
ãĥª ãĤ¿ãĤ¤
ãĥª ãĥķãĥĪ
ãĥª ãĤ¼
ãĥª ãĥ¼ãĥģ
ãĥª ãĤ³ãĥ³ãĥ
ãĥª ãĥĲãĥ¼
ãĥª ãĥĪãĥ«
ãĥª ãĥĥãĤ¸
ãĥª ãĤ¯ãĥ«
ãĥª ãĥĿãĥ¼ãĥĪ
ãĥª ãĤ¾
ãĥª ãĤ¿ãĥ¼ãĥ³
ãĥª ãĤ»ãĥĥãĥĪ
ãĥª ãĥķãĤ©ãĥ¼ãĥł
ãĥª ãĥĹãĥĪ
ãĥª ãĥĭãĥ¥ãĥ¼
ãĥª ãĥľãĥ³
ãĥª ãĥ¼ãĥŀãĥ³
ãĥª ãĤ¯ãĤ¨ãĤ¹ãĥĪ
ãĥª ãĤµãĥ¼ãĥģ
ãĥª ãĥĵãĥ³ãĤ°
ãĥª ãĥªãĥ¼ãĤ¹
ãĥª ãĥĶãĥ³
ãĥª ãĤ½ãĥ¼ãĤ¹
ãĥª ãĤµãĤ¤ãĤ¯ãĥ«
ãĥª ãĥ¼ãĥĩãĤ£ãĥ³ãĤ°
ãĥª ãĥķãĥ¬ãĥĥãĤ·ãĥ¥
ãĤ¯ ãĥ³
ãĤ¯ ãĤ¢
ãĤ¯ ãĥ¼ãĥ
ãĤ¯ ãĥ¬
ãĤ¯ ãĥŀ
ãĤ¯ ãĥī
ãĤ¯ ãĤ»
ãĤ¯ ãĥ¼ãĥ«
ãĤ¯ ãĥĵ
ãĤ¯ è³ª
ãĤ¯ ãĥªãĤ¢
ãĤ¯ ãĤ¶
ãĤ¯ ãĤ¿ãĤ¤
ãĤ¯ ãĥ©ãĤ¹
ãĤ¯ ãĤ¢ãĥī
ãĤ¯ ãĥĥãĤ·ãĥ§ãĥ³
ãĤ¯ ãĤ¤ãĤº
ãĤ¯ ãĥĨãĥ«
ãĤ¯ ãĥ¼ãĥĩ
ãĤ¯ ãĥªãĥ¼ãĥ³
ãĤ¯ ãĤ½ãĥ³
ãĤ¯ ãĥĥãĤŃãĥ¼
ãĤ¯ ãĤ¿ãĥ¼ãĥ«
ãĤ¯ ãĤ¸ãĥ©
ãĤ¯ ãĥıãĥ©
ãĤ¯ ãĥģãĥ£ãĥ¼
ãĤ¯ ãĥŃãĥ¼ãĤº
ãĤ¯ ãĥ¼ãĥ©ãĥ¼
ãĤ¯ ãĤ¤ãĥ¼ãĥ³
ãĤ¯ ãĥĥãĤŃãĥ³ãĤ°
åĲ ¾
åĲ ı
åĲ ĬãĤĭ
åĲ łãģĪãĤĭ
ãĥ© ãĥ¼ãĥ
ãĥ© ãĤ·
ãĥ© ãĥķ
ãĥ© ãĥŀ
ãĥ© ãĤ°
ãĥ© ãĤ¦
ãĥ© ãĥĥãĤ¯
ãĥ© ãĥŁ
ãĥ© ãĥĥãĥĹ
ãĥ© ãĥİ
ãĥ© ãĥ³ãĥĹ
ãĥ© ãĥ³ãĤ¯
ãĥ© ãĥ³ãĥģ
ãĥ© ãĤ±ãĥĥãĥĪ
ãĥ© ãĥĥãĤ·ãĥ¥
ãĥ© ãĥĻãĥ«
ãĥ© ãĥĶãĥ¼
ãĥ© ãĥ³ãĥĬ
ãĥ© ãĤ¦ãĥ³ãĥī
ãĥ© ãĤªãĤ¹
ãĥ© ãĤ½ãĥ³
ãĥ© ãĥ³ãĥĨãĤ£
ãĥ© ãĥĥãĤŃãĥ¼
ãĥ© ãĥ³ãĥĭãĥ³ãĤ°
ãĥ© ãĥĥãĤ»ãĥ«
ãĤ¢ ãĥĥ
ãĤ¢ ãĥª
ãĤ¢ ãĤ·
ãĤ¢ ãĤ¸
ãĤ¢ ãĤŃ
ãĤ¢ ãĥĨ
ãĤ¢ ãĤµ
ãĤ¢ ãĥģ
ãĤ¢ ãĥĳ
ãĤ¢ ãĥĸ
ãĤ¢ ãĥ¼ãĥ«
ãĤ¢ ãĥ¼ãĥĪ
ãĤ¢ ãĥ³ãĥĪ
ãĤ¢ ãĥĿ
ãĤ¢ ãĥ³ãĥī
ãĤ¢ ãĥĶ
ãĤ¢ ãĥİ
ãĤ¢ ãĤ¤ãĥ³
ãĤ¢ ãĥĽ
ãĤ¢ ãĥ¼ãĤ¹
ãĤ¢ ãĥ³ãĤ¹
ãĤ¢ ãĥªãĤ¢
ãĤ¢ ãĥĹãĥŃ
ãĤ¢ ãĥ³ãĥĹ
ãĤ¢ ãĤ¤ãĥ«
ãĤ¢ ãĥ³ãĥĨ
ãĤ¢ ãĥĪãĥ©
ãĤ¢ ãĥ©ãĤ¹
ãĤ¢ ãĥ³ãĥģ
ãĤ¢ ãĥ©ãĥ³
ãĤ¢ ãĥĪãĥª
ãĤ¢ ãĥªãĤ¹
ãĤ¢ ãĥªãĥ³ãĤ°
ãĤ¢ ãĤ¯ãĤ·ãĥ§ãĥ³
ãĤ¢ ãĥ¼ãĥĨãĤ£
ãĤ¢ ãĥ¬ãĥ³
ãĤ¢ ãĥĳãĥ¼ãĥĪ
ãĤ¢ ãĥ¬ãĥ³ãĤ¸
ãĤ¢ ãĥ³ãĥĬ
ãĤ¢ ãĥ³ãĤ°ãĥ«
ãĤ¢ ãĤ«ãĤ¦ãĥ³ãĥĪ
ãĤ¢ ãĥĹãĥª
ãĤ¢ ãĥ³ãĥĨãĤ£
ãĤ¢ ãĥ©ãĥĸ
ãĤ¢ ãĥ©ãĥĵãĤ¢
ãĤ¢ ãĥ³ãĥĢãĥ¼
ãĤ¢ ãĥĪãĥĶãĥ¼
æĸ ¤
æĸ ¥
æĸ ·
æĸ ĳ
æĸ ¡æĹĭ
æĸ ¼ãģı
éĢ ĵ
éĢ ĻãģĨ
éģ ²
éģ ¼
éģ ½
éģ ľ
éģ ŀ
ä½ ĳ
ä½ Ľ
ãģ¾ ãģĭ
ãģ¾ ãģı
ãģ¾ ãģį
ãģ¾ ãģª
ãģ¾ ãģĪ
ãģ¾ ãĤģ
ãģ¾ ãģĺ
ãģ¾ ãģŃ
ãģ¾ ãģ£ãģ¨
ãģ¾ ãĤıãĤĭ
ãģ¾ ãģ¨ãĤĤ
ãģ¾ ãģĭãģĻ
ãģ¾ ãģģ
ãģ¾ ãģ§ãĤĤ
ãģ¾ ãģıãĤĬ
ãģ¾ ãģ¨ãģĨ
ãģ¾ ãģıãĤĭ
ãģ¾ ãĤıãģĻ
ãģ¾ ãģĦãĤĭ
ãģ¾ ãģĺãģĦ
ãģ¾ ãģĺãĤģ
ãģ¾ ãģĭãģĽãĤĭ
ãģ¾ ãģĽãĤĵ
ãģ¾ ãģ«ãģĭ
ãģ¾ ãģĭãģªãģĨ
ãģ¾ ãĤĤãģªãģı
ãģ¾ ãģĲãĤĮ
è¦ º
è¦ ½
è¦ Ĺãģı
ãĥ¼ãĥ ¤ãĥ¼
ãĥ¼ãĥ ¨ãĥ¼ãĤ¯
ãĥ¼ãĥ ´ãĤ§
ãĥ¼ãĥ Ĵãĥ¼
ãĥ¼ãĥ ľãĥ¼ãĥī
ï¼ ¾
ï¼ ¿
ï¼ Ħ
ï¼ ħ
ï¼ ĩ
ï¼ Ĭ
ï¼ ĭ
ï¼ į
ï¼ ı
ï¼ ľ
ï¼ Ŀ
ï¼ ŀ
ï¼ ł
ãĤĮ ãĤĵ
ãĤĮ è¡Įãģį
ãĤĮ ãģ©ãĤĤ
ãĤĮ ãģĤãģĨ
åĽ ĳ
åĽ Ĺ
åŃ ĥ
ãģ¨ ãĤĭ
ãģ¨ ãģı
ãģ¨ ãģĵ
ãģ¨ ãĤĮãĤĭ
ãģ¨ ãģ¶
ãģ¨ ãģ¾ãĤĭ
ãģ¨ ãģĭãģĦ
ãģ¨ ãģĭãģĻ
ãģ¨ ãģĵãģ¨
ãģ¨ ãģĭãģı
ãģ¨ ãģªãĤĬ
ãģ¨ ãģĤãĤĭ
ãģ¨ ãģıãģ«
ãģ¨ ãĤīãģĪãĤĭ
ãģ¨ ãĤĵãģ©
ãģ¨ ãģĬãģĻ
ãģ¨ ãģĹãģ¾ãģĹãģ¦
ãģ¨ ãģŁãĤĵ
ãģ¨ ãģĬãĤĬ
ãģ¨ åĲĮæĻĤãģ«
ãģ¨ åħ±ãģ«
ãģ¨ ãģ¨ãĤĤãģ«
ãģ¨ ãģĦãģ£ãģŁ
ãģ¨ ãģĤãĤīãĤĨãĤĭ
è¨ £
è¨ ĥ
è¨ Ĭãģı
ãģĳ ãģĻ
ãģĳ ãĤĵ
ãģĳ ãģĮ
ãģĳ è¾¼ãĤĢ
ãģĳ è²łãģĨ
ãģį ãģı
ãģį ãģŁ
ãģį ãĤĵ
ãģį ãģ£
ãģį ãĤı
ãģį ãģ¿
ãģį ãĤĮãĤĭ
ãģį ãĤģãĤĭ
ãģį æ°Ĺ
ãģį ãģ¾ãĤĭ
ãģį ãģ£ãģ¨
ãģį åı°
ãģį ä¸ĬãģĴãĤĭ
ãģį ãģŁãĤĭ
ãģį å£°
ãģį ãģ¤ãģĦ
ãģį ãģŁãģĻ
ãģį ãģ£ãģ¡
ãģį ãĤĤãģ®
ãģį ãģĹãĤģãĤĭ
ãģį ãĤħãģĨ
ãģį å½«
ãģį çĽ´ãĤĭ
ãģį ãĤĮãģĦ
ãģį ãģĵãĤĤãĤĭ
ãģį ãģ³ãģĹãģĦ
ãģį ãĤĩãģĨ
ãĤī ãĤĮãĤĭ
ãĤī ãĤģãĤĭ
ãĤī ãģĲ
ãĤī ãģļ
ãĤī ãģĽãĤĭ
ãĤī ãģĭãģĦ
æī ĩ
ãģ¤ ãĤĭ
ãģ¤ ãģ¨
ãģ¤ ãģĳ
ãģ¤ ãģ¤
ãģ¤ ãĤģ
ãģ¤ ãģ¦
ãģ¤ ãĤĮãĤĭ
ãģ¤ ãģ¯
ãģ¤ ãģĲ
ãģ¤ ãģŃ
ãģ¤ ãģ¾ãĤĭ
ãģ¤ ãģ¤ãģı
ãģ¤ ãģ¾ãĤĬ
ãģ¤ ãģ¥ãģı
ãģ¤ ãģ¥ãģĳãĤĭ
ãģ¤ ãģ¨ãĤģãĤĭ
ãģ¤ ãĤīãģĦ
ãģ¤ ãģ£ãģĵ
ãģª ãĥ¼
ãģª ãģ¤
ãģª ãĤĢ
ãģª ãģĤ
ãģª ãĤĮãĤĭ
ãģª ãĤģãĤĭ
ãģª ãģĮ
ãģª ãģ©
ãģª ãģĲ
ãģª ãģŀ
ãģª ãģ¤ãģĭ
ãģª ãģ§ãĤĭ
ãģª ãģĬãģĭ
ãģª ãģĬãģĻ
ãģª ãģķãĤĭ
ãģŁ ãģĹ
ãģŁ ãģĭ
ãģŁ ãĤĮ
ãģŁ ãģĳ
ãģŁ ãģ¦
ãģŁ ãģĵ
ãģŁ ãģĪãĤĭ
ãģŁ ãĤģãĤĭ
ãģŁ ãģ®
ãģŁ ãģĽãĤĭ
ãģŁ ãģ°
ãģŁ çĽ®
ãģŁ ãģ¾ãĤĭ
ãģŁ ãģ¦ãĤĭ
ãģŁ ãĤıãĤĭ
ãģŁ ãģĮãĤĭ
ãģŁ ãģ¹ãĤĭ
ãģŁ ãģĭãģĦ
ãģŁ ãĤīãģĻ
ãģŁ ãģ¾ãģŁ
ãģŁ ãĤģãģ¦
ãģŁ ãģŁãģı
ãģŁ ãģĭãģĮ
ãģŁ ãģ¶ãĤĵ
ãģŁ ãģ£ãģ·ãĤĬ
ãģŁ ãģ£ãģŁ
æĹ ł
ãĤ¿ ãĤ¹
ãĤ¿ ãĤ¯
ãĤ¿ ãĥ©
ãĤ¿ ãĥķ
ãĤ¿ ãĤ«
ãĤ¿ ãĤ³
ãĤ¿ ãĥŀ
ãĤ¿ ãĤ°
ãĤ¿ ãĥĥãĤ¯
ãĤ¿ ãĥ¡
ãĤ¿ ãĥĢ
ãĤ¿ ãĥ³ãĥĪ
ãĤ¿ ãĤ±
ãĤ¿ ãĤ¤ãĥ³
ãĤ¿ ãĥ³ãĤ¯
ãĤ¿ ãĤ¹ãĤ¯
ãĤ¿ ãĤ¤ãĥ«
ãĤ¿ ãĥĥãĥģ
ãĤ¿ ãĥªãĤ¹ãĥĪ
ãĤ¿ ãĥ³ãĥĳ
ãĤ¿ ãĤ¦ãĥ³
ãĤ¿ ãĤ¯ãĤ·ãĥ¼
ãĤ¿ ãĥ¼ãĥŁ
ãĤ¿ ãĤªãĥ«
ãĤ¿ ãĥŁãĥ³
ãģĪ ãĥ¼
ãģĪ ãģĦ
ãģĪ ãģĪ
ãģĪ ãĤĵ
ãģĪ ãģ£
ãģĪ ãģ³
ãģĪ ãĤīãģĦ
ãģĪ ãĤĤãĤĵ
ãĤĵ ãģ¨
ãĤĵ ä¸Ń
ãĤĵ ãģ³
ãĤĵ ãģ¼
ãĤĵ ãģĺãĤĭ
ãĤĵ ãģĺãĤĥ
ãĤĵ åĿĬ
åĭ ³
åĭ µ
åĭ ¸
åĭ ¹
åĭ ¾
åĭ ħ
åĭ ŀ
åĭ ¿è«ĸ
çĽ ¡
çĽ §
çĽ ²
çĽ ľ
ãģĬ ãĤĮ
ãģĬ ãĤĵ
ãģĬ ãģ«
ãģĬ ãģĵ
ãģĬ åĩº
ãģĬ ãģ¿
ãģĬ è©
ãģĬ ãģ¯
ãģĬ æ°Ĺ
ãģĬ æĸ¹
ãģĬ æ´
ãģĬ åīį
ãģĬ ãĤį
ãģĬ éĩĳ
ãģĬ çĽ®
ãģĬ ãģŃ
ãģĬ å®¶
ãģĬ æĸŃ
ãģĬ ãĤıãĤĭ
ãģĬ è©±
ãģĬ ä¼Ŀ
ãģĬ ãģ¼
ãģĬ åıĤ
ãģĬ èĬ±
ãģĬ å®ħ
ãģĬ è¨±
ãģĬ ç¤¼
ãģĬ èĮ¶
ãģĬ ãģĭãģĳ
ãģĬ ãģĬãģĦ
ãģĬ æĺ¼
ãģĬ å®Ŀ
ãģĬ ãģıãĤĭ
ãģĬ éļ£
ãģĬ ãĤĬãĤĭ
ãģĬ ãģįãĤĭ
ãģĬ èħ¹
ãģĬ ãģĭãģĹ
ãģĬ ãĤĤãģĨ
ãģĬ ãģªãģĭ
ãģĬ å°ĭ
ãģĬ å¯º
ãģĬ ãģ¡ãĤĭ
ãģĬ ãģĵãģĻ
ãģĬ éĻ°
ãģĬ è¿İ
ãģĬ å¾ħãģ¡
ãģĬ ãĤįãģĻ
ãģĬ èĸ¦
ãģĬ è©±ãģĹ
ãģĬ æ¹¯
ãģĬ ç¬ĳãģĦ
ãģĬ è¶ĬãģĹ
ãģĬ çĽĨ
ãģĬ ãģĵãĤĭ
ãģĬ æ°Ĺãģ«
ãģĬ ç²Ĺ
ãģĬ éģİãģĶ
ãģĬ è¿ĶãģĹ
ãģĬ å¬¢
ãģĬ èıĵåŃĲ
ãģĬ ãģī
ãģĬ ãĤģãģ§
ãģĬ ãģ§ãĤĵ
ãģĬ éĥ¨å±ĭ
ãģĬ æŃ£æľĪ
ãģĬ ä¸ĸè©±
ãģĬ å¥½ãģ¿
ãģĬ éĢģãĤĬ
ãģĬ å¤©æ°Ĺ
ãģĬ æ¯įãģķãĤĵ
ãģĬ å®ĪãĤĬ
ãģĬ çŃĶãģĪ
ãģĬ çĪ¶ãģķãĤĵ
ãģĬ ä¾¿ãĤĬ
ãģĬ é¡ĺãģĦ
ãģĬ èªĺãģĦ
ãģĬ ãģ£ãģ±ãģĦ
ãģĬ ç¥ĿãģĦ
ãģĬ ç¥ŃãĤĬ
ãģĬ ç¥ĪãĤĬ
ãģĬ çŁ¥ãĤīãģĽ
ãģĬ ãģĬãĤĪãģĿ
ãģĬ å¿ĻãģĹãģĦ
ãģĬ æīĭä¼ĿãģĦ
ãģĬ ãģĹãģ¾ãģĦ
å¾ µ
å¾ ·
å¾ Ĭ
å¾ ĳ
å¾ ĺ
å¾ ŀ
ãĥ¬ ãĤĭ
ãĥ¬ ãĥ«
ãĥ¬ ãĥķ
ãĥ¬ ãĥĲ
ãĥ¬ ãĤ·ãĥ
ãĥ¬ ãĥĥãĤ¯
ãĥ¬ ãĥł
ãĥ¬ ãĥĥãĥĪ
ãĥ¬ ãĥ¼ãĥ«
ãĥ¬ ãĤ¹ãĥĪ
ãĥ¬ ãĥ³ãĥĪ
ãĥ¬ ãĥĿ
ãĥ¬ ãĥĩãĤ£
ãĥ¬ ãĥ¼ãĤ¹
ãĥ¬ ãĤ®
ãĥ¬ ãĥ³ãĤ¹
ãĥ¬ ãĥ¼ãĥ³
ãĥ¬ ãĥĥãĥī
ãĥ¬ ãĥĥãĤ¯ãĤ¹
ãĥ¬ ãĥĥãĥģ
ãĥ¬ ãĥĭãĤ¢
ãĥ¬ ãĤ¸ãĥ¥
ãĥ¬ ãĥĲãĥ¼
ãĥ¬ ãĤ¯ãĤ·ãĥ§ãĥ³
ãĥ¬ ãĤ¯ãĤ¿ãĥ¼
ãĥ¬ ãĥ¼ãĥĢãĥ¼
ãĥ¬ ãĥĿãĥ¼ãĥĪ
ãĥ¬ ãĥ¢ãĥ³
ãĥ¬ ãĤ¸ãĥ£ãĥ¼
ãĥ¬ ãĥĵãĥ¥ãĥ¼
ãĥ¬ ãĥ³ãĥŀ
ãĥ¬ ãĥ¼ãĥĭ
ãĥ¬ ãĥ¼ãĥĨãĤ£ãĥ³ãĤ°
ãĥ¬ ãĤ³ãĥ¼ãĥĩãĤ£ãĥ³ãĤ°
ãĥ¬ ãĥ¼ãĥĻãĥ«
ãĥ¬ ãĤ¯ãĥģãĥ£ãĥ¼
ãĥ¬ ãĤ¿ãĤ¹
åĩ µ
åĩ ¸
åĩ Į
åĩ ł
èª ¹è¬
ãĤ· ãĤĭ
ãĤ· ãĤ¤
ãĤ· ãĥŃ
ãĤ· ãĤ³
ãĤ· ãĤ°
ãĤ· ãĥ¼ãĥ«
ãĤ· ãĥ¼ãĥĪ
ãĤ· ãĥ³ãĤ°
ãĤ· ãĥ¼ãĤ¯
ãĤ· ãĥ¼ãĥ³
ãĤ· ãĥ³ãĥĹ
ãĤ· ãĥ³ãĤ¯
ãĤ· ãĥķãĥĪ
ãĤ· ãĥ¼ãĤº
ãĤ· ãĥ¼ãĥĦ
ãĤ· ãĤºãĥł
ãĤ· ãĥ³ãĥľ
ãĤ· ãĥ³ãĤ°ãĥ«
ãĤ· ãĤ¦ãĥł
ãĤ· ãĥ³ãĥĿ
ãĤ· ãĥªãĥ¼ãĤº
ãĤ· ãĥªãĤ³ãĥ³ãĥ
å° ¢
å° ¸
å° ĩ
å° Ī
å° ī
å° į
ãģ£ ãģĻ
ãģ£ ãģĭ
ãģ£ ãģĳ
ãģ£ åŃĲ
ãģ£ è¾¼ãĤĢ
ãģ£ ãģŁãģĦ
ãģ£ ãģ¡ãĤĥ
ãģ£ åıĸãĤĭ
ãģ£ ãģĭãģĭãĤĭ
ãģ£ æīķãģĨ
ãĥķ ãĥ³
ãĥķ ãĥĥ
ãĥķ ãĥª
ãĥķ ãĤ¿
ãĥķ ãĥĥãĤ¯
ãĥķ ãĥĥãĥĪ
ãĥķ ãĤ»
ãĥķ ãĥ¼ãĥī
ãĥķ ãĥĨãĤ£
ãĥķ ãĥ¬ãĥ¼
ãĥķ ãĥŃãĥ¼
ãĥķ ãĥ«ãĥĪ
è¡ ·
è¡ ŀ
ãģ« ãĤĭ
ãģ« ãģĹ
ãģ« ãģı
ãģ« ãģ¦
ãģ« ãģ¯
ãģ« å½ĵ
ãģ« ãģĽãĤĭ
ãģ« ãĤĥ
ãģ« ãģİ
ãģ« ãģ¤ãģı
ãģ« ãģ¤ãģĦ
ãģ« ç«ĭãģ¤
ãģ« ãģĭãģĳ
ãģ« ãģªãģĨ
ãģ« éļĽ
ãģ« ãģĭãģĭãĤĭ
ãģ« ãģĤãģŁ
ãģ« å½ĵãģŁãĤĭ
ãģ« ãģ¾ãģ¤
ãģ« ãģĤãģŁãĤĬ
ãģ« ãģıãģĦ
ãģ« ãģ¨ãģ£ãģ¦
ãģ« ãĤīãĤĢ
ãģ« ãģĬãģį
ãģ« ãģĬãģĳãĤĭ
ãģ« ãģĤãģŁãĤĭ
ãģ« å¾ĵãģ£ãģ¦
ãĤģ ãģ©
ãĤģ æĸ¹
ãĤģ ãģļ
ãĤģ ãĤĵãģª
ãĤģ ãģıãĤĭ
ãĤģ ãģĲãĤĭ
ãĤģ ãĤĵãģ©
ãĤģ ãģ£ãģŁ
ãĤģ ãģĸãģĻ
ãĤģ ãģ£ãģ¡ãĤĥ
åº µ
åº ¸
æķ ¦
æķ ¸
æķ Ī
æķ į
æķ ķ
çµ ²
çµ Ĩ
çµ ķ
åį ©
åį ·
åį ½
åį ¿
åį Ģ
åį ĩ
åį ľ
æ° £
æ° Ķ
å¼ §
å¼ ĭ
å¼ Ĳ
å¼ ĺ
éĩ Ģ
éĩ Ĩ
éĩ ĩ
éĩ ĭ
éĩ ĺ
éĩ §è·¯
åľ Ī
åľ į
åľ ĸ
åľ ĺ
åľ Ń
ãĥ³ãĥ Į
ãĥ³ãĥ Ĳ
ãĥ³ãĥ ĩãĤ£
ãĥ³ãĥ ĩãĥ¼
ãĥ³ãĥ ĭãĤ¯
ãĥ³ãĥ ıãĥĥ
ãĥ³ãĥ ĵãĤ¢
ãĥ³ãĥ ĺãĥ³
ãĥ³ãĥ ļãĥ¼ãĥ³
ãĥ³ãĥ Ńãĥ¼ãĥī
å¹ ¡
å¹ º
å¹ ¿
å¹ Į
æĿ İ
æĿ ĸ
æĿ ľ
æŃ ¡
æŃ ¥
æŃ ·
æŃ ¸
æŃ ¹
æŃ Ĳ
æŃ ¤åĩ¦
éĽ Ļ
éĽ Ľ
éĽ ľ
éĽ ħåŃĲ
åĬ ¾
åĬ ī
åĬ į
åĬ ĳ
å¯ ¡
å¯ ¢
å¯ «
å¯ ¬
å¯ ¶
å¯ ħ
ãĤ¸ ãĤª
ãĤ¸ ãĥł
ãĤ¸ ãĥİ
ãĤ¸ ãĥĬãĥ«
ãĤ¸ ãĥ¡ãĥ³ãĥĪ
ãĤ¸ ãĤ¿ãĥ«
ãĤ¸ ãĥĹãĥĪ
ãĤ¸ ãĤ¦ãĥł
ãĤ¸ ãĥ¼ãĥĭ
ãĤ¸ ãĥ¬ãĥ³ãĥŀ
ãĤĢ ãģı
ãĤĢ ãĤī
ãĤĢ ãģĳãĤĭ
ãĤĢ ãģŃ
ãĤĢ ãģĭãģĹ
ãĤĢ ãģĭãģĨ
ãĤĢ ãģĹãĤį
ãĤĢ ãĤįãĤĵ
ãĤĢ ãģļãģĭãģĹãģĦ
ãģ¦ ãģĭ
ãģ¦ ãĤĵ
ãģ¦ ãģĦãģĨ
ãģ¦ ãģ£ãģįãĤĬ
ãĤ« ãĥĥ
ãĤ« ãĥŃ
ãĤ« ãĥĹ
ãĤ« ãĤŃ
ãĤ« ãĥģ
ãĤ« åĽ½
ãĤ« ãĥĸ
ãĤ« ãĥł
ãĤ« ãĥ¼ãĥ«
ãĤ« å¹´
ãĤ« ãĥ¼ãĥĪ
ãĤ« ãĤº
ãĤ« æľĪ
ãĤ« ãĥĵ
ãĤ« ãĥ¢
ãĤ« ãĥ³ãĥĪ
ãĤ« ãĥį
ãĤ« æīĢ
ãĤ« ãĥ³ãĥī
ãĤ« ãĤ´
ãĤ« ãĤ®
ãĤ« ãĥĦ
ãĤ« ãĥ¼ãĥ³
ãĤ« ãĥ¬ãĥ¼
ãĤ« ãĥ³ãĤ¿
ãĤ« ãĥ¼ãĥĸ
ãĤ« ãĥķãĤ§
ãĤ« ãĥ©ãĤ¹
ãĤ« ãĥ©ãĥ¼
ãĤ« ãĥ¼ãĥĨ
ãĤ« ãĥ«ãĥĪ
ãĤ« ãĥĲãĥ¼
ãĤ« ãĥªãĤ¹
ãĤ« ãĥ³ãĥĳ
ãĤ« ãĥ©ãĥĢ
ãĤ« ãĥ³ãĥľ
ãĤ« ãĤªãĤ¹
ãĤ« ãĤ¨ãĥ«
ãĤ« ãĤ»ãĥĥãĥĪ
ãĤ« ãĥĲãĥ³
ãĤ« ãĤ¸ãĥ¥ãĤ¢ãĥ«
ãĤ« ãĤ¯ãĥĨãĥ«
ãĤ« ãĥ³ãĥĮ
ãĤ« ãĤ¸ãĥİ
å± ¬
å± ®
å± ¯
å± Ĩ
å± ĳ
ãģ¡ ãģ¨
ãģ¡ ãĤĵ
ãģ¡ ãģĵ
ãģ¡ ãģ®
ãģ¡ ãĤĪ
ãģ¡ ãģ³
ãģ¡ ãģ£ãģ¨
ãģ¡ åĪĩãĤĭ
ãģ¡ ãģĮãģĦ
ãģ¡ ãģİãĤĭ
ãģ¡ ãģ¾ãģĨ
ãģ¡ ãģªãģ¿
ãģ¡ ãģĮãģĨ
ãģ¡ ãģªãĤĢ
ãĥŃ ãĥ«
ãĥŃ ãĤ¯
ãĥŃ ãĥĲ
ãĥŃ ãĥĭ
ãĥŃ ãĥĬ
ãĥŃ ãĥ³ãĤ°
ãĥŃ ãĤ±
ãĥŃ ãĥľ
ãĥŃ ãĤ´
ãĥŃ ãĥ¼ãĥ³
ãĥŃ ãĥ¼ãĥŀ
ãĥŃ ãĥķãĥĪ
ãĥŃ ãĤ±ãĥĥãĥĪ
ãĥŃ ãĥ¼ãĥĹ
ãĥŃ ãĥŀãĥ³
ãĥŃ ãĤ·ãĤ¢
ãĥŃ ãĥĵãĥ¼
ãĥŃ ãĤ¤ãĥ¤
ãĥŃ ãĥĥãĤ«ãĥ¼
ãĥŃ ãĤ¸ãĥ¼
ãĥŃ ãĥĩãĤ£ãĥ¼
ãĥŃ ãĤ®ãĥ¼
ãĥŃ ãĤµãĥ³
ãĥŃ ãĤ±ãĥ¼ãĤ·ãĥ§ãĥ³
ãĥŃ ãĤ¸ãĥĥãĤ¯
ãĥŃ ãĥĵãĥ³
ãĥŃ ãĥ³ãĥīãĥ³
ãĥŃ ãĤ¤ãĤ¿ãĥ¼
ãĥŃ ãĥĥãĥĨ
ç´ ¡
ç´ º
ç´ Ĳ
ç´ ĹåŃĲ
éĸ ĳ
æĪ °
æĪ ²
æĪ ¶
æĪ ¾
æĪ Ģ
æĪ Ī
æĺ Į
ãģĵ ãģı
ãģĵ ãģĵ
ãģĵ ãĤģãĤĭ
ãģĵ ãģĹãģĦ
ãģĵ ãģĲ
ãģĵ ãģ¶
ãģĵ ãģ£ãģ¨
ãģĵ ãģªãģĦ
ãģĵ ãģ¼
ãģĵ ãģĻãĤĭ
ãģĵ ãģĵãĤį
ãģĵ ãģĦãģ¤
ãģĵ ãģ£ãģ¡
ãģĵ ãģ¡ãĤī
ãģĵ ãĤıãģĦ
ãģĵ ãģ©ãĤĤ
ãģĵ ãĤīãģĪãĤĭ
ãģĵ ãģ¼ãģĻ
ãģĵ ãĤĬãĤĥ
ãģĵ ãģĵãĤī
ãģĵ ãģ£ãģĿãĤĬ
ãģĵ ãģŁãģĪãĤĭ
å¿ Į
ãĤı ãģĹ
ãĤı ãģª
ãĤı ãĤĵ
ãĤı ãģ£
ãĤı ãģ¡
ãĤı ãģĳãĤĭ
ãĤı ãģĽãĤĭ
ãĤı ãģ°
ãĤı ãģĭãĤĭ
ãĤı ãģŁãĤĭ
ãĤı ãģģ
ãĤı ãĤĦãģĭ
ãĤı ãģŁãģĻ
ãĤı ãģŁãģı
ãĤı ãģŁãģĹ
åĩº çĶŁ
åĩº åĽ½
åĩº åĭķ
åĩº çĻº
åĩº åĬĽ
åĩº åħĪ
åĩº æīĢ
åĩº åł´
åĩº ç¤¾
åĩº çĶ£
åĩº åı£
åĩº åĵģ
åĩº çı¾
åĩº åĲĳ
åĩº èº«
åĩº ä¸ĸ
åĩº åºĹ
åĩº è³ĩ
åĩº é¡Į
åĩº æ¼Ķ
åĩº éłŃ
åĩº å¼µ
åĩº çķª
åĩº è²»
åĩº å¸Ń
åĩº é¦¬
åĩº é¡ĺ
åĩº åħ¸
åĩº å±ķ
åĩº åĭ¤
åĩº ãģĭãģĳãĤĭ
åĩº è¡Ģ
åĩº åĽŀãĤĭ
åĩº èį·
åĩº çīĪ
åĩº æ²¡
åĩº åħ¥ãĤĬ
åĩº æİĽãģĳãĤĭ
åĩº éĽ²
åĩº åĲĳãģı
åĩº éĢ¢ãģĨ
åĩº ç¨¼ãģİ
åĩº ãģıãĤıãģĻ
çī ½å¼ķ
è² ª
è² ³
è² °ãģĨ
è² °ãģĪãĤĭ
å¸ ¥
å¸ ¶
å¸ ĸ
å½ ¡
å½ ³
å½ Ī
å½ Į
å½ Ĳ
å½ ĹæĺŁ
ãĤ³ ãĤ¹
ãĤ³ ãĤ¢
ãĤ³ ãĤ·
ãĤ³ ãĥĹ
ãĤ³ ãĤ¦
ãĤ³ ãĥģ
ãĤ³ ãĥĥãĤ¯
ãĤ³ ãĥ¡
ãĤ³ ãĥł
ãĤ³ ãĥŁ
ãĤ³ ãĥ¼ãĥĪ
ãĤ³ ãĤ¹ãĥĪ
ãĤ³ ãĥ¢
ãĤ³ ãĥį
ãĤ³ ãĥ¼ãĥī
ãĤ³ ãĥĥãĥĹ
ãĤ³ ãĤ¤ãĥ³
ãĤ³ ãĥ¼ãĤ¹
ãĤ³ ãĥªãĤ¢
ãĤ³ ãĥ¼ãĥ³
ãĤ³ ãĥ³ãĥĹ
ãĤ³ ãĥ³ãĤ¿
ãĤ³ ãĥªãĥ³
ãĤ³ ãĥ©ãĥł
ãĤ³ ãĥ¼ãĥģ
ãĤ³ ãĥ¡ãĥ³ãĥĪ
ãĤ³ ãĥŀãĥ¼
ãĤ³ ãĥĶãĥ¼
ãĤ³ ãĥ¡ãĥĩãĤ£
ãĤ³ ãĥŁãĥĥãĤ¯
ãĤ³ ãĥ¼ãĥĬãĥ¼
ãĤ³ ãĥ©ãĥľ
ãĤ³ ãĤ³ãĥŃ
ãĤ³ ãĥ¼ãĥĴãĥ¼
ãĤ³ ãĥ¬ãĤ¯ãĤ·ãĥ§ãĥ³
å¤§ æĻ
å¤§ æīĭ
å¤§ åĽ½
å¤§ æ°Ĺ
å¤§ åľ°
å¤§ çĶ°
å¤§ ãģĴ
å¤§ çī©
å¤§ åĪĨ
å¤§ æĸ¹
å¤§ ä¼ļ
å¤§ äºĭ
å¤§ ä½ĵ
å¤§ ãĢħ
å¤§ å°ı
å¤§ éĩĳ
å¤§ åĪĩ
å¤§ å±±
å¤§ ä½ľ
å¤§ æĪ¦
å¤§ éĩİ
å¤§ æŃ£
å¤§ éĢ£
å¤§ ãģĹãģ¦
å¤§ å¹³
å¤§ å®¶
å¤§ åı£
å¤§ åĴĮ
å¤§ æľ¨
å¤§ å¤ī
å¤§ å·¥
å¤§ åįĬ
å¤§ éĩı
å¤§ è¥¿
å¤§ çŁ³
å¤§ å·®
å¤§ å³¶
å¤§ æł¹
å¤§ è¢
å¤§ å®®
å¤§ åĭ¢
å¤§ éĽĳ
å¤§ å£°
å¤§ çİĭ
å¤§ ãģĹãģŁ
å¤§ çµ±
å¤§ è³ŀ
å¤§ åŀĭ
å¤§ è°·
å¤§ ä½Ĳ
å¤§ è¡Ĩ
å¤§ éĻ¸
å¤§ éĢļãĤĬ
å¤§ æ©ĭ
å¤§ æ£®
å¤§ è±Ĩ
å¤§ å°Ĩ
å¤§ éĽ¨
å¤§ å¡ļ
å¤§ å¹ħ
å¤§ ç¶±
å¤§ éĺª
å¤§ éĽª
å¤§ æĬµ
å¤§ æ´¥
å¤§ ç¬ĳãģĦ
å¤§ èĩªçĦ¶
å¤§ èĥĨ
å¤§ å¥½ãģį
å¤§ ä¹ħä¿Ŀ
å¤§ å«ĮãģĦ
å¤§ åīįæıĲ
å¤§ è¼Ķ
å¤§ éĥ½å¸Ĥ
å¤§ éľĩçģ½
å¤§ é¨Ĵãģİ
å¤§ ä¸Īå¤«
å¤§ ãģ¾ãģĭ
å· ¢
å· ·
å· ¾
å· Ľ
ãģĤ ãĥ¼
ãģĤ ãģĻ
ãģĤ ãģª
ãģĤ ãģĪãĤĭ
ãģĤ ãģĤ
ãģĤ ãĤĮãĤĭ
ãģĤ ãģĳãĤĭ
ãģĤ ãģĿ
ãģĤ ãģĴ
ãģĤ ãģĽãĤĭ
ãģĤ ãģĶ
ãģĤ ãģ¦ãĤĭ
ãģĤ ãģĭãĤī
ãģĤ ãģĹãģŁ
ãģĤ ãģģ
ãģĤ ãģ¤ãģĦ
ãģĤ ãģĦãģĭ
ãģĤ ãģĦãģ¾
ãģĤ ãģĦãģ¤
ãģĤ ãģ¡ãĤĥãĤĵ
ãģĤ ãĤīãģĭ
ãģĤ ãģ£ãģ¡
ãģĤ ãģĿãģĵ
ãģĤ ãģŁãģŁ
ãģĤ ãģ¡ãĤī
ãģĤ ãĤĵãģªãģ«
ãģĤ ãģĬãĤĭ
ãģĤ ãģªãģŁ
ãģĤ ãģĪãģ¦
ãģĤ ãģĪãģļ
ãģĤ ãģµãĤĮãĤĭ
ãģĤ ãģ¡ãģĵ
ãĢ ¡
ãĢ ¢
ãĢ £
ãĢ ¤
ãĢ ¥
ãĢ ¦
ãĢ §
ãĢ ¨
ãĢ ©
ãĢ ª
ãĢ «
ãĢ ¬
ãĢ ®
ãĢ ¯
ãĢ °
ãĢ ±
ãĢ ²
ãĢ ³
ãĢ ´
ãĢ µ
ãĢ ¶
ãĢ ·
ãĢ ¸
ãĢ ¹
ãĢ º
ãĢ »
ãĢ ¼
ãĢ ½
ãĢ ¾
ãĢ ¿
ãĢ Ħ
ãĢ ĸ
ãĢ Ĺ
ãĢ ĺ
ãĢ Ļ
ãĢ ļ
ãĢ Ľ
ãĢ Ŀ
ãĢ ŀ
ãĢ Ł
ãĢ ł
ãĢ Ń
ãĢ ĢĊ
ãĥŀ ãĤĭ
ãĥŀ ãĥª
ãĥŀ ãĤ¸
ãĥŀ ãĥŀ
ãĥŀ ãĤŃ
ãĥŀ ãĤ¦
ãĥŀ ãĥĥãĤ¯
ãĥŀ ãĥ¡
ãĥŀ ãĥĥãĥĪ
ãĥŀ ãĥªãĥ¼
ãĥŀ ãĤ¬
ãĥŀ ãĥĥãĥĹ
ãĥŀ ãĥªãĤ¢
ãĥŀ ãĥ¼ãĤ¯
ãĥŀ ãĥķãĤ£
ãĥŀ ãĤ¹ãĤ¯
ãĥŀ ãĤ¤ãĥ«
ãĥŀ ãĥķãĥ©
ãĥŀ ãĥĥãĥģ
ãĥŀ ãĥªãĥ³
ãĥŀ ãĤ¯ãĥŃ
ãĥŀ ãĥ¼ãĥģ
ãĥŀ ãĥĪãĥª
ãĥŀ ãĥĬãĥ¼
ãĥŀ ãĤ¹ãĤ³
ãĥŀ ãĥĭãĥ¥
ãĥŀ ãĥ¼ãĥĨãĤ£
ãĥŀ ãĤ¹ãĤ¿ãĥ¼
ãĥŀ ãĤ·ãĥ³
ãĥŀ ãĤªãĥª
ãĥŀ ãĤ°ãĥŃ
ãĥŀ ãĥīãĥª
ãĥŀ ãĥĥãĤµ
ãĥŀ ãĥªãĤª
ãĥŀ ãĤ¶ãĥ¼
ãĥŀ ãĤ¦ãĤ¹
ãĥŀ ãĤ¸ãĥĥãĤ¯
ãĥŀ ãĥĢãĥł
ãĥŀ ãĤ¯ãĥī
ãĥŀ ãĥ©ãĤ½ãĥ³
ãĥŀ ãĥ³ãĥıãĥĥ
ãĤĤ ãĤĬ
ãĤĤ ãģĹ
ãĤĤ ãģ¤
ãĤĤ ãĤĢ
ãĤĤ ãĤĤ
ãĤĤ ãĤĮãĤĭ
ãĤĤ ãĤĦ
ãĤĤ ãĤģãĤĭ
ãĤĤ ãģĹãģĦ
ãĤĤ ãģ¦ãĤĭ
ãĤĤ ãģ¨ãĤĤ
ãĤĤ ãģ£ãģ±
ãĤĤ ãĤīãģĨ
ãĤĤ ãĤīãģĪãĤĭ
ãĤĤ ãģ©ãģį
ãĤĤ ãģĹãĤĤ
ãĤĤ ãģĭãĤĤ
ãĤĤ ãģ¯ãĤĦ
ãĤĤ ãģ©ãĤĭ
ãĤĤ ãģĹãģıãģ¯
ãĤĤ ãģŁãĤīãģĻ
ãĤĤ ãģ£ãģŁãģĦ
åī ©
åī Ŀ
åī ĥãĤĭ
ãģķ ãģĹ
ãģķ ãģı
ãģķ ãģª
ãģķ ãģĪ
ãģķ ãĤĢ
ãģķ ãģĤ
ãģķ ãĤĤ
ãģķ ãĤģãĤĭ
ãģķ ãģĮ
ãģķ ãģĹãģĦ
ãģķ ãĤĪ
ãģķ ãģļ
ãģķ ãģĽãĤĭ
ãģķ ãģ£ãģ¨
ãģķ ãĤıãĤĭ
ãģķ ãĤīãģĻ
ãģķ ãģ»ãģ©
ãģķ ãģģ
ãģķ ãģıãĤī
ãģķ ãģ£ãģ±
ãģķ ãģ¼ãĤĭ
ãģķ ãģªãģĮãĤī
ãģķ ãģ£ãģĿ
ãģķ ãĤıãģĹãģĦ
ãģķ ãģ¶ãĤĭ
ãģķ ãģĭãģ®
ãģķ ãģ³ãģĹãģĦ
ãģķ ãĤıãĤĦãģĭ
åĨ «
åĨ ¶
åĨ Ĥ
åĨ ĸ
åĨ ¤ç½ª
ãģ¿ ãģ¤
ãģ¿ ãģ«
ãģ¿ ãģ¡
ãģ¿ ãģĪãĤĭ
ãģ¿ ãģĮ
ãģ¿ ãģ©
ãģ¿ ãģĽãĤĭ
ãģ¿ åĩºãģĻ
ãģ¿ ãģ¤ãģı
ãģ¿ ãģŁãģĦ
ãģ¿ ãĤĵãģª
ãģ¿ ãģ¤ãģĳãĤĭ
ãģ¿ åĲĪãģĨ
ãģ¿ ãģĭãĤĵ
ãģ¿ ãģªãģĻ
ãģ¿ ãģĶãģ¨
ãģ¿ ãĤĨãģį
ä¸Ģ å¤§
ä¸Ģ åĽ½
ä¸Ģ è¦ĭ
ä¸Ģ è¡Į
ä¸Ģ å®ļ
ä¸Ģ çĻº
ä¸Ģ ãĢħ
ä¸Ģ åĲĮ
ä¸Ģ æĸĩ
ä¸Ģ éĿ¢
ä¸Ģ åĪĩ
ä¸Ģ è¨Ģ
ä¸Ģ éĢ£
ä¸Ģ åĳ³
ä¸Ģ å®¶
ä¸Ģ åı£
ä¸Ģ èªŃ
ä¸Ģ åĵģ
ä¸Ģ ç·ļ
ä¸Ģ åĲĳ
ä¸Ģ åĵ¡
ä¸Ģ å¤ī
ä¸Ģ æµģ
ä¸Ģ è»¢
ä¸Ģ èī²
ä¸Ģ æ§ĺ
ä¸Ģ ç¨®
ä¸Ģ ç«¯
ä¸Ģ å¿ľ
ä¸Ģ çķª
ä¸Ģ å¤ľ
ä¸Ģ æĴĥ
ä¸Ģ æĹı
ä¸Ģ å¸¯
ä¸Ģ è§Ĵ
ä¸Ģ éĢĶ
ä¸Ģ ç´ļ
ä¸Ģ åĳ¨
ä¸Ģ æĮĻ
ä¸Ģ åĽł
ä¸Ģ çĴ°
ä¸Ģ åĪ»
ä¸Ģ è¦§
ä¸Ģ å±¤
ä¸Ģ æĻ©
ä¸Ģ éĢļãĤĬ
ä¸Ģ æģ¯
ä¸Ģ ç¯Ģ
ä¸Ģ æ¦Ĥ
ä¸Ģ å¾ĭ
ä¸Ģ èĩ´
ä¸Ģ æĭ¬
ä¸Ģ æĺĶ
ä¸Ģ ç·Ĵ
ä¸Ģ æ³Ĭ
ä¸Ģ æĹ¦
ä¸Ģ æİĥ
ä¸Ģ çľ¼
ä¸Ģ çŀ¬
ä¸Ģ æĸī
ä¸Ģ éģį
ä¸Ģ è²«
ä¸Ģ æ°Ĺãģ«
ä¸Ģ æĹ¥ä¸Ń
ä¸Ģ å®īå¿ĥ
æĽ ¾
æĽ Ĩ
æĽ ĩ
æĽ ī
æĽ ĩãĤĭ
æĦ ¼
æĦ ģ
ãĥĹ ãĤ¹
ãĥĹ ãĤ¿
ãĥĹ ãĥ¼ãĥ«
ãĥĹ ãĤ·ãĥ§ãĥ³
ãĥĹ ãĥĥãĤ·ãĥ¥
ãĥĹ ãĥ©ãĥ³
ãĥĹ ãĥĨãĥ³
ãĥĹ ãĥ¼ãĤ±ãĥĥãĥĪ
äºº çĶŁ
äºº æīĭ
äºº æ°Ĺ
äºº çī©
äºº ä½ĵ
äºº ãĢħ
äºº ãģ³
äºº åīį
äºº åĲį
äºº æĸĩ
äºº éģĵ
äºº æ°ĳ
äºº è³ª
äºº åı£
äºº æł¼
äºº çļĦ
äºº åĵ¡
äºº èº«
äºº å·¥
äºº æĥħ
äºº æ§ĺ
äºº çµĦ
äºº åĳ½
äºº åıĤ
äºº ç¨®
äºº éģĶ
äºº å½¢
äºº æ¨©
äºº æĿĲ
äºº ä»¶
äºº é¡ŀ
äºº æŁĦ
äºº çĤº
äºº èĦĪ
äºº å½ĵãģŁãĤĬ
äºº å¦»
äºº éŃļ
éĻ ·
ç« ¿
ç« Ĭ
ç« Ŀ
ç« £å·¥
ç· £
ç· ĸ
åĳ ĳãĤĢ
åĳ Łãģı
æĢ ¨
è³ £
è³ ¦
è³ ´
è³ Ĥ
è³ ĵ
è¾ £
è¾ ¨
è¾ ¯
è¾ µ
è¾ »
è¾ ¿
è¾ Ń
è¾ ¿ãĤĭ
ãĤ£ ãĥ³
çĻ ¡
çĻ ¶
çĻ ¼
çĻ Į
æĬ Ħ
ãĥĲ ãĤ¯
ãĥĲ ãĤ¿
ãĥĲ ãĤ«
ãĥĲ ãĥĲ
ãĥĲ ãĥł
ãĥĲ ãĥĥãĥĪ
ãĥĲ ãĤ¿ãĥ¼
ãĥĲ ãĥªãĥ¼
ãĥĲ ãĥį
ãĥĲ ãĤ±
ãĥĲ ãĥ¼ãĥī
ãĥĲ ãĥ³ãĥī
ãĥĲ ãĥªãĤ¢
ãĥĲ ãĥ¬ãĥ¼
ãĥĲ ãĥĥãĤ¯ãĤ¹
ãĥĲ ãĤ¹ãĤ¯
ãĥĲ ãĤ¤ãĥ«
ãĥĲ ãĥĥãĥģ
ãĥĲ ãĥĸãĥ«
ãĥĲ ãĥ¼ãĥģ
ãĥĲ ãĥ¼ãĥĦ
ãĥĲ ãĥĪãĥ«
ãĥĲ ãĤ¹ãĤ±
ãĥĲ ãĤ·ãĥ¼
ãĥĲ ãĥ¼ãĥĻ
ãĥĲ ãĤ¿ãĥĲ
ãĥĲ ãĥĪãĥ³
ãĥĲ ãĥĬãĥĬ
ä¿ ¸
è¿ Ħ
è¿ Ń
ãĤŃ ãĥĥ
ãĤŃ ãĥª
ãĤŃ ãĥ¬
ãĤŃ ãĥŃ
ãĤŃ ãĥĥãĤ¯
ãĤŃ ãĥŁ
ãĤŃ ãĤº
ãĤŃ ãĥ¢
ãĤŃ ãĥİ
ãĤŃ ãĥĦ
ãĤŃ ãĥĥãĥī
ãĤŃ ãĥĥãĥģ
ãĤŃ ãĥªãĥ³
ãĤŃ ãĥ¼ãĥĹ
ãĤŃ ãĥĨãĤ¯
ãĤŃ ãĤ·ãĥ³
ãĤŃ ãĥ¬ãĤ¤
ãĤŃ ãĥģãĥ³
ãĤŃ ãĥ¼ãĥĳãĥ¼
ãĤŃ ãĥ¼ãĥ¯
ãĤŃ ãĤ¹ãĤ¿ãĥ³
ãĤŃ ãĤµãĤ¤ãĥĪ
ãĤŃ ãĥ¼ãĥľãĥ¼ãĥī
ãĤŃ ãĤ·ãĤ³
éĥ ŀ
æĹ¥ ç«ĭ
æĹ¥ æľĪ
æĹ¥ ãĢħ
æĹ¥ éĸĵ
æĹ¥ ä»ĺ
æĹ¥ æķ°
æĹ¥ æĻĤ
æĹ¥ éĩİ
æĹ¥ çĶ£
æĹ¥ è¨ĺ
æĹ¥ åĴĮ
æĹ¥ å¸¸
æĹ¥ åł±
æĹ¥ æĽľ
æĹ¥ ç¨ĭ
æĹ¥ åĪĬ
æĹ¥ å¼ģ
æĹ¥ çĦ¼
æĹ¥ åħī
æĹ¥ ç³»
æĹ¥ éłĥ
æĹ¥ éĬĢ
æĹ¥ æĽľæĹ¥
æĹ¥ ãĥĨãĥ¬
æĹ¥ å·®ãģĹ
æĹ¥ èªĮ
æĹ¥ ãģĶãĤį
æĹ¥ å¸°ãĤĬ
æĹ¥ éħĶãģĦ
ãĤ° ãĥ¬ãĥ¼
ãĤ° ãĥĥãĥī
ãĤ° ãĥ©ãĤ¹
ãĤ° ãĥ©ãĥ³ãĥī
ãĤ° ãĥ«ãĥĪ
ãĤ° ãĥ¬ãĥ³
ãĤ° ãĥ¬ãĤ¤
ãĤ° ãĤ¢ãĥł
ãĤ° ãĥªãĥ¼ãĥ³
ãĤ° ãĥ«ãĥ¼ãĥĹ
ãĤ° ãĥªãĥĥãĥĹ
ãĤ° ãĥ¬ãĥ¼ãĥī
ãĤ° ãĥ«ãĥ¡
ãĤ° ãĥ¬ãĤĭ
ä¸Ĭ ãĤĭ
ä¸Ĭ ãĤĬ
ä¸Ĭ çĶ°
ä¸Ĭ ä¸ĭ
ä¸Ĭ æĸ¹
ä¸Ĭ éĥ¨
ä¸Ĭ åł´
ä¸Ĭ åİŁ
ä¸Ĭ éĩİ
ä¸Ĭ çĿĢ
ä¸Ĭ è¨ĺ
ä¸Ĭ è³ª
ä¸Ĭ ç©º
ä¸Ĭ åĵģ
ä¸Ĭ æµģ
ä¸Ĭ æµ·
ä¸Ĭ ãģªãģĦ
ä¸Ĭ ä¹Ĺ
ä¸Ĭ ä½į
ä¸Ĭ éĻ¢
ä¸Ĭ åĳĬ
ä¸Ĭ éĻĲ
ä¸Ĭ æ¼Ķ
ä¸Ĭ éģĶ
ä¸Ĭ åı¸
ä¸Ĭ äº¬
ä¸Ĭ ç´ļ
ä¸Ĭ æĺł
ä¸Ĭ è¿°
ä¸Ĭ éĻ¸
ä¸Ĭ å±¤
ä¸Ĭ åĽŀãĤĭ
ä¸Ĭ æĹ¬
ä¸Ĭ åįĬèº«
æİ Į
æİ ´ãĤĢ
åĮ ¸
åĮ ķ
åĮ ļ
ãģĿ ãģĭ
ãģĿ ãĤī
ãģĿ ãĤĵ
ãģĿ ãģ£
ãģĿ ãĤĮãĤĭ
ãģĿ ãģ°
ãģĿ ãģĹãģ¦
ãģĿ ãģ£ãģ¨
ãģĿ ãĤīãģĻ
ãģĿ ãģĹãģŁ
ãģĿ ãģĦãģ¤
ãģĿ ãģ£ãģ¡
ãģĿ ãģ£ãģıãĤĬ
ãģĿ ãģ¡ãĤī
ãģĿ ãĤĵãģªãģ«
ãģĿ ãĤĬãĤĥ
ãģĿ ãģĿãĤĭ
ãĤĦ ãģĦ
ãĤĦ ãģĨ
ãĤĦ ãģį
ãĤĦ ãģ¤
ãĤĦ ãĤĵ
ãĤĦ ãĤĮãĤĭ
ãĤĦ ãĤģãĤĭ
ãĤĦ ãģĮ
ãĤĦ ãģĴ
ãĤĦ ãģĽãĤĭ
ãĤĦ ãģ°
ãĤĦ ãģ£ãģ¨
ãĤĦ ãĤīãģĻ
ãĤĦ ãĤıãĤī
ãĤĦ ãģ¾ãģĹãģĦ
ãĤĦ ãģĳãģ«
ãĤĦ ãģĳãģ©
ãĤĦ ãģŁãĤī
ãĤĦ ãģ£ãģĭãģĦ
ãĤĦ ãģ¯ãĤĬ
ãĤĦ ãģķãģĹãģĦ
ãĤ·ãĥ ģãĥ¥
ãĤ·ãĥ ĨãĤ£
ãĤ·ãĥ īãĥĭãĥ¼
ãĤ·ãĥ ĬãĥªãĤª
ãĤ·ãĥ ĭãĤ¢
ãĤ·ãĥ įãĥŀ
ãĤ·ãĥ ĻãĥªãĤ¢
æµ ©
å¥ §
å¥ ¬
å¥ Ķ
å¥ Ħç¾İ
æĶ ´
æĶ ¶
æĶ Ŀ
ãĥĨ ãĥĪ
ãĥĨ ãĤ¤
ãĥĨ ãĥ©
ãĥĨ ãĥĥãĤ¯
ãĥĨ ãĥł
ãĥĨ ãĥ¼ãĥ«
ãĥĨ ãĤ¹ãĥĪ
ãĥĨ ãĥ³ãĥĪ
ãĥĨ ãĥªãĥ¼
ãĥĨ ãĥ³ãĥĹ
ãĥĨ ãĥ©ãĤ¹
ãĥĨ ãĥ¼ãĥŀ
ãĥĨ ãĥ¼ãĥĹ
ãĥĨ ãĥ©ãĥ³
ãĥĨ ãĤ¹ãĤ¿ãĥ³ãĥĪ
ãĥĨ ãĥ³ãĥĿ
ãĥĨ ãĥĭãĤ¹
ãĥĨ ãĥ¼ãĥĸãĥ«
å£ ¤
å£ ¯
å£ ±
å£ ¹
å£ ½
å£ ĵ
å£ ĺ
å£ ŀ
çĦ ī
éĿ Ī
éĿ ĳ
éĿ ľ
ãģĮ ãģĳ
ãģĮ ãģŁ
ãģĮ ãģĪ
ãģĮ ãģ¡
ãģĮ ä¸Ģ
ãģĮ ä»£
ãģĮ ãģ£ãģ¦
ãģĮ ãģŁãģĦ
ãģĮ ãģ£ãģĭãĤĬ
ãģĮ ãģ¿ãĤĭ
ãģĮ ãģĳãģªãģĦ
æł Ĺ
ãĤ¦ ãĥ¼
ãĤ¦ ãĥª
ãĤ¦ ãĥ©
ãĤ¦ ãĤµ
ãĤ¦ ãĥģ
ãĤ¦ ãĥı
ãĤ¦ ãĤ½
ãĤ¦ ãĥ³ãĤ¹
ãĤ¦ ãĤ¤ãĤ¹
ãĤ¦ ãĤ¤ãĥ«
ãĤ¦ ãĥ©ãĥ³
ãĤ¦ ãĤ¤ãĥ³ãĥī
ãĤ¦ ãĤ¨ãĤ¹ãĥĪ
ãĤ¦ ãĤ¯ãĥ©ãĤ¤
æ¸ ´
æ¸ ĩ
è© £
è© Ķ
è© ł
èĩ º
èĩ ¼
èĩ Ĩ
èĩ Ł
èĩ ŃãģĦ
éł ¬
éł °
éł ĵ
éł ·ãģı
æľ¬ äºº
æľ¬ æĹ¥
æľ¬ åŃ¦
æľ¬ åĽ½
æľ¬ æ°Ĺ
æľ¬ çĶ°
æľ¬ å¹´
æľ¬ çī©
æľ¬ ä½ĵ
æľ¬ éĥ¨
æľ¬ æĽ¸
æľ¬ åĲį
æľ¬ æĸĩ
æľ¬ æķ°
æľ¬ å¿ĥ
æľ¬ æ¥Ń
æľ¬ åł´
æľ¬ ç¤¾
æľ¬ æĿ¥
æľ¬ æĢ§
æľ¬ å®¶
æľ¬ è³ª
æľ¬ æł¼
æľ¬ æľ¨
æľ¬ éŁ³
æľ¬ èĥ½
æľ¬ ä½į
æľ¬ åºĹ
æľ¬ åľŁ
æľ¬ åĳ½
æľ¬ é¤¨
æľ¬ é¡Į
æľ¬ æ¡Ī
æľ¬ ç·¨
æľ¬ çķª
æľ¬ ä»¶
æľ¬ ç´Ļ
æľ¬ æĭł
æľ¬ ç¨¿
æľ¬ å¹´åº¦
æľ¬ èªĮ
æľ¬ æ£ļ
æĻ °
æĻ º
æĻ ĥ
æĻ ĭ
æĻ ļ
æĻ Ŀ
æĻ ĴãģĻ
ãģ® ãĤĭ
ãģ® ãģı
ãģ® ãĤī
ãģ® ãģ«
ãģ® ãĤĢ
ãģ® ãĤĤ
ãģ® ãģ¿
ãģ® ãģ©
ãģ® ä¸Ń
ãģ® å®ļ
ãģ® ãģ§
ãģ® åĨħ
ãģ® ãģĽãĤĭ
ãģ® ãģ£ãģ¨
ãģ® ãģ¼
ãģ® ãģ¹ãĤĭ
ãģ® ãģŀ
ãģ® æ¯Ľ
ãģ® ãģ³ãĤĭ
ãģ® æ¯Ĵ
ãģ® ãģ¾ãģ¾
ãģ® ãģ¼ãĤĭ
ãģ® å½ĵãģŁãĤĬ
ãģ® ãģ°ãģĻ
ãģ® åĽŀãĤĬ
ãģ® ãģ²ãĤī
ãģ® ãĤĵãģ³
ãĤµ ãĤ¯
ãĤµ ãĥŀ
ãĤµ ãĥĲ
ãĤµ ãĥĸ
ãĤµ ãĥŁ
ãĤµ ãĥ¼ãĥĪ
ãĤµ ãĥ³ãĤ°
ãĤµ ãĥ³ãĥĪ
ãĤµ ãĥªãĥ¼
ãĤµ ãĥĿ
ãĤµ ãĥ¼ãĥī
ãĤµ ãĥľ
ãĤµ ãĤ¤ãĥ³
ãĤµ ãĥ³ãĤ¹
ãĤµ ãĥ¼ãĤ¯
ãĤµ ãĥ³ãĤ¿
ãĤµ ãĥ¼ãĥĸ
ãĤµ ãĥĥãĤ¯ãĤ¹
ãĤµ ãĤ¯ãĥ©
ãĤµ ãĥ¼ãĥķ
ãĤµ ãĥ³ãĥĳ
ãĤµ ãĥŀãĥ¼
ãĤµ ãĥĿãĥ¼ãĥĪ
ãĤµ ãĤ¹ãĥļ
ãĤµ ãĥĥãĤ«ãĥ¼
ãĤµ ãĥ©ãĥĢ
ãĤµ ãĥ¼ãĥĲ
ãĤµ ãĤ¦ãĥ³ãĥī
ãĤµ ãĥ¼ãĥĲãĥ¼
ãĤµ ãĥŃãĥ³
ãĤµ ãĥ¼ãĥĵ
ãĤµ ãĥ³ãĥĢãĥ«
ãĤµ ãĥ³ãĥĸãĥ«
ãĤµ ãĥ¬ãĥł
ãĤµ ãĥ³ãĥĩãĥ¼
çĶŁ ãĤĢ
çĶŁ åľ°
çĶŁ ä½ĵ
çĶŁ ãĢħ
çĶŁ åīį
çĶŁ å¾Į
çĶŁ æĪĲ
çĶŁ çĶ£
çĶŁ è¨Ī
çĶŁ ãģĺãĤĭ
çĶŁ åĳ½
çĶŁ èĤ²
çĶŁ åŃĺ
çĶŁ æŃ»
çĶŁ ãģĭãģĻ
çĶŁ å¾Ĵ
çĶŁ æģ¯
çĶŁ æ®ĸ
çĶŁ ãģļãĤĭ
çĶŁ èªķ
çĶŁ ãģ¾ãĤĮãĤĭ
çĶŁ æĦıæ°Ĺ
çĶŁ æ¶¯
çĶŁ å¹´æľĪæĹ¥
çĶŁ ãģ¿åĩºãģĻ
æĮ ¾
ãģ© ãĥ¼
ãģ© ãģı
ãģ© ãģ®
ãģ© ãģ£ãģ¨
ãģ© ãĤĵãģª
ãģ© ãģ£ãģ¡
ãģ© ãģ¡ãĤī
ãģ© ãĤĵãģªãģ«
ãģ© ãĤĵãģ©
ãģ© ãģĬãĤĬ
ãģ© ãģ£ãģ·ãĤĬ
ãģ© ãģªãģŁ
ãģ© ãģ£ãģĭ
ãĤª ãĥĪ
ãĤª ãĥ¬
ãĤª ãĤª
ãĤª ãĥ¼ãĥ«
ãĤª ãĤ±
ãĤª ãĥĶ
ãĤª ãĥ¼ãĤ¯
ãĤª ãĥ¤
ãĤª ãĤ·ãĥ£
ãĤª ãĤ¤ãĥ«
ãĤª ãĥĭãĤ¢
ãĤª ãĥ¼ãĥĢãĥ¼
ãĤª ãĥ¼ãĥ«ãĥī
ãĤª ãĤ¤ãĥ©
ãĤª ãĥĥãĤµ
ãĤª ãĥ¼ãĥŃ
ãĤª ãĥ¬ãĥ³ãĤ¸
ãĤª ãĥķãĤ¡ãĥ¼
ãĤª ãĥ©ãĥ³ãĥĢ
ãĤª ãĥ¼ãĥĲãĥ¼
ãĤª ãĤ¦ãĥł
ãĤª ãĥ¼ãĥĬãĥ¼
ãĤª ãĥ¼ãĥĸãĥ³
ãĤª ãĤ¿ãĤ¯
ãĤª ãĥĹãĤ·ãĥ§ãĥ³
ãĤª ãĤŃãĤ·ãĥ³
åł º
åł Ĩ
çķ «
çķ ¶
çķ ı
çķ Ķ
çķ Ŀ
æīĭ åĭķ
æīĭ å½ĵ
æīĭ åīį
æīĭ éĸĵ
æīĭ æķ°
æīĭ æ³ķ
æīĭ è¨ĺ
æīĭ åı£
æīĭ éħį
æīĭ è©±
æīĭ è¶³
æīĭ ç¶ļ
æīĭ åħĥ
æīĭ å½¢
æīĭ æ®µ
æīĭ è¡ĵ
æīĭ æĮģãģ¡
æīĭ ç´Ļ
æīĭ æĽ¸ãģį
æīĭ è»½
æīĭ é¦ĸ
æīĭ éłĥ
æīĭ éłĨ
æīĭ åħ¥ãĤĮ
æīĭ å½ĵãģ¦
æīĭ å¡ļ
æīĭ å¸³
æīĭ ä½ľãĤĬ
æīĭ çĽ´ãģĹ
æīĭ èħķ
æīĭ ç¶ļãģį
æīĭ è¢ĭ
æīĭ æ¸¡ãģĻ
æīĭ æİĽãģĳãĤĭ
æīĭ åĬ©ãģĳ
æīĭ ãģĮãģĳãĤĭ
æīĭ ãģĮãģĭãĤĬ
æīĭ æĶ¾ãģĻ
æīĭ æĬľãģį
æīĭ ãģ®ãģ²ãĤī
æ¥ ·
ãĥī ãĥ³
ãĥī ãĤ¦
ãĥī ãĥĥãĤ¯
ãĥī ãĥĥãĥĪ
ãĥī ãĥ¼ãĥ«
ãĥī ãĥ¼ãĥł
ãĥī ãĥ¼ãĥĬ
ãĥī ãĥ¬ãĤ¹
ãĥī ãĥ©ãĥł
ãĥī ãĤ¯ãĤ¿ãĥ¼
ãĥī ãĥ¡ãĤ¤ãĥ³
ãĥī ãĥ³ãĥīãĥ³
ãĥī ãĤ³ãĥ¢
åŃ¦ å¹´
åŃ¦ éķ·
åŃ¦ åĨħ
åŃ¦ åĬĽ
åŃ¦ ãģ³
åŃ¦ ãģ¶
åŃ¦ æľŁ
åŃ¦ èĢħ
åŃ¦ ä½į
åŃ¦ éĻ¢
åŃ¦ åķı
åŃ¦ ç§ĳ
åŃ¦ ãģ¹ãĤĭ
åŃ¦ èª¬
åŃ¦ ç¿Ĵ
åŃ¦ è¡ĵ
åŃ¦ èŃĺ
åŃ¦ åľĴ
åŃ¦ è²»
åŃ¦ èĬ¸
åŃ¦ ç´ļ
åŃ¦ æŃ´
åŃ¦ ç«¥
åŃ¦ æĹħè¡Į
ç¨ ±
ç¨ »
ç¨ Ģ
ç¨ Ķ
åĲĪ ãģĪãĤĭ
åĲĪ æ°Ĺ
åĲĪ ä½ĵ
åĲĪ éĸĵ
åĲĪ åĲĮ
åĲĪ æĦı
åĲĪ æ³ķ
åĲĪ æĪ¦
åĲĪ æĪĲ
åĲĪ æµģ
åĲĪ è¨Ī
åĲĪ åĽ³
åĲĪ å®¿
åĲĪ èĩ´
åĲĪ ä½µ
åĲĪ åĶ±
ç§ ¦
ï½ ¥
ï½ ¦
ï½ §
ï½ ¨
ï½ ©
ï½ ª
ï½ «
ï½ ¬
ï½ ®
ï½ ¯
ï½ °
ï½ ±
ï½ ²
ï½ ³
ï½ ´
ï½ µ
ï½ ¶
ï½ ·
ï½ ¸
ï½ ¹
ï½ º
ï½ »
ï½ ¼
ï½ ½
ï½ ¾
ï½ ¿
ï½ Ģ
ï½ Ħ
ï½ Ĩ
ï½ Ī
ï½ ī
ï½ Ĭ
ï½ Į
ï½ İ
ï½ ı
ï½ ĳ
ï½ Ĵ
ï½ Ķ
ï½ ķ
ï½ Ļ
ï½ ļ
ï½ ľ
ï½ ŀ
ï½ Ń
ä¸Ń æĹ¥
ä¸Ń åŃ¦
ä¸Ń çĶ°
ä¸Ń å¹´
ä¸Ń ç«ĭ
ä¸Ń éĥ¨
ä¸Ń å°ı
ä¸Ń éĸĵ
ä¸Ń å±±
ä¸Ń é«ĺ
ä¸Ń å¿ĥ
ä¸Ń åİŁ
ä¸Ń æľŁ
ä¸Ń éĩİ
ä¸Ń æĿ±
ä¸Ń æĸŃ
ä¸Ń å·Ŀ
ä¸Ń åħ±
ä¸Ń èº«
ä¸Ń æµ·
ä¸Ń ä¸ĸ
ä¸Ń è¥¿
ä¸Ń çµ¶
ä¸Ń å³¶
ä¸Ń åı¤
ä¸Ń æĿĳ
ä¸Ń æŃ¢
ä¸Ń çŃī
ä¸Ń è¶Ĭ
ä¸Ń è°·
ä¸Ń ç´ļ
ä¸Ń çķ¥
ä¸Ń åĤ·
ä¸Ń ãģ§ãĤĤ
ä¸Ń çĽ¤
ä¸Ń ç¶Ļ
ä¸Ń èı¯
ä¸Ń æĹ¬
ä¸Ń æł¸
ä¸Ń æ¯Ĵ
ä¸Ń åºŃ
ä¸Ń åłħ
ä¸Ń åŃ¦çĶŁ
ä¸Ń å¿ĥåľ°
ä¸Ń éķ·æľŁ
ä¸Ń æĽ½
ä¸Ń æŀ¢
ä¸Ń åįĹç±³
è£ ¾
è£ Ŀ
é£ ´
é£ ľ
ãĥģ ãĥ¼
ãĥģ ãĤ¹
ãĥģ ãĥª
ãĥģ ãĤ«
ãĥģ ãĤ³
ãĥģ ãĥĬ
ãĥģ ãĥĥãĥĹ
ãĥģ ãĥ¼ãĥł
ãĥģ ãĤ±ãĥĥãĥĪ
ãĥģ ãĥ¼ãĤº
ãĥģ ãĥĻãĥĥãĥĪ
ãĥģ ãĤŃãĥ³
ãĥģ ãĥ©ãĤ·
åĽ½ ç«ĭ
åĽ½ ä¼ļ
åĽ½ ãĢħ
åĽ½ æľī
åĽ½ å¤ĸ
åĽ½ éģĵ
åĽ½ éĢ£
åĽ½ çĶ£
åĽ½ æ°ĳ
åĽ½ å®¶
åĽ½ èªŀ
åĽ½ ç¨İ
åĽ½ äº¤
åĽ½ åľŁ
åĽ½ æĶ¿
åĽ½ éĺ²
åĽ½ æŃĮ
åĽ½ çİĭ
åĽ½ çĽĬ
åĽ½ åĸ¶
åĽ½ å´İ
åĽ½ åº«
åĽ½ å¢ĥ
åĽ½ éīĦ
åĽ½ éļĽ
åĽ½ åĤµ
åĽ½ ç±į
åĽ½ æĹĹ
åĽ½ æ°ĳåħļ
èŃ ¯
èŃ ½
èŃ ī
ãĤ¨ ãĥĪ
ãĤ¨ ãĤ¤
ãĤ¨ ãĥŃ
ãĤ¨ ãĤµ
ãĤ¨ ãĥĵ
ãĤ¨ ãĥį
ãĤ¨ ãĥ³ãĥī
ãĤ¨ ãĥĶ
ãĤ¨ ãĥĽ
ãĤ¨ ãĥ¼ãĤ¹
ãĤ¨ ãĤ´
ãĤ¨ ãĥ³ãĤ¹
ãĤ¨ ãĥ¼ãĤ¸
ãĤ¨ ãĥªãĤ¢
ãĤ¨ ãĤ¹ãĥĨ
ãĤ¨ ãĥķãĤ§
ãĤ¨ ãĥĥãĥģ
ãĤ¨ ãĥ©ãĥ¼
ãĤ¨ ãĥĥãĤ¸
ãĤ¨ ãĤ¤ãĤº
ãĤ¨ ãĥ¬ãĤ¯ãĥĪ
ãĤ¨ ãĥįãĥ«
ãĤ¨ ãĤ¤ãĥĨãĤ£ãĥĸ
ãĤ¨ ãĤ¯ãĤ¢ãĥī
ãĤ¨ ãĥ³ãĥĩãĤ£
ãĤ¨ ãĤ¸ãĥĹãĥĪ
ãĤ¨ ãĤŃãĤµãĤ¤ãĥĪ
ãĥĥãĤ¯ ãĥª
ãĥĥãĤ¯ ãĤ¢ãĥĥãĥĹ
ä¾ ¯
ä¾ Ĩ
ãģĽ ãģ¨
ãģĽ ãģ¤ãģĳãĤĭ
ãģĽ ãĤģãģ¦
ãģĽ ãģĹãĤģãĤĭ
ãĥ¡ ãĤ¹
ãĥ¡ ãĤ¿
ãĥ¡ ãĤ·
ãĥ¡ ãĤ«
ãĥ¡ ãĥĥãĥĪ
ãĥ¡ ãĤ½
ãĥ¡ ãĥ¼ãĤ¿ãĥ¼
ãĥ¡ ãĥ¼ãĤ¿
ãĥ¡ ãĥ³ãĥĲãĥ¼
ãĥ¡ ãĤ¸ãĥ£ãĥ¼
ãĥ¡ ãĥĪãĥŃ
ãĥ¡ ãĤ¤ãĥī
ãĥ¡ ãĥĥãĤ»
ãĥ¡ ãĤ¿ãĥ«
ãĥ¡ ãĥŃãĥ³
ãĥ¡ ãĥĭãĥ¥ãĥ¼
ãĥ¡ ãĤ¢ãĥªãĥ¼
ãĥ¡ ãĤ«ãĥĭ
ãĥ¡ ãĥŃãĥĩãĤ£
ãĥ¡ ãĤ¤ãĤ¯
ãĥ¡ ãĥĥãĤ»ãĥ³
ãĥ¡ ãĥ³ãĥĲ
ãĥ¡ ãĥŃãĥĩãĤ£ãĥ¼
ãĥ¡ ãĤŃãĤ·ãĤ³
æ² ĥ
æ² Į
æ² Ĵ
è¦ĭ ãģĪ
è¦ĭ ãģĪãĤĭ
è¦ĭ ãĤĮãĤĭ
è¦ĭ æľ¬
è¦ĭ åŃ¦
è¦ĭ åľ°
è¦ĭ çī©
è¦ĭ æĸ¹
è¦ĭ äºĭ
è¦ĭ å½ĵ
è¦ĭ éĢļ
è¦ĭ ãģĽãĤĭ
è¦ĭ æīĢ
è¦ĭ è¾¼ãĤĢ
è¦ĭ è§£
è¦ĭ åĩºãģĻ
è¦ĭ è¿Ķ
è¦ĭ èģŀ
è¦ĭ ä¸ĬãģĴãĤĭ
è¦ĭ èŃĺ
è¦ĭ ãģ¤ãģĳãĤĭ
è¦ĭ åĲĪãģĨ
è¦ĭ ãģĭãģĳ
è¦ĭ åĲĪãģĦ
è¦ĭ ãģĭãģĳãĤĭ
è¦ĭ è¾¼ãģ¿
è¦ĭ ãģªãģĻ
è¦ĭ åĩºãģĹ
è¦ĭ çŁ¥ãĤī
è¦ĭ çĽ´ãģĻ
è¦ĭ å½ĵãģŁãĤĭ
è¦ĭ çĽ´ãģĹ
è¦ĭ åıĹãģĳãĤĭ
è¦ĭ å¼µãĤĭ
è¦ĭ èĪŀãģĨ
è¦ĭ æ¸¡ãģĻ
è¦ĭ åĪĨãģĳãĤĭ
è¦ĭ åĽŀãģĻ
è¦ĭ æĬľãģı
è¦ĭ æį¨ãģ¦ãĤĭ
è¦ĭ ä¸ĭãĤįãģĻ
è¦ĭ éĢģãĤĭ
è¦ĭ å¤±ãģĨ
è¦ĭ æ¥µãĤģãĤĭ
è¦ĭ ç¿ĴãģĨ
è¦ĭ å®ĪãĤĭ
è¦ĭ èĪŀãģĦ
è¦ĭ éĢĥãģĻ
è¦ĭ æħ£ãĤĮãĤĭ
è¦ĭ æį®ãģĪãĤĭ
è¦ĭ èĲ½ãģ¨ãģĻ
è¦ĭ ãģĦãģłãģĻ
è¦ĭ ãģŁçĽ®
è¦ĭ ãģĽãģ¤ãģĳãĤĭ
é¡ ¯
ãģĺ ãĤĵ
ãģĺ ãģ¿
ãģĺ ãģ£ãģ¨
ãģĺ ãĤħ
ãģĺ ãģ£ãģıãĤĬ
ãģĺ ãĤħãģĨ
ãģĺ è¾¼ãĤģãĤĭ
ãģĺ ãģ¤ãģ¯
ãĥĳ ãĥ«
ãĥĳ ãĥª
ãĥĳ ãĥģ
ãĥĳ ãĥĥãĤ¯
ãĥĳ ãĥĳ
ãĥĳ ãĥĸ
ãĥĳ ãĥĥãĥĪ
ãĥĳ ãĤº
ãĥĳ ãĤ¬
ãĥĳ ãĥ¯
ãĥĳ ãĥ³ãĥī
ãĥĳ ãĤ½
ãĥĳ ãĥ¼ãĤ¹
ãĥĳ ãĥ¼ãĤ¯
ãĥĳ ãĤ¹ãĤ¿
ãĥĳ ãĥĥãĥī
ãĥĳ ãĥ³ãĤ¯
ãĥĳ ãĥĥãĥģ
ãĥĳ ãĥ¼ãĥŀ
ãĥĳ ãĥ³ãĥģ
ãĥĳ ãĤ±ãĥĥãĥĪ
ãĥĳ ãĥ¬ãĤ¹
ãĥĳ ãĥ³ãĥĢ
ãĥĳ ãĥ¼ãĥĦ
ãĥĳ ãĥĭãĥĥãĤ¯
ãĥĳ ãĤ¿ãĥ¼ãĥ³
ãĥĳ ãĥ©ãĥĢ
ãĥĳ ãĥģãĥ³
ãĥĳ ãĥĸãĥª
ãĥĳ ãĥ³ãĥĦ
ãĥĳ ãĥįãĥ«
ãĥĳ ãĥ¬ãĥ¼ãĥī
ãĥĳ ãĥŃãĥĩãĤ£
ãĥĳ ãĤ¦ãĥŃ
ãĥĳ ãĥķãĤ©ãĥ¼ãĥŀ
ãĥĳ ãĥ¼ãĥķãĤ§
ãĥĳ ãĤŃãĤ¹ãĤ¿ãĥ³
èĢ Į
èĢ Ĵ
ãģł ãĤĬ
ãģł ãģĹ
ãģł ãĤĮ
ãģł ãĤģ
ãģł ãģ¡
ãģł ãģĳãĤĭ
ãģł ãģĮ
ãģł ãģ£ãģ¦
ãģł ãĤĵãģª
ãģł ãģŃãĤĭ
ãģł ãģ¾ãģĻ
ãģł ãģĭãĤĵ
ãģł ãĤĭãģĦ
éļ ¨
éļ ª
éļ ±
éļ ¶
éļ ¹
éļ ¼
éļ Ī
ãĥĭ ãĤª
ãĥĭ ãĤ»
ãĥĭ ãĥ¼ãĥ«
ãĥĭ ãĤªãĥ³
ãĥĭ ãĥ¼ãĤº
ãĥĭ ãĤ«ãĥ«
ãĥĭ ãĤ¨ãĥ«
ãĥĭ ãĤ¹ãĤ¿ãĥ³
ãĥĭ ãĥķãĥĨãĤ£
ãĥĭ ãĥ³ãĥĭãĤ¯
æĭ Ĥ
æĭ Ķ
æĭ Ĺ
æĭ ľ
ãģĹãģĦ ãĤĭ
è¡Į ãģĨ
è¡Į ãģı
è¡Į ãģĪãĤĭ
è¡Į ãģĳãĤĭ
è¡Į æľ¬
è¡Į æĸ¹
è¡Į äºĭ
è¡Į åĭķ
è¡Į éĢ²
è¡Į ä½¿
è¡Į æĶ¿
è¡Į ç¨ĭ
è¡Į åĪĹ
è¡Į ãģªãģĨ
è¡Į åĦĢ
è¡Į çĤº
è¡Į éĮ¯
è¡Į è²¡æĶ¿
åİ ¶
åİ Ĥ
åİ ĺ
åİ ¨æĪ¿
ãģ¯ ãģĦ
ãģ¯ ãģĹ
ãģ¯ ãģĨ
ãģ¯ ãģı
ãģ¯ ãģ¤
ãģ¯ ãģŁ
ãģ¯ ãģ£
ãģ¯ ãģĤ
ãģ¯ ãĤĮãĤĭ
ãģ¯ ãģł
ãģ¯ ãģĲ
ãģ¯ ãģĭãĤĭ
ãģ¯ ãģŃãĤĭ
ãģ¯ ãģģ
ãģ¯ ãģĹãĤĥ
ãģ¯ ãģĦãĤĭ
ãģ¯ ãģ£ãģįãĤĬ
ãģ¯ ãĤĦãĤĭ
ãģ¯ ãģĬãĤĭ
ãģ¯ ãģŁãģĹãģ¦
ãģ¯ ãģĮãģį
ãģ¯ ãģķãĤĢ
ä¹ ĺ
ä¹ ĸéĽ¢
è« §
è« Ĵ
è« ľåł±
ãĥĸ ãĤĭ
ãĥĸ ãĥ¼
ãĥĸ ãĤ¹
ãĥĸ ãĤ¿
ãĥĸ ãĥ¼ãĥł
ãĥĸ ãĥ¼ãĤ¹
ãĥĸ ãĥ¬ãĥ¼
ãĥĸ ãĥŃãĥ¼
ãĥĸ ãĥ©ãĥ³ãĥī
ãĥĸ ãĥĥãĤ·ãĥ¥
ãĥĸ ãĥ¼ãĥĦ
ãĥĸ ãĥŃãĥĥãĤ¯
ãĥĸ ãĥŃãĥ¼ãĥī
ãĥĸ ãĥīãĤ¦
ãĥ£ ãĥ«
ãĥ£ ãĤ¤ãĤº
ãĥ£ ãĥ³ãĥŀ
ãĥĬ ãĥ³
ãĥĬ ãĤ¿
ãĥĬ ãĤ·
ãĥĬ ãĥŀ
ãĥĬ ãĤ¦
ãĥĬ ãĤ·ãĥ§
ãĥĬ ãĥĻ
ãĥĬ ãĥĿ
ãĥĬ ãĥİ
ãĥĬ ãĥ¼ãĤ¹
ãĥĬ ãĤ¤ãĤ¹
ãĥĬ ãĥĸãĥ«
ãĥĬ ãĥ³ãĥĳ
ãĥĬ ãĥªãĤºãĥł
ãĥĬ ãĥ¬ãĥ¼ãĤ·ãĥ§ãĥ³
ãĥĬ ãĥ³ãĤ»
ãĥĬ ãĥģãĥ¥
ãĥĬ ãĥŁãĥĥãĤ¯
ãĥĬ ãĤ·ãĥ§ãĥĬãĥ«
ãĥĬ ãĥģãĤ¹
æ°Ĺ åĲĪ
æ°Ĺ åĪĨ
æ°Ĺ åĬĽ
æ°Ĺ è³ª
æ°Ĺ éħį
æ°Ĺ æĮģ
æ°Ĺ æ¥½
æ°Ĺ ãģªãģĦ
æ°Ĺ åľ§
æ°Ĺ æ¸©
æ°Ĺ è»½
æ°Ĺ åıĸãĤĭ
æ°Ĺ åĲĪãģĦ
æ°Ĺ åĢĻ
æ°Ĺ ãģ¥ãģı
æ°Ĺ ãģ¾ãģ¾
æ°Ĺ ä»ĺãģı
æ°Ĺ ãģ¾ãģĲãĤĮ
æ°Ĺ ãģ®æ¯Ĵ
åľ° çĲĨ
åľ° åĲį
åľ° éĿ¢
åľ° ä¸»
åľ° éģĵ
åľ° çĤ¹
åľ° åĳ³
åľ° è³ª
åľ° ä½į
åľ° æ¤ľ
åľ° åħĥ
åľ° ä¾¡
åľ° å½¢
åľ° è£ģ
åľ° åĽ³
åľ° å¸¯
åľ° èĶµ
åľ° åĮº
åľ° çĲĥ
åľ° åŁŁ
åľ° çĽ¤
åľ° éľĩ
åľ° éĽ·
åľ° çįĦ
åľ° ä¸Ńæµ·
æ± ²ãĤĢ
ãĥĩ ãĥ¼
ãĥĩ ãĤ«
ãĥĩ ãĥĸ
ãĥĩ ãĥł
ãĥĩ ãĥŁ
ãĥĩ ãĥ¢
ãĥĩ ãĥªãĥ¼
ãĥĩ ãĥķãĤ©
ãĥĩ ãĥĥãĥī
ãĥĩ ãĤ¹ãĤ¯
ãĥĩ ãĥ¥ãĥ¼
ãĥĩ ãĥķãĥ¬
ãĥĩ ãĥĳãĥ¼ãĥĪ
ãĥĩ ãĥĵãĥ¥ãĥ¼
ãĥĩ ãĥĥãĤŃ
ãĥĩ ãĥ³ãĥŀ
ãĥĩ ãĥĲãĤ¤ãĤ¹
ãĥĩ ãĥ¡ãĥªãĥĥãĥĪ
ãĥĩ ãĤ¤ãĥªãĥ¼
ãĥĩ ãĤ¸ãĤ¿ãĥ«
ãĥł ãĥĥ
ãĥł ãĥª
ãĥł ãĥ©
ãĥł ãĥĢ
ãĥł ãĥ¼ãĥī
ãĥł ãĥ¼ãĥ³
ãĥł ãĥ¼ãĥĵ
ãĥł ãĥ¼ãĤ¢
ãĥł ãĤ·ãĤĭ
ãĥĥãĥĪ ãĥ¼
ãĥĥãĥĪ ãĥķãĤ©ãĥ¼ãĥł
åŃĲ èĤ²
åŃĲ å®®
åŃĲ åľĴ
åŃĲ ä¾Ľ
åŃĲ ãģ©ãĤĤ
åŃĲ çĬ¬
åŃĲ ä¼ļç¤¾
åŃĲ åŃ«
æĥ ¡
æĥ °
æĥ ±
æĥ ł
æĥ ¹ãģı
ãĤ» ãĤ¤
ãĤ» ãĥ³ãĤ¿
ãĤ» ãĥ¼ãĥĸ
ãĤ» ãĥĥãĤ¯ãĤ¹
ãĤ» ãĥ³ãĥģ
ãĤ» ãĥ©ãĥ¼
ãĤ» ãĥ¼ãĤ¿ãĥ¼
ãĤ» ãĤ¯ãĤ·ãĥ§ãĥ³
ãĤ» ãĥ¼ãĥķ
ãĤ» ãĥ¡ãĥ³ãĥĪ
ãĤ» ãĤ¯ãĤ¿ãĥ¼
ãĤ» ãĥĥãĤ·ãĥ§ãĥ³
ãĤ» ãĥĥãĤµ
ãĤ» ãĥ¬ãĤ¯ãĥĪ
ãĤ» ãĥĹãĥĪ
ãĤ» ãĤ¯ãĤ·ãĥ¼
ãĤ» ãĥĸãĥ³
ãĤ» ãĥĥãĥĨãĤ£ãĥ³ãĤ°
ãĤ» ãĥªãĥķ
ãĤ» ãĤ¯ãĥıãĥ©
ãĤ» ãĥ©ãĥĶãĥ¼
ãĤ» ãĤ«ãĥ³ãĥī
ãĤ» ãĥŃãĥĬ
ãĤ» ãĤµãĥªãĥ¼
çĶ° ä¸Ń
çĶ° åİŁ
çĶ° åı£
çĶ° æĿĳ
çĶ° åľĴ
çĶ° è°·
çĶ° æ¤į
çĶ° èĪİ
çĶ° ãĤĵãģ¼
çĲ īçĲĥ
å®ļ ãģĭ
å®ļ ãĤģ
å®ļ ãĤģãĤĭ
å®ļ å¹´
å®ļ çĲĨ
å®ļ æķ°
å®ļ æĻĤ
å®ļ ãģ¾ãĤĭ
å®ļ çĿĢ
å®ļ é£Ł
å®ļ åĵ¡
å®ļ éĩı
å®ļ ä¾¡
å®ļ ä¾ĭ
å®ļ ç¾©
å®ļ ä½ı
å®ļ ä¼ĳ
å®ļ çķª
å®ļ é¡į
å®ļ åŀĭ
å®ļ æ¬¾
åħ¥ æīĭ
åħ¥ åŃ¦
åħ¥ åĽ½
åħ¥ ä¼ļ
åħ¥ åĬĽ
åħ¥ æīĢ
åħ¥ åł´
åħ¥ ç¤¾
åħ¥ åı£
åħ¥ è¦³
åħ¥ éĻ¢
åħ¥ è©¦
åħ¥ å±ħ
åħ¥ è³ŀ
åħ¥ ãĤĬè¾¼ãĤĢ
åħ¥ æ¤į
åħ¥ éĸĢ
åħ¥ æµ´
åħ¥ æľŃ
åħ¥ èį·
åĢ ¹
åĢ Ĥ
åĢ ¶æ¥½
ç© ©
ç© Ĺ
èĪ ·
èĪ ĩ
èĪ Ĭ
èĪ į
èĪ ĲãĤģãĤĭ
ãģĴ ãģĭãģĳãĤĭ
æı Ĵ
æı Ń
æı ¶æı
èģ ¡
èģ ²
èģ ½
èģ ¿
ä¸į å½ĵ
ä¸į æĺİ
ä¸į æĦı
ä¸į æ³ķ
ä¸į æŃ£
ä¸į æĢĿ
ä¸į åħ¨
ä¸į è¦ģ
ä¸į èª¿
ä¸į ä¿¡
ä¸į åľ¨
ä¸į å¤ī
ä¸į èĥ½
ä¸į éģĭ
ä¸į åķı
ä¸į æĮ¯
ä¸į æºĢ
ä¸į åĤĻ
ä¸į èī¯
ä¸į å¿«
ä¸į æľį
ä¸į ä¾¿
ä¸į æĿ¡
ä¸į å¯©
ä¸į å¹¸
ä¸į æ¯Ľ
ä¸į æ³ģ
ä¸į å°½
ä¸į ç¥¥
ä¸į åĢ«
ä¸į èĩªçĦ¶
ä¸į æ©Łå«Į
ä¸į åĲĪçĲĨ
ä¸į åĲĪæł¼
ä¸į æ°Ĺåĳ³
ä¸į å®ļæľŁ
ä¸į èĩªçĶ±
ä¸į åħ¬å¹³
ä¸į å¹³çŃī
ä¸į çī¹å®ļ
ä¸į èµ·è¨´
ä¸į éĥ½åĲĪ
ä¸į éģ©åĪĩ
ä¸į å¿ħè¦ģ
ä¸į åĻ¨çĶ¨
ä¸į åħ·åĲĪ
ä¸į å®Įåħ¨
ä¸į åįģåĪĨ
ä¸į æĻ¯æ°Ĺ
ä¸į éĢıæĺİ
ä¸į æĦīå¿«
æ¨ £
æ¨ Ĥ
æ¨ ĵ
æ¨ ŀ
æ¨ ĭåı£
ç¤ ģ
ç¥ Ĳ
ç¥ ķ
ç¥ ĢãĤĭ
éħ ª
éħ ī
éħ Į
ãĥŁ ãĥª
ãĥŁ ãĥĬ
ãĥŁ ãĥªãĥ¼
ãĥŁ ãĥį
ãĥŁ ãĤ½
ãĥŁ ãĤ¹ãĥĨ
ãĥŁ ãĥĥãĤ¯ãĤ¹
ãĥŁ ãĥ©ãĥ¼
ãĥŁ ãĤ¯ãĥŃ
ãĥŁ ãĤ¹ãĤ¿ãĥ¼
ãĥŁ ãĤ·ãĥ³
ãĥŁ ãĥĥãĤ·ãĥ§ãĥ³
ãĥŁ ãĥīãĥ«
ãĥŁ ãĥ¼ãĥĨãĤ£ãĥ³ãĤ°
ãĥŁ ãĤ·ãĤ§ãĥ«
ãĥŁ ãĥ©ãĥİ
ãĥŁ ãĥ¬ãĥĭãĤ¢
ãĥŁ ãĥ£ãĥ³ãĥŀ
å¹´ ä¸Ĭ
å¹´ çĶŁ
å¹´ ä¸Ń
å¹´ ä¸ĭ
å¹´ éķ·
å¹´ ä¼ļ
å¹´ åĨħ
å¹´ ãĢħ
å¹´ éĸĵ
å¹´ éĩĳ
å¹´ æķ°
å¹´ æĿ¥
å¹´ ä»£
å¹´ éħį
å¹´ åıİ
å¹´ æ¬¡
å¹´ å§ĭ
å¹´ éłĥ
å¹´ è³Ģ
å¹´ çīĪ
å¹´ æĺİãģĳ
å¹´ é½¢
å¹´ å¯ĦãĤĬ
åĵ º
ä¸ĭ ãĤĭ
ä¸ĭ ãģĻ
ä¸ĭ æīĭ
ä¸ĭ åľ°
ä¸ĭ æĸ¹
ä¸ĭ éĥ¨
ä¸ĭ çĿĢ
ä¸ĭ è¨ĺ
ä¸ĭ è»Ĭ
ä¸ĭ åĵģ
ä¸ĭ èĲ½
ä¸ĭ æµģ
ä¸ĭ éĻ¢
ä¸ĭ åĮĹ
ä¸ĭ ãģĮãĤĭ
ä¸ĭ å®¿
ä¸ĭ çĶº
ä¸ĭ ãĤĬãĤĭ
ä¸ĭ éĻį
ä¸ĭ åĽŀãĤĭ
ä¸ĭ æĹ¬
ä¸ĭ ãģķãĤĭ
ä¸ĭ çĹ¢
ä¸ĭ åįĬèº«
çī© äºĭ
çī© ä½ĵ
çī© çĲĨ
çī© è³ª
çī© åĵģ
çī© æµģ
çī© èī²
çī© è¶³
çī© ä¾¡
çī© é¤¨
çī© è³ĩ
çī© ä»¶
çī© åĩĦãģĦ
æ® ³
æ® ´
æ® ¼
æ® ī
æ® ĺ
æ® ´ãĤĭ
æ® Ĩãģ©
ãĥ¼ãĥĪ ãĥ³
åĪĨ ãĤĭ
åĪĨ ãģ®
åĪĨ åŃĲ
åĪĨ éĸĵ
åĪĨ æ¥Ń
åĪĨ éĩİ
åĪĨ è§£
åĪĨ æĸŃ
åĪĨ åĮĸ
åĪĨ åĪ¥
åĪĨ éħį
åĪĨ éĩı
åĪĨ ãģĭãĤĭ
åĪĨ éĽ¢
åĪĨ åī²
åĪĨ æ¨©
åĪĨ ç§ĳ
åĪĨ æķ£
åĪĨ å¸ĥ
åĪĨ é¡ŀ
åĪĨ æĭħ
åĪĨ èŃ²
åĪĨ å²Ĳ
åĪĨ ãģĭãģ¤
åĪĨ è£Ĥ
åĪĨ æŀĲ
åĪĨ ãģĭãĤĮãĤĭ
åĪĨ æ³Į
åĪĨ åİļãģĦ
æĸ¹ ãĢħ
æĸ¹ éĿ¢
æĸ¹ è¨Ģ
æĸ¹ æ³ķ
æĸ¹ ä½į
æĸ¹ å¼ı
æĸ¹ ç¨ĭ
æĸ¹ çŃĸ
æĸ¹ éĩĿ
æĸ¹ ãĥ¡ãĥ¼ãĥĪãĥ«
åıĸ çµĦ
åıĸ å¾Ĺ
åıĸ æ¶Ī
åıĸ æĿĲ
åıĸ æī±
åıĸ çµĦãĤĢ
åıĸ æī±ãģĦ
ç«ĭ åľ°
ç«ĭ ä½ĵ
ç«ĭ æ³ķ
ç«ĭ åł´
ç«ĭ å·Ŀ
ç«ĭ æ¡Ī
ç«ĭ è¨¼
ç«ĭ èĬ±
ç«ĭ æ´¾
ç«ĭ åĢĻè£ľ
éķ· ãģĦ
éķ· å¹´
éķ· ãĢħ
éķ· æĸĩ
éķ· æīĢ
éķ· éĩİ
éķ· èª¿
éķ· å¥³
éķ· å®ĺ
éķ· ç·¨
éķ· å²¡
éķ· çĶ·
éķ· çĶŁãģį
éķ· å´İ
éķ· èĢģ
éķ· ãĤīãģı
éķ· å¯¿
éķ· æĻĤéĸĵ
éķ· ç¶ļãģį
éķ· å¼ķãģı
éķ· è·ĿéĽ¢
éķ· è°·å·Ŀ
æ´ ©
æ´ ²
ãĥ¥ ãĥ¬ãĥ¼ãĤ·ãĥ§ãĥ³
ãĥ¥ ãĥ¼ãĥŀãĥ³
åĤ ³
ãĥĢ ãĥ¡
ãĥĢ ãĥ©ãĤ¤
ãĥĢ ãĥ¼ãĤ¹
ãĥĢ ãĥ³ãĤ¹
ãĥĢ ãĥ¼ãĤ¯
ãĥĢ ãĥ¤
ãĥĢ ãĥĥãĥī
ãĥĢ ãĥĸãĥ«
ãĥĢ ãĥĥãĤ·ãĥ¥
ãĥĢ ãĥ©ãĥĢ
ãĥĢ ãĥ³ãĥĬ
ãĥĢ ãĥ³ãĥľ
ãĥĢ ãĥ¡ãĥ¼ãĤ¸
ãĥĢ ãĥĭãĤ¨ãĥ«
ãĥĢ ãĥĸãĤĭ
ãĥı ãĥ¼
ãĥı ãĥĪ
ãĥı ãĥ«
ãĥı ãĥģ
ãĥı ãĥĸ
ãĥı ãĥĬ
ãĥı ãĥł
ãĥı ãĥ¼ãĥĪ
ãĥı ãĤº
ãĥı ãĥªãĥ¼
ãĥı ãĥį
ãĥı ãĤ¶
ãĥı ãĤ²
ãĥı ãĥ¼ãĥĸ
ãĥı ãĥªãĤ¹
ãĥı ãĥ¼ãĥķ
ãĥı ãĥĥãĤ«ãĥ¼
ãĥı ãĥ³ãĤ°ãĥ«
ãĥı ãĥ¯ãĥ¼ãĥī
ãĥı ãĥ¼ãĥ¢
ãĥı ãĤ¬ãĤŃ
ãĥı ãĥĥãĤŃãĥª
ãĥı ãĥŀãĤĭ
ä¼ļ ãģĪãĤĭ
ä¼ļ åĲĪ
ä¼ļ è¦ĭ
ä¼ļ éķ·
ä¼ļ åł´
ä¼ļ æľŁ
ä¼ļ é£Ł
ä¼ļ èŃ°
ä¼ļ åĵ¡
ä¼ļ åł±
ä¼ļ é¤¨
ä¼ļ è«ĩ
ä¼ļ è²»
ä¼ļ æ´¾
åģ ĩ
æ¬ Ĭ
æ¯ ħ
æ¯ Ĩ
æ¯ ĭ
æ¯ ı
äºĭ çī©
äºĭ åīį
äºĭ å®Ł
äºĭ å¾Į
äºĭ èĢħ
äºĭ æĥħ
äºĭ ä¾ĭ
äºĭ æ¡Ī
äºĭ å®ĺ
äºĭ ä»¶
äºĭ æħĭ
äºĭ è±¡
äºĭ åħ¸
äºĭ æķħ
äºĭ çĶ±
äºĭ æŁĦ
äºĭ éłħ
ãģ§ ãģı
ãģ§ ãģĭãģĦ
ãģ§ ãģĭãģĳãĤĭ
ãģ§ ãģ£ãģĭãģĦ
çĤ Ĭ
çĤ Ĭãģı
çĤ ¸è£Ĥ
çĤ ĴãĤģãĤĭ
çŃ Ī
è§ ¸
è§ Ģ
èĤ ¡
èĤ ħ
èĤ ĩ
åĭķ ãģı
åĭķ ãģį
åĭķ ãģĳãĤĭ
åĭķ çī©
åĭķ ä½ľ
åĭķ çļĦ
åĭķ æ©Ł
åĭķ åĲĳ
åĭķ åĵ¡
åĭķ çĶ»
åĭķ ãģĭãģĻ
åĭķ è©ŀ
åĭķ æıº
åĭķ èĦĪ
åĭķ ãģįåĩºãģĻ
åĭķ ãģįåĽŀãĤĭ
çĻº ãģĻ
çĻº çĶŁ
çĻº è¦ĭ
çĻº è¡Į
çĻº åĭķ
çĻº æĺİ
çĻº è¨Ģ
çĻº ä½ľ
çĻº å£²
çĻº éĽ»
çĻº éĢ²
çĻº ä¿¡
çĻº éŁ³
çĻº æĥ³
çĻº è¶³
çĻº éĢģ
çĻº ãģĻãĤĭ
çĻº è¡¨
çĻº éģĶ
çĻº ç«¯
çĻº è¦ļ
çĻº çĹħ
çĻº æ³¨
çĻº çĨ±
çĻº åĪĬ
çĻº å°Ħ
çĻº æķ£
çĻº åħī
çĻº å±ķ
çĻº çĹĩ
çĻº æİĺ
çĻº ç¥¥
çĻº æı®
çĻº éħµ
çĻº çł²
ç¾ ŀ
ä½ĵ åĨħ
ä½ĵ åĬĽ
ä½ĵ æĦŁ
ä½ĵ éĩį
ä½ĵ èª¿
ä½ĵ è³ª
ä½ĵ æł¼
ä½ĵ çı¾
ä½ĵ åĪ¶
ä½ĵ è£ģ
ä½ĵ æ¸©
ä½ĵ åŀĭ
ä½ĵ ç³»
ä½ĵ é¨ĵ
ä½ĵ æĵį
èĩª ãĤī
èĩª åĽ½
èĩª ç«ĭ
èĩª çĻº
èĩª ä½ĵ
èĩª åĬĽ
èĩª åīį
èĩª æĺİ
èĩª ä¸»
èĩª ä½ľ
èĩª ç¤¾
èĩª æ°ĳ
èĩª ä¿¡
èĩª åľ¨
èĩª æ±º
èĩª èº«
èĩª ä¼Ŀ
èĩª è»¢
èĩª çĻ½
èĩª çµ¦
èĩª è¦ļ
èĩª è²ł
èĩª ç§°
èĩª æ®º
èĩª éĸī
èĩª å®ħ
èĩª æĪĳ
èĩª çĪĨ
èĩª å¾ĭ
èĩª æħ¢
èĩª èĻĲ
èĩª å·±
èĩª æ°ĳåħļ
èĩª ç²Ľ
èĩª åĸ¶æ¥Ń
æĤ ¦
ãĤº ãĥ¬
ãĤº ãĥŀ
ãĤº ãĥŁ
ãĤº ãĥ¼ãĥł
ãĤº ãĥĲãĥª
ãĤº ãĥľãĥ³
ãĤ¹ãĥĪ ãĥ³
ãĤ¹ãĥĪ ãĤ¢
ãĤ¹ãĥĪ ãĥĥãĤ¯
ãĤ¹ãĥĪ ãĥ¼ãĥ«
ãĤ¹ãĥĪ ãĥ©ãĤ¤
ãĤ¹ãĥĪ ãĥĥãĥĹ
ãĤ¹ãĥĪ ãĥªãĤ¢
ãĤ¹ãĥĪ ãĥ¼ãĥ³
ãĤ¹ãĥĪ ãĥ¼ãĥĸ
ãĤ¹ãĥĪ ãĥ¬ãĤ¹
ãĤ¹ãĥĪ ãĥ¬ãĥ¼ãĥĪ
ãĤ¹ãĥĪ ãĥªãĥ¼ãĥĪ
ãĤ¹ãĥĪ ãĥ¬ãĥ¼ãĤ¸
ãĤ¹ãĥĪ ãĥ¼ãĥªãĥ¼
ãĤ¹ãĥĪ ãĥªãĥ¼ãĥł
ãĤ¹ãĥĪ ãĥ¬ãĥĥãĥģ
åĨħ çĶ°
åĨħ å®ļ
åĨħ éĥ¨
åĨħ éĿ¢
åĨħ å¤ĸ
åĨħ å¿ĥ
åĨħ æĪ¦
åĨħ çļĦ
åĨħ èģ·
åĨħ èĹ¤
åĨħ æĶ¿
åĨħ å®¹
åĨħ ç§ĳ
åĨħ è£ħ
åĨħ åģ´
åĨħ è¨³
åĨħ èĶµ
åĨħ éĻ¸
åĨħ èĩĵ
åĨħ ç·Ĵ
åĨħ éľĢ
åĨħ éĸ£
æº ª
æº «
æº ¢ãĤĮãĤĭ
ç¶ ¾
ç¶ ĵ
ç¶ ł
ç¶ ´ãĤĭ
ç¶ ºéºĹ
æľĪ æĹ¥
æľĪ éĸĵ
æľĪ åĪ¥
æľĪ åıİ
æľĪ æľ«
æľĪ çµ¦
æľĪ æĽľ
æľĪ é¡į
æľĪ åĪĬ
æľĪ æĽľæĹ¥
éĥ¨ ä¸ĭ
éĥ¨ åĪĨ
éĥ¨ éķ·
éĥ¨ ä¼ļ
éĥ¨ æķ°
éĥ¨ åĵģ
éĥ¨ èĲ½
éĥ¨ åĵ¡
éĥ¨ ä½į
éĥ¨ æ´»
éĥ¨ æĹı
éĥ¨ é¡ŀ
éĥ¨ å±Ģ
éĥ¨ éļĬ
éĥ¨ éĸĢ
éĥ¨ ç½²
çĲĨ åŃ¦
çĲĨ äºĭ
çĲĨ è§£
çĲĨ æĢ§
çĲĨ è«ĸ
çĲĨ æĥ³
çĲĨ å£«
çĲĨ ç§ĳ
çĲĨ å¿µ
çĲĨ ç³»
çĲĨ çĶ±
çĲĨ å±Ī
çĲĨ ä¸įå°½
èī ®
èī ·
èī ¸
ãĤĪ ãĤĭ
ãĤĪ ãĥ¼
ãĤĪ ãģĹ
ãĤĪ ãĤĢ
ãĤĪ ãģĿ
ãĤĪ ãģ¶
ãĤĪ ãģŃ
ãĤĪ ãģ£ãģ¦
ãĤĪ ãģ»ãģ©
ãĤĪ ãģİãĤĭ
ãĤĪ ãģ£ãģ½
ãĤĪ ãģĳãģĦ
ãĤĪ ãģ¿ãģĮ
çĶ¨ åľ°
çĶ¨ äºĭ
çĶ¨ æĦı
çĶ¨ å¿ĥ
çĶ¨ æ³ķ
çĶ¨ èªŀ
çĶ¨ è»Ĭ
çĶ¨ åĵģ
çĶ¨ åħ·
çĶ¨ ç´Ļ
çĶ¨ éĢĶ
çĶ¨ ãģĦãĤĭ
å½ĵ ãĤĭ
å½ĵ äºº
å½ĵ æĹ¥
å½ĵ ãģ®
å½ĵ åľ°
å½ĵ åĪĨ
å½ĵ æĸ¹
å½ĵ éĿ¢
å½ĵ æĻĤ
å½ĵ ç¤¾
å½ĵ çĦ¶
å½ĵ éģ¸
å½ĵ åĪĿ
å½ĵ åºĹ
å½ĵ çķª
å½ĵ åº§
å½ĵ å±Ģ
å½ĵ è©²
å½ĵ äºĭèĢħ
ãĤ·ãĥ§ ãĥ¼
ãĤ·ãĥ§ ãĤ¦
ãĤ·ãĥ§ ãĥĥãĤ¯
ãĤ·ãĥ§ ãĥĥãĥĪ
ãĤ·ãĥ§ ãĥĳãĥ³
ãĤ·ãĥ§ ãĥĥãĥĶ
é« ®
é« Ħ
é« ĵ
é« Ķ
é« Ł
æĸ° ãģŁ
æĸ° äºº
æĸ° çĶŁ
æĸ° ãģĹãģĦ
æĸ° çĶ°
æĸ° å¹´
æĸ° æĽ¸
æĸ° ä½ľ
æĸ° çĿĢ
æĸ° è»Ĭ
æĸ° åĵģ
æĸ° äºķ
æĸ° è¨Ń
æĸ° ç´Ħ
æĸ° è£ħ
æĸ° æĽ²
æĸ° è¦ı
æĸ° éĥİ
æĸ° èĸ¬
æĸ° åĪĬ
æĸ° åŀĭ
æĸ° å®¿
æĸ° èĪĪ
æĸ° å©ļ
æĸ° ç¯ī
æĸ° æłª
æĸ° æ©ĭ
æĸ° å©¦
æĸ° é®®
æĸ° åįĴ
æĸ° æ½Ł
æĸ° å¹¹ç·ļ
éĢļ ãĤĭ
éĢļ ãģĻ
éĢļ ãģĨ
éĢļ ãĤĮãĤĭ
éĢļ åŃ¦
éĢļ è¡Į
éĢļ çĶ¨
éĢļ çŁ¥
éĢļ éģİ
éĢļ è©±
éĢļ éĻ¢
éĢļ ãģĺãĤĭ
éĢļ å¸¸
éĢļ åĳĬ
éĢļ åł±
éĢļ è·¯
éĢļ éģĶ
éĢļ ç§°
éĢļ åķĨ
éĢļ ç®Ĺ
éĢļ è¨³
éĢļ åĭ¤
éĢļ è²¨
éĢļ è²©
åĬĽ åŃ¦
åĬĽ éĩı
åĬĽ å£«
åĬĽ å¼·ãģĦ
åĬĽ ä¸įè¶³
ãĢħ ãģ«
ãĢħ æľ¨
çĦ¡ ãģĦ
çĦ¡ äºº
çĦ¡ äºĭ
çĦ¡ çĶ¨
çĦ¡ åĬĽ
çĦ¡ åĲį
çĦ¡ è¨Ģ
çĦ¡ æķ°
çĦ¡ çŁ¥
çĦ¡ æĸŃ
çĦ¡ è«ĸ
çĦ¡ ç·ļ
çĦ¡ æĸĻ
çĦ¡ èĥ½
çĦ¡ èģ·
çĦ¡ é¡Į
çĦ¡ éĻĲ
çĦ¡ è¦ĸ
çĦ¡ éĽ£
çĦ¡ å¿µ
çĦ¡ åĬ¹
çĦ¡ èĮ¶
çĦ¡ åĦŁ
çĦ¡ ç½ª
çĦ¡ ç¸ģ
çĦ¡ éĤª
çĦ¡ è¬Ģ
çĦ¡ ãģıãģĻ
çĦ¡ æ²Ļ
çĦ¡ æĦıåĳ³
çĦ¡ éĸ¢å¿ĥ
çĦ¡ ãģıãģªãĤĭ
çĦ¡ æĦıèŃĺ
çĦ¡ éĸ¢ä¿Ĥ
çĦ¡ åĪ¶éĻĲ
çĦ¡ åŀ¢
çĦ¡ å·®åĪ¥
çĦ¡ æĿ¡ä»¶
çĦ¡ è²¬ä»»
æģ Ĩ
æģ Ń
æħ Ħ
æħ ĺ
ãģ³ ãĤī
ãģ³ ãĤĵ
ãģ³ ãģĽãĤĭ
ãģ³ ãģ£ãģıãĤĬ
ãģ³ ä¸ĬãģĮãĤĭ
ãĥĵ ãĤĭ
ãĥĵ ãĤ¹
ãĥĵ ãĥ«
ãĥĵ ãĥª
ãĥĵ ãĥ©
ãĥĵ ãĥĥãĥĪ
ãĥĵ ãĥ¼ãĥ«
ãĥĵ ãĥ¼ãĥĪ
ãĥĵ ãĥªãĥ¼
ãĥĵ ãĥ¼ãĥł
ãĥĵ ãĤ¶
ãĥĵ ãĥ¼ãĤº
ãĥĵ ãĥ¼ãĥģ
ãĥĵ ãĥ¼ãĥĪãĥ«
ãĥĵ ãĥĥãĤ°
ãĥĵ ãĥĩãĤª
ãĥĵ ãĤ¸ãĥ¥ãĤ¢ãĥ«
ãĥĵ ãĤ¿ãĥŁãĥ³
ãĥĵ ãĤ¨ãĥĪ
ãĥĵ ãĥĥãĤ¯ãĥª
ãĥĵ ãĥĭãĥ¼ãĥ«
ãĥĵ ãĥĵãĤĭ
åīį æĹ¥
åīį çĶ°
åīį å¹´
åīį æĸ¹
åīį ãĢħ
åīį éĿ¢
åīį å¾Į
åīį ä½ľ
åīį åĽŀ
åīį åİŁ
åīį æľŁ
åīį èĢħ
åīį è¨ĺ
åīį éĢ²
åīį èº«
åīį åįĬ
åīį ä¾ĭ
åīį ç·¨
åīį å¤ľ
åīį è¡Ľ
åīį è¿°
åīį éłħ
åīį å¹´åº¦
åīį ãĤĤãģ£ãģ¦
åīį åĲĳãģį
åīį ç½®ãģį
ãģĲ ãģ£ãģ¨
ãģĲ ãĤīãģĦ
ãĥ¢ ãĥ¼
ãĥ¢ ãĤ¹
ãĥ¢ ãĥĪ
ãĥ¢ ãĥ«
ãĥ¢ ãĥª
ãĥ¢ ãĥģ
ãĥ¢ ãĥ¢
ãĥ¢ ãĥ¼ãĥī
ãĥ¢ ãĥ³ãĥī
ãĥ¢ ãĥ³ãĤ¹
ãĥ¢ ãĥ¼ãĤ·ãĥ§ãĥ³
ãĥ¢ ãĥ¼ãĤ¿ãĥ¼
ãĥ¢ ãĥ¼ãĥĦ
ãĥ¢ ãĥ©ãĥ«
ãĥ¢ ãĥĢãĥ³
ãĥ¢ ãĥ¼ãĥĭãĥ³ãĤ°
ãĥ¢ ãĥģãĥ¼ãĥķ
ãĥ¢ ãĥĩãĥ«
ãĥ¢ ãĤ¸ãĥ¥ãĥ¼ãĥ«
ãĥ¢ ãĥĲãĤ¤ãĥ«
ãĥ¢ ãĥĩãĥł
ãĥ¢ ãĥĥãĥĪãĥ¼
ãĤ¿ãĥ¼ ãĤ²
å°ı çĶŁ
å°ı çī©
å°ı å±±
å°ı éĩİ
å°ı å¹³
å°ı å£²
å°ı ç¬
å°ı å·Ŀ
å°ı å±ĭ
å°ı å³¶
å°ı æĿ¾
å°ı èª¬
å°ı æ²¢
å°ı åŀĭ
å°ı ãģķãģĦ
å°ı æŀĹ
å°ı æŁĦ
å°ı æ±ł
å°ı åĿĤ
å°ı é³¥
å°ı éĽ¨
å°ı å£²ãĤĬ
å°ı æ³ī
å°ı åĢī
å°ı éĬŃ
å°ı åŃ¦çĶŁ
å°ı åŃ¦æł¡
å°ı åĥ§
å°ı ä¸ŃåŃ¦æł¡
å°ı æ¨½
å°ı åĪĩæīĭ
å°ı éģĵåħ·
å°ı è¦ıæ¨¡
å°ı éģ£ãģĦ
å°ı åĨĬåŃĲ
å°ı ãģķãģª
çĹ º
çĹ ĺ
çĹ ĴãģĦ
ãĤį ãģĹãģĦ
ãĤį ãģĲ
ãĤį ãģıãģ«
å®Ł ãĤĭ
å®Ł ãģ«
å®Ł è¡Į
å®Ł ãģ¯
å®Ł åľ°
å®Ł çī©
å®Ł ä½ĵ
å®Ł çĶ¨
å®Ł åĬĽ
å®Ł åĲį
å®Ł æ¥Ń
å®Ł æĪ¦
å®Ł åĭĻ
å®Ł æĦŁ
å®Ł å®¶
å®Ł è³ª
å®Ł çı¾
å®Ł åľ¨
å®Ł è©±
å®Ł æĥħ
å®Ł ä¾ĭ
å®Ł æ¼Ķ
å®Ł è£ħ
å®Ł ç¿Ĵ
å®Ł è¨¼
å®Ł åĬ¹
å®Ł æħĭ
å®Ł æĬĢ
å®Ł é¨ĵ
å®Ł åĨĻ
å®Ł éļĽ
å®Ł æĸ½
å®Ł æ³ģ
å®Ł ç¸¾
å®Ł è·µ
éĸĵ è¿ĳ
éĸĵ åıĸãĤĬ
éĸĵ æİ¥
éĸĵ æĬľ
éĸĵ éļĽ
éĸĵ éļĶ
éĸĵ ãģ«ãģĭ
éĸĵ è¦ĭãĤĭ
éĸĵ ãĤĤãģªãģı
å» ¢
å» ³
å» ´
å» ¾
å» »ãĤĭ
åĸ ®
åĸ Ŀ
åĸ °ãģĨ
åĸ §åĺ
åĸ ĭãĤĭ
è¶ Ļ
ãģļ ãģı
ãģļ ãģ¤
ãģļ ãģ¿
ãģļ ãĤĮãĤĭ
ãģļ ãģ£ãģ¨
ãģļ ãĤīãģĻ
ãģļ ãĥ¼ãģ£ãģ¨
ãģļ ãģĦãģ¶ãĤĵ
æĽ¸ ãģı
æĽ¸ ãģĳãĤĭ
æĽ¸ çī©
æĽ¸ åĲį
æĽ¸ éĿ¢
æĽ¸ è¨ĺ
æĽ¸ å¼ı
æĽ¸ å£«
æĽ¸ è©ķ
æĽ¸ é¡ŀ
æĽ¸ æĪ¿
æĽ¸ ç±į
æĽ¸ ç°¡
æĽ¸ æĸİ
æ¼ ¸
æ¼ Ĩ
æ¼ ±çŁ³
æ¼ ķãģĲ
ãĥį ãĤ¿
ãĥį ãĤ¸
ãĥį ãĤ³
ãĥį ãĤª
ãĥį ãĥĥãĤ¯
ãĥį ãĤ¬
ãĥį ãĥĩãĤ£
ãĥį ãĤ®
ãĥį ãĥ¼ãĥĸ
ãĥį ãĥ¼ãĤ¿ãĥ¼
ãĥį ãĤ¹ãĤ³
ãĥį ãĤ·ãĤ¢
ãĥį ãĤ¤ãĥĨãĤ£ãĥĸ
ãĥį ãĥ¼ãĥŁ
ãĥį ãĥĳãĥ¼ãĥ«
ãĥį ãĤ¯ãĤ¿ãĤ¤
ãĥį ãĤºãĥŁ
ãĥĻ ãĥ³
ãĥĻ ãĤ¹
ãĥĻ ãĤ¤
ãĥĻ ãĥ©
ãĥĻ ãĤ¿
ãĥĻ ãĥ¼ãĥ«
ãĥĻ ãĥªãĥ¼
ãĥĻ ãĥĦ
ãĥĻ ãĥĥãĥī
ãĥĻ ãĤ¯ãĥĪ
ãĥĻ ãĥ¼ãĤ·ãĥ§ãĥ³
ãĥĻ ãĥ«ãĥĪ
ãĥĻ ãĥ¼ãĤ¿
ãĥĻ ãĥĵãĥ¼
ãĥĻ ãĥ©ãĥ³ãĥĢ
ãĥĻ ãĥ³ãĥĦ
ãĥĻ ãĤ¬ãĤ¹
ãĥĻ ãĥĪãĥĬ
ãĥĻ ãĥĨãĥ©ãĥ³
åĲĮ ä¸Ģ
åĲĮ æĹ¥
åĲĮ ä¸Ĭ
åĲĮ åĽ½
åĲĮ è¡Į
åĲĮ å¹´
åĲĮ æľĪ
åĲĮ æĦı
åĲĮ æĻĤ
åĲĮ ç¤¾
åĲĮ æľŁ
åĲĮ æĦŁ
åĲĮ çĤ¹
åĲĮ èª¿
åĲĮ åĴĮ
åĲĮ çĦ¶
åĲĮ æĥħ
åĲĮ æ§ĺ
åĲĮ ç¨®
åĲĮ å¸Ĥ
åĲĮ å£«
åĲĮ çŃī
åĲĮ å±ħ
åĲĮ å¸Ń
åĲĮ ç´ļ
åĲĮ å¿Ĺ
åĲĮ æ°ı
åĲĮ çĽŁ
åĲĮ åĥļ
åĲĮ çªĵ
åĲĮ èĥŀ
åĲį çī©
åĲį åīį
åĲį åº¦
åĲį è¨Ģ
åĲį çĽ®
åĲį æīĢ
åĲį ä½ľ
åĲį åı¤
åĲį ç¾©
åĲį æĽ²
åĲį ç§°
åĲį å£°
åĲį ä»ĺãģĳãĤĭ
åĲį åĪº
åĲį éĸĢ
åĲį ãģ¥ãģĳãĤĭ
åĲį ç°¿
åĲį èªī
åĲį çĦ¡ãģĹ
åĲį ä¹ĹãĤĭ
æĸĩ ä½ĵ
æĸĩ æĽ¸
æĸĩ æĺİ
æĸĩ éĿ¢
æĸĩ è¨Ģ
æĸĩ æ³ķ
æĸĩ ç§ĳ
æĸĩ èĬ¸
æĸĩ ç³»
æĸĩ æĺ¥
æĸĩ åı¥
æĸĩ ç«ł
æĸĩ åŃ¦éĥ¨
æĸĩ èĦĪ
æĸĩ çĮ®
æĸĩ èĹĿ
åº¦ ãģ¨
åº¦ ãĢħ
åº¦ çĽ®
åº¦ åĲĪãģĦ
æĺİ è¨Ģ
æĺİ è¨ĺ
æĺİ çŁ³
æĺİ çĻ½
æĺİ åħļ
æĺİ ç´°
æĺİ å¿«
æĺİ ç¢º
æĺİ ãģĭãģĻ
æĺİ ç¤º
æĺİ ãģĭãĤĬ
æĺİ ãĤīãģĭ
æĺİ çŀŃ
æĺİ ãĤĭãģĦ
æĺİ å¾ĮæĹ¥
å¢ ®
å¢ ¾
å¢ ŀ
å¢ Ł
åŁ ĥ
èĥ ¡
é¤ Ĳ
é¤ ĺ
é¤ ł
é¤ ĥåŃĲ
ãĥĿ ãĥ¼
ãĥĿ ãĥģ
ãĥĿ ãĥĥãĥĪ
ãĥĿ ãĤ¹ãĥĪ
ãĥĿ ãĥ³ãĥī
ãĥĿ ãĥĶ
ãĥĿ ãĥ³ãĤ¹
ãĥĿ ãĥ³ãĥĹ
ãĥĿ ãĤ±ãĥĥãĥĪ
ãĥĿ ãĥ¼ãĤº
ãĥĿ ãĥ«ãĥĪ
ãĥĿ ãĥ¼ãĤ¿
ãĥĿ ãĥªãĤ¹
ãĥĿ ãĤ¹ãĤ¿ãĥ¼
ãĥĿ ãĥ¼ãĥ©ãĥ³ãĥī
ãĥĿ ãĤ¤ãĥ³ãĥĪ
ãĥĿ ãĥĨãĥĪ
ãĤ± ãĥ«
ãĤ± ãĤ¤
ãĤ± ãĤ¢
ãĤ± ãĥģ
ãĤ± ãĥ¼ãĥĪ
ãĤ± ãĥªãĥ¼
ãĤ± ãĤ¬
ãĤ± ãĥ¼ãĤ¹
ãĤ± ãĥ¼ãĤ¸
ãĤ± ãĥ¼ãĥ³
ãĤ± ãĥĭãĤ¢
ãĤ± ãĥ³ãĥĸ
ãĤ± ãĤ¹ãĥĪãĥ©
ãĤ± ãĥĨãĤ£ãĥ³ãĤ°
ãĤ± ãĥ¼ãĤŃ
ãĤ± ãĥ¼ãĥĸãĥ«
ãĤ± ãĥįãĥĩãĤ£
ãĥ©ãĤ¤ ãĤ¹
ãĥ©ãĤ¤ ãĥĸ
ãĥ©ãĤ¤ ãĥł
ãĥ©ãĤ¤ ãĤº
ãĥ©ãĤ¤ ãĤ¿ãĥ¼
ãĥ©ãĤ¤ ãĤªãĥ³
ãĥ©ãĤ¤ ãĥ³ãĥĬ
ãĥ©ãĤ¤ ãĥĲãĥ«
ãĥ©ãĤ¤ ãĥ´
ãĥ©ãĤ¤ ãĤ»ãĥ³ãĤ¹
ä»ĺ ãģĻ
ä»ĺ çĿĢ
ä»ĺ è¿ĳ
ä»ĺ åĬł
ä»ĺ ä¸İ
ä»ĺ å±ŀ
ä»ĺ éĮ²
ä»ĺ éļı
éĩĳ åŃĲ
éĩĳ åĪ©
éĩĳ èī²
éĩĳ æĽľ
éĩĳ é¡į
éĩĳ è¡ĵ
éĩĳ æĮģãģ¡
éĩĳ å±ŀ
éĩĳ æ²¢
éĩĳ æĺŁ
éĩĳ åº«
éĩĳ æĽľæĹ¥
éĩĳ èŀį
éĩĳ é«ª
éĩĳ éĬŃ
éĩĳ éŃļ
éĩĳ ãĥ¡ãĥĢãĥ«
éĩĳ åĦ²ãģĳ
éĿ¢ ãģĻ
éĿ¢ ä¼ļ
éĿ¢ ãĢħ
éĿ¢ çĽ®
éĿ¢ æİ¥
éĿ¢ ç©į
éĿ¢ è«ĩ
åĦ ¿
åĦ ī
åĦ Ĵ
ãģ¶ ãģĻ
ãģ¶ ãģ£
ãģ¶ ãĤį
ãģ¶ ãģ©ãģĨ
ãģ¶ ãģ¤ãģĳãĤĭ
ä¸» ä½ĵ
ä¸» åĬĽ
ä¸» é£Ł
ä¸» è¦ģ
ä¸» èªŀ
ä¸» æµģ
ä¸» ä»»
ä¸» è¦³
ä¸» å½¹
ä¸» æ²»
ä¸» æ¼Ķ
ä¸» æ¨©
ä¸» å¼µ
ä¸» ãģŁãĤĭ
ä¸» å¸Ń
ä¸» å°İ
ä¸» æŁ»
ä¸» å¯©
ä¸» å©¦
ä¸» åĤ¬
ä¸» æĹ¨
ä¸» å°Ĩ
ä¸» ãģ¨ãģĹãģ¦
ä¸» å®°
åĪĩ ãģ«
åĪĩ å®Ł
åĪĩ æĸŃ
åĪĩ ãģªãģĦ
åĪĩ ç¬¦
å¾Į ãģ«
å¾Į æĸ¹
å¾Į ãģ§
å¾Į éĥ¨
å¾Į ãĢħ
å¾Į ãĤį
å¾Į æľŁ
å¾Į èĢħ
å¾Į è¨ĺ
å¾Į éĢ²
å¾Į ä¸ĸ
å¾Į åįĬ
å¾Į ä»»
å¾Į èĹ¤
å¾Į éĢĢ
å¾Į ç·¨
å¾Į ãģ»ãģ©
å¾Į éģº
å¾Į è¿°
å¾Į æı´
å¾Į ç¶Ļ
å¾Į æĬ¼ãģĹ
å¾Į æĤĶ
å¾Į è¼©
å¾Į åĽŀãģĹ
çĿ ¦
çĿ ¨ãĤĢ
ãģ° ãĤĬ
ãģ° ãģĭ
ãģ° ãĤĮãĤĭ
ãģ° ãģĹãģĦ
ãģ° ãģĭãĤĬ
ãģ° ãģ£ãģĭãĤĬ
ãģ° ãģĤãģ¡ãĤĥãĤĵ
ãĤ¬ ãĥª
ãĤ¬ ãĥĲ
ãĤ¬ ãĥł
ãĤ¬ ãĥ¼ãĥ«
ãĤ¬ ãĥªãĥ¼
ãĤ¬ ãĥ¼ãĥī
ãĤ¬ ãĤ½
ãĤ¬ ãĥ¼ãĤ¹
ãĤ¬ ãĥªãĤ¢
ãĤ¬ ãĤ¶
ãĤ¬ ãĥ©ãĤ¹
ãĤ¬ ãĥ¼ãĥĬ
ãĤ¬ ãĥ¬ãĥ¼ãĤ¸
ãĤ¬ ãĥĿãĥ¼ãĥ«
ãĤ¬ ãĥ¼ãĥĩãĥ³
ãĤ¬ ãĤ¤ãĥ¢
æľī ãĤĭ
æľī ãģĻ
æľī äºĭ
æľī çĶ¨
æľī åĬĽ
æľī çĦ¡
æľī åĲį
æľī æķ°
æľī ç·ļ
æľī æ©Ł
æľī åĪ©
æľī æĸĻ
æľī èĥ½
æľī ä¾¡
æľī æ§ĺ
æľī ãģĻãĤĭ
æľī æľĽ
æľī å®³
æľī éĻĲ
æľī çµ¦
æľī éĽ£
æľī æ¨©
æľī èŃĺ
æľī çĽĬ
æľī é¦¬
æľī åĬ¹
æľī å¿Ĺ
æľī ç½ª
æľī éĽ£ãģĦ
æľī åĲįäºº
æľī æĦıç¾©
å¤ĸ ãģĻ
å¤ĸ åĩº
å¤ĸ äºº
å¤ĸ ãĤĮãĤĭ
å¤ĸ åĽ½
å¤ĸ è¦ĭ
å¤ĸ éĥ¨
å¤ĸ éĩİ
å¤ĸ é£Ł
å¤ĸ æĿ¥
å¤ĸ çĽ¸
å¤ĸ è¦³
å¤ĸ äº¤
å¤ĸ è³ĩ
å¤ĸ ç§ĳ
å¤ĸ çķĮ
å¤ĸ åģ´
å¤ĸ åĤ·
å¤ĸ è²¨
å¤ĸ å£ģ
éģĵ ä¸Ń
éģĵ çĲĨ
éģĵ åł´
éģĵ ç«¯
éģĵ çŃĭ
éģĵ ãģ®ãĤĬ
éģĵ åºľçľĮ
è¨Ģ ãģĨ
è¨Ģ ãģĪãĤĭ
è¨Ģ åĭķ
è¨Ģ æĺİ
è¨Ģ èªŀ
è¨Ģ è«ĸ
è¨Ģ èª¬
è¨Ģ èĳī
è¨Ģ åıĬ
è¨Ģ ãģĨãģ¾
è¨Ģ ãĤıãģ°
çĽ® ä¸ĭ
çĽ® åīį
çĽ® åħĪ
çĽ® å®ī
çĽ® ç·ļ
çĽ® çļĦ
çĽ® æ¬¡
çĽ® æĴĥ
çĽ® ç«ĭãģ¤
çĽ® æ¨Ļ
çĽ® åį°
çĽ® é»Ĵ
çĽ® éĮ²
çĽ® å½ĵãģ¦
çĽ® çİī
çĽ® æĮĩãģĻ
çĽ® ãģ®å½ĵãģŁãĤĬ
æķ° ãģĪãĤĭ
æķ° åŃ¦
æķ° çĲĨ
æķ° ãĢħ
æķ° éĩı
æķ° å¼ı
æķ° åŃĹ
æķ° åĢ¤
æķ° æĻĤéĸĵ
æķ° å°ĳãģªãģĦ
å±± æľ¬
å±± ä¸Ń
å±± çĶ°
å±± ä¸ĭ
å±± åĨħ
å±± ãĢħ
å±± éĸĵ
å±± éģĵ
å±± åı£
å±± æĿĳ
å±± å½¢
å±± å²¡
å±± å´İ
å±± éłĤ
å±± èĦĪ
å±± ç©įãģ¿
å±± æ¢¨
å±± å²³
æĦı è¦ĭ
æĦı æĢĿ
æĦı åĲĳ
æĦı åĽ³
æĦı å¿Ĺ
æĦı æ¬²
æĦı åĮł
æĻĤ äºĭ
æĻĤ ãĢħ
æĻĤ æľŁ
æĻĤ ä»£
æĻĤ ç©º
æĻĤ åįĬ
æĻĤ ä¾¡
æĻĤ å·®
æĻĤ çµ¦
æĻĤ éĢŁ
æĻĤ åĬ¹
æĻĤ æĬĺ
æĻĤ åĪ»
æĻĤ ãģ¨ãģĹãģ¦
æ· ¨
æ· «
æ· ³
æ· µ
æ· º
æ· ĳ
æ· ļ
æ· ĭãģĹãģĦ
æ· ĺæ±°
èĦ Ĭ
èĦ Ĩå¼±
èĭ Ķ
ãĥ¯ ãĥ«
ãĥ¯ ãĤ¿
ãĥ¯ ãĥĥãĥĪ
ãĥ¯ ãĤ¤ãĥ³
ãĥ¯ ãĤ´
ãĥ¯ ãĤ¶
ãĥ¯ ãĥ¼ãĥĹ
ãĥ¯ ãĥ³ãĥĶ
ãĥ¯ ãĤ¤ãĥ«ãĥī
åħĪ äºº
åħĪ æĹ¥
åħĪ çĶŁ
åħĪ è¡Į
åħĪ çī©
åħĪ æĸ¹
åħĪ çĻº
åħĪ æľĪ
åħĪ ãĢħ
åħĪ ãģļ
åħĪ çĿĢ
åħĪ åıĸãĤĬ
åħĪ éĢ²
åħĪ åĪ¶
åħĪ éłŃ
åħĪ ç¨ĭ
åħĪ ãģ»ãģ©
åħĪ å°İ
åħĪ ç«ĭãģ¤
åħĪ é§Ĩ
åħĪ éĢ±
åħĪ è¡Įãģį
åħĪ ç¥ĸ
åħĪ èĪ¬
åħĪ è¼©
åħĪ éĢģãĤĬ
åħĪ ä½ıæ°ĳ
åħĪ åħ¥è¦³
æīĢ è¦ĭ
æīĢ å®ļ
æīĢ éķ·
æīĢ æľī
æīĢ è¦ģ
æīĢ æĮģ
æīĢ å¾Ĺ
æīĢ åŃĺ
æīĢ å±ŀ
æīĢ æ²¢
æīĢ èĶµ
æīĢ ç®¡
æīĢ è©®
ç½ µ
ç½ ·
ç½ Ĳ
ç½ ĳ
éŁ ĭ
åħ¬ ç«ĭ
åħ¬ çĶ¨
åħ¬ è¨Ģ
åħ¬ ç¤¾
åħ¬ æŃ£
åħ¬ æ°ĳ
åħ¬ å®ī
åħ¬ çļĦ
åħ¬ åħ±
åħ¬ çĦ¶
åħ¬ è¡¨
åħ¬ åĪ¤
åħ¬ å®³
åħ¬ æ¼Ķ
åħ¬ ç´Ħ
åħ¬ èªį
åħ¬ åľĴ
åħ¬ ç¤º
åħ¬ çĽĬ
åħ¬ èģ´
åħ¬ åĸ¶
åħ¬ åı¸
åħ¬ åº«
åħ¬ è¡Ĩ
åħ¬ è¿°
åħ¬ åĤµ
åħ¬ åĭŁ
åħ¬ æĺİåħļ
ãĥ³ãĥī ãĤ¦
ãĥ³ãĥī ãĥªãĥ¼
çŁ¥ ãĤĭ
çŁ¥ äºº
çŁ¥ ãĤĮãĤĭ
çŁ¥ è¦ĭ
çŁ¥ æĢ§
çŁ¥ çļĦ
çŁ¥ èĥ½
çŁ¥ è¦ļ
çŁ¥ æģµ
çŁ¥ ãĤĬåĲĪãģĨ
çŁ¥ ãĤĬåĲĪãģĦ
çŁ¥ åĲįåº¦
é«ĺ ãģĦ
é«ĺ ãĤģ
é«ĺ ãĤģãĤĭ
é«ĺ çĶ°
é«ĺ åº¦
é«ĺ å±±
é«ĺ çŁ¥
é«ĺ åİŁ
é«ĺ éĩİ
é«ĺ ãģ¾ãĤĭ
é«ĺ æľ¨
é«ĺ ä¾¡
é«ĺ å®ĺ
é«ĺ æĿ¾
é«ĺ è£ģ
é«ĺ éĢŁ
é«ĺ é¡į
é«ĺ çŃī
é«ĺ åĢ¤
é«ĺ æ¸©
é«ĺ ç´ļ
é«ĺ å±¤
é«ĺ æ©ĭ
é«ĺ æıļ
é«ĺ é½¢
é«ĺ é¨°
é«ĺ æĢ§èĥ½
æ§ ª
æ§ į
ãĥľ ãĤ¹
ãĥľ ãĤ¯
ãĥľ ãĤ¦
ãĥľ ãĥĸ
ãĥľ ãĥ¼ãĥĪ
ãĥľ ãĤ±
ãĥľ ãĥ¼ãĥī
ãĥľ ãĥĩãĤ£
ãĥľ ãĤ¤ãĤ¹
ãĥľ ãĥĥãĤ¯ãĤ¹
ãĥľ ãĥ¼ãĥĬ
ãĥľ ãĥ«ãĥĪ
ãĥľ ãĤ¦ãĥ«
ãĥľ ãĥĩãĤ£ãĥ¼
ãĥľ ãĤ¿ãĥ³
ãĥľ ãĥªãĥ¥
ãĥľ ãĤ¯ãĤ·
ãĥľ ãĥ©ãĥ³ãĥĨãĤ£
ãĥľ ãĤ¹ãĥĪãĥ³
ä½ľ ãĤĭ
ä½ľ ãĤĮãĤĭ
ä½ľ åĭķ
ä½ľ æĸĩ
ä½ľ æ³ķ
ä½ľ æ¥Ń
ä½ľ æĪ¦
ä½ľ æĪĲ
ä½ľ èĢħ
ä½ľ å®¶
ä½ľ åĵģ
ä½ľ æĽ²
ä½ľ è©ŀ
ä½ľ ãĤĬåĩºãģĻ
çĽ´ ãģ«
çĽ´ äºº
çĽ´ è¡Į
çĽ´ åŃĲ
çĽ´ åīį
çĽ´ éĿ¢
çĽ´ å¾Į
çĽ´ æĦŁ
çĽ´ è¿ĳ
çĽ´ çµĲ
çĽ´ ç·ļ
çĽ´ è¦ĸ
çĽ´ æĴĥ
çĽ´ æ¨¹
çĽ´ å¾Ħ
çĽ´ ãģ¡ãģ«
å¼ķ ãģĳãĤĭ
å¼ķ çĶ¨
å¼ķ æķ°
å¼ķ éĢĢ
å¼ķ è¶ĬãģĹ
å¿ĥ ä¸Ń
å¿ĥ çĲĨ
å¿ĥ èĢħ
å¿ĥ éħį
å¿ĥ èº«
å¿ĥ æĥħ
å¿ĥ å¾Ĺ
å¿ĥ ãģĭãĤī
å¿ĥ å¢ĥ
å¿ĥ åºķ
å¿ĥ èĩĵ
å¿ĥ å¼·ãģĦ
å¿ĥ å¾ĹãĤĭ
å¿ĥ ãģĮãģĳãĤĭ
å¿ĥ æ§ĭãģĪ
æ³ķ äºº
æ³ķ åŃ¦
æ³ķ å®ļ
æ³ķ çļĦ
æ³ķ åĪ¶
æ³ķ æ¡Ī
æ³ķ ç§ĳ
æ³ķ è¦ı
æ³ķ ä»¤
æ³ķ åīĩ
æ³ķ å¾ĭ
æ³ķ åŃ¦éĥ¨
æ³ķ å»·
æ³ķ æĽ¹
æ¥Ń åĭĻ
æ¥Ń èĢħ
æ¥Ń ç¨®
æ¥Ń çķĮ
æ¥Ń æħĭ
æ¥Ń ç¸¾
åł´ åĲĪ
åł´ åĨħ
åł´ éĿ¢
ç² ¹
è¬ ¹
è¬ ģ
è¬ Ĥ
è¬ Ħ
è¬ ł
è¬ ³ãģĨ
è± «
è± ¸
è± Ĳ
è± ķ
ãģ² ãĤĭ
ãģ² ãģı
ãģ² ãģª
ãģ² ãĤĤ
ãģ² ãģ§
ãģ² ãĤį
ãģ² ãģĸ
ãģ² ãģŃãĤĭ
ãģ² ãģŁãģĻ
ãģ² ãĤīãģı
ãģ² ãģ£ãģıãĤĬ
ãģ² ãģĦãģ¦
ãģ² ãģ¾ãĤıãĤĬ
ãģ² ãģ©ãģĦ
ãģ² ãģ£ãģĿãĤĬ
ãģ² ãģįãģĵãĤĤãĤĭ
ãģ² ãģ£ãģĭãģĭãĤĭ
ãģ² ãģķãģĹ
ãģ² ãģĿãģĭ
ãĥĶ ãĥ«
ãĥĶ ãĤ«
ãĥĶ ãĥĥãĥĪ
ãĥĶ ãĥ¼ãĥĪ
ãĥĶ ãĥ¼ãĤ¹
ãĥĶ ãĥ¼ãĤ¯
ãĥĶ ãĤ¶
ãĥĶ ãĥ³ãĤ¯
ãĥĶ ãĥĥãĥģ
ãĥĶ ãĥ³ãĥģ
ãĥĶ ãĥ¼ãĤ¿ãĥ¼
ãĥĶ ãĤ¢ãĤ¹
ãĥĶ ãĤ¿ãĥ«
ãĥĶ ãĤ¢ãĥĭ
ãĥĶ ãĤ¨ãĥ¼ãĥ«
ãĥĶ ãĥ¥ãĤ¢
ãĥĶ ãĥĥãĤ¿
ãĥĶ ãĥ©ãĥŁ
ãĥĶ ãĤ¢ãĥİ
ãĥĶ ãĥĥãĤ¯ãĤ¢ãĥĥãĥĹ
åĽŀ çĶŁ
åĽŀ æķ°
åĽŀ æĪ¦
åĽŀ ç·ļ
åĽŀ è»¢
åĽŀ åıİ
åĽŀ æĥ³
åĽŀ å¸°
åĽŀ è·¯
åĽŀ å¾©
åĽŀ çŃĶ
åĽŀ éģ¿
åĽŀ é¡§
æķĻ ãģĪãĤĭ
æķĻ ä¼ļ
æķĻ åĵ¡
æķĻ ãĤıãĤĭ
æķĻ åĽ£
æķĻ ç¾©
æķĻ å®ĺ
æķĻ æĿĲ
æķĻ é¤Ĭ
æķĻ å®¤
æķĻ çļĩ
æķĻ å§Ķ
æķĻ è¨ĵ
æķĻ è«Ń
æķĻ èģ·åĵ¡
æĪ¦ ãģĦ
æĪ¦ ãģĨ
æĪ¦ åĽ½
æĪ¦ åĬĽ
æĪ¦ åīį
æĪ¦ å¾Į
æĪ¦ æĻĤ
æĪ¦ åł´
æĪ¦ è¨ĺ
æĪ¦ è»Ĭ
æĪ¦ ç·ļ
æĪ¦ å£«
æĪ¦ è¡ĵ
æĪ¦ æŃ»
æĪ¦ çķ¥
æĪ¦ çĬ¯
æĪ¦ éĹĺ
æĪ¦ èī¦
åİŁ çĶ°
åİŁ çĻº
åİŁ çĲĨ
åİŁ æĸĩ
åİŁ ä½ľ
åİŁ çĤ¹
åİŁ æĸĻ
åİŁ ä¾¡
åİŁ åĳĬ
åİŁ é¡Į
åİŁ æ¡Ī
åİŁ å§ĭ
åİŁ åŀĭ
åİŁ å®¿
åİŁ åĽł
åİŁ çĪĨ
åİŁ åīĩ
åİŁ æ²¹
åİŁ ç¨¿
åİŁ åĭķåĬĽ
åİŁ æĿĲæĸĻ
ç¤¾ éķ·
ç¤¾ åĨħ
ç¤¾ åĲį
ç¤¾ å¤ĸ
ç¤¾ äº¤
ç¤¾ åĽ£
ç¤¾ èª¬
ç¤¾ æ°ĳåħļ
å§ ¦
å§ ª
å§ ĳ
æ¤ ¿
æ¤ ħ
æ© «
æ© ĺ
ãģĶ ãģĦ
ãģĶ ãģı
ãģĶ ãģ¿
ãģĶ è¦§
ãģĶ é£¯
ãģĶ æ©Łå«Į
ãģĶ ãģĸãĤĭ
ãģĶ ãĤīãĤĵ
ãģĶ ãĤģãĤĵ
ãģĶ ãģ¯ãĤĵ
ãģĶ é¦³
ãģĶ èĭ¦åĬ´
ãģĶ ãģ¾ãģĭãģĻ
ãģĶ ãĤģãĤĵãģª
ãģĶ çĦ¡æ²Ļ
æľŁ ãģĻ
æľŁ æĹ¥
æľŁ çļĦ
æľŁ éĻĲ
æľŁ æľ«
æľŁ å¾ħ
åĭĻ ãĤģãĤĭ
åĭĻ æīĢ
åĭĻ æ¬¡å®ĺ
éĩİ çĶŁ
éĩİ ä¸Ń
éĩİ çĶ°
éĩİ å¤ĸ
éĩİ å¿ĥ
éĩİ åİŁ
éĩİ åı£
éĩİ æĿĳ
éĩİ æľĽ
éĩİ åħļ
éĩİ éĥİ
éĩİ çĲĥ
éĩİ èıľ
éĩİ èĽ®
æĪĲ ãĤĭ
æĪĲ ãģĻ
æĪĲ äºº
æĪĲ å¹´
æĪĲ åĪĨ
æĪĲ ç«ĭ
æĪĲ éķ·
æĪĲ æŀľ
æĪĲ å°±
æĪĲ ç¸¾
æĪĲ çĨŁ
æĪĲ åĬŁ
æĪĲ ãģĹéģĤãģĴãĤĭ
è¼ ķ
ãģŃ ãĥ¼
ãģŃ ãģĪ
ãģŃ ãĤĵ
ãģŃ ãģĵ
ãģŃ ãĤīãģĨ
ãģŃ ãģĩ
ãģŃ ãģļãģ¿
ãģ¾ãĤĭ ãģ§
æ°´ ä¸Ĭ
æ°´ ä¸Ń
æ°´ çĶ°
æ°´ åĪĨ
æ°´ éĿ¢
æ°´ éģĵ
æ°´ éĩİ
æ°´ çĿĢ
æ°´ å¹³
æ°´ è³ª
æ°´ æľ¨
æ°´ ç´ł
æ°´ å®³
æ°´ è·¯
æ°´ æĽľ
æ°´ æĹı
æ°´ è°·
æ°´ æĪ¸
æ°´ æºĸ
æ°´ éĬĢ
æ°´ æĽľæĹ¥
æ°´ èī¦
æ°´ æĻ¶
æ°´ æ³³
æ°´ æ§½
æŃ£ ãģĻ
æŃ£ ãģ«
æŃ£ æĹ¥
æŃ£ ãģĹãģĦ
æŃ£ ä½ĵ
æŃ£ å½ĵ
æŃ£ éĿ¢
æŃ£ çĽ´
æŃ£ è§£
æŃ£ è«ĸ
æŃ£ å¸¸
æŃ£ å¼ı
æŃ£ ç¾©
æŃ£ è¦ı
æŃ£ ç¢º
æŃ£ çµ±
æŃ£ åįĪ
æŃ£ ç¤¾åĵ¡
æŃ£ åıįå¯¾
æĢĿ ãģĨ
æĢĿ ãģĪãĤĭ
æĢĿ ãģµ
æĢĿ æĥ³
æĢĿ æ¡Ī
æĢĿ èĢĥ
æĢĿ æĺ¥
æĢĿ æĥĳ
æĢĿ ç´¢
æĢĿ ãĤıãģļ
è§£ ãĤĭ
è§£ ãģĻ
è§£ ãģĳãĤĭ
è§£ ä½ĵ
è§£ æĺİ
è§£ èªŃ
è§£ æ±º
è§£ æĶ¾
è§£ ä»»
è§£ ç´Ħ
è§£ æ¶Ī
è§£ èª¬
è§£ éĻ¤
è§£ çŃĶ
è§£ æķ£
è§£ åĥı
è§£ ç¦ģ
è§£ éĩĪ
è§£ éĽĩ
è§£ æŀĲ
è§£ åīĸ
çĿĢ ãĤĭ
çĿĢ ãģĳãĤĭ
çĿĢ æīĭ
çĿĢ çī©
çĿĢ çĶ¨
çĿĢ å®Ł
çĿĢ ãģĽãĤĭ
çĿĢ çĽ®
çĿĢ ä¿¡
çĿĢ å·¥
çĿĢ å¸Ń
çĿĢ éĻ¸
çĿĢ æĽ¿ãģĪãĤĭ
çĿĢ æĽ¿ãģĪ
çĿĢ ãĢħãģ¨
ç¸ £
ç¸ ±
ç¸ ½
çı ĪçĲ
ãģµ ãĤĬ
ãģµ ãģĨ
ãģµ ãģı
ãģµ ãģ¨
ãģµ ãģŁ
ãģµ ãĤĢ
ãģµ ãģĪãĤĭ
ãģµ ãģĺ
ãģµ ãģĸ
ãģµ ãģŁãĤĬ
ãģµ ãĤĦãģĻ
ãģµ ãģłãĤĵ
ãģµ ãģ¾ãģĪãĤĭ
ãģµ ãģŁãģŁ
ãģµ ãģ¤ãģĨ
ãģµ ãģŁãģ¤
ãģµ ãģĹãģİ
ãģµ ãĤĮãģĤãģĨ
ãģµ ãģķãĤıãģĹãģĦ
éĢ£ ãĤĮ
éĢ£ ãĤĮãĤĭ
éĢ£ æĹ¥
éĢ£ åĲĪ
éĢ£ ä¸Ń
éĢ£ è¡Į
éĢ£ ç«ĭ
éĢ£ åĭķ
éĢ£ çĻº
éĢ£ çµĲ
éĢ£ æĥ³
éĢ£ ç¶ļ
éĢ£ åĭĿ
éĢ£ ãģªãĤĭ
éĢ£ ä¼ĳ
éĢ£ ãģŃãĤĭ
éĢ£ å¸¯
éĢ£ æķĹ
éĢ£ è¼ī
éĢ£ è¦ĩ
éĢ£ çµ¡
éĢ£ æĲº
éĢ£ éİĸ
éĢ£ çĽŁ
éĢ£ éĤ¦
å¯¾ ãģĻ
å¯¾ äºº
å¯¾ ç«ĭ
å¯¾ å¤ĸ
å¯¾ æĪ¦
å¯¾ å³
å¯¾ æ±º
å¯¾ è©±
å¯¾ ä¾¡
å¯¾ åĩ¦
å¯¾ å¿ľ
å¯¾ ç§°
å¯¾ è«ĩ
å¯¾ çŃī
å¯¾ æ¯Ķ
å¯¾ è±¡
å¯¾ çŃĸ
å¯¾ çħ§
å¯¾ æĬĹ
å¯¾ å²¸
æĦŁ åĭķ
æĦŁ åº¦
æĦŁ çŁ¥
æĦŁ å¿ĥ
æĦŁ åıĹ
æĦŁ æĢ§
æĦŁ æĥ³
æĦŁ ãģĺãĤĭ
æĦŁ æĥħ
æĦŁ è¦ļ
æĦŁ æ¿Ģ
æĦŁ æŁĵ
æĦŁ è§¦
æĦŁ è¬Ŀ
æĦŁ éĬĺ
æĦŁ æħ¨
åĥ ¹
åĥ ŀ
çĪ ²
çĪ º
çĪ »
çĪ ¾
çĪ Ĳ
çĪ Ń
è· ³
ï© ¡
ï© ¢
ï© £
ï© ¤
ï© ¥
ï© §
ï© ¨
ï© ©
ï© ª
ï© Ģ
ï© ģ
ï© Ĥ
ï© ĥ
ï© Ħ
ï© ħ
ï© ĩ
ï© Ī
ï© ĭ
ï© Į
ï© į
ï© İ
ï© Ĳ
ï© ĳ
ï© Ĵ
ï© Ķ
ï© ķ
ï© ĸ
ï© Ĺ
ï© Ļ
ï© ļ
ï© Ľ
ï© ľ
ï© Ł
ï© ł
ãģ» ãĤĭ
ãģ» ãģĨ
ãģ» ãĤī
ãģ» ãĤģãĤĭ
ãģ» ãģĹãģĦ
ãģ» ãģ»
ãģ» ãģ¼
ãģ» ãģ¨ãĤĵãģ©
ãģ» ãģ®ãģ¼
ãĥİ ãĥ¼
ãĥİ ãĥª
ãĥİ ãĤ¢
ãĥİ ãĥĥãĤ¯
ãĥİ ãĥĸ
ãĥİ ãĥł
ãĥİ ãĥ¼ãĥĪ
ãĥİ ãĥ¼ãĥī
ãĥİ ãĥ¼ãĥŀ
ãĥİ éħ¸
ãĥİ ãĥĻãĥ«
ãĥİ ãĤ¤ãĤº
ãĥİ ãĥ¼ãĥŀãĥ³
ãĥİ ãĥ¼ãĥĻãĥ«
ãĥİ ãĥ«ãĤ¦ãĤ§
ãĥİ ãĤ¦ãĥı
ãĤ§ ãĥ³ãĥĪ
ãĤ¤ãĥ³ ãĤ¯
ãĤ¤ãĥ³ ãĤ¿ãĥ¼
ãĤ¤ãĥ³ ãĥķãĤ©
ãĤ¤ãĥ³ ãĥķãĥ©
ãĤ¤ãĥ³ ãĥķãĥ¬
ãĤ¤ãĥ³ ãĥķãĥ«
ãĤ¤ãĥ³ ãĤ¹ãĥĪãĥ©
ãĤ¤ãĥ³ ãĤ¹ãĤ¿ãĥ³ãĥĪ
ãĤ¤ãĥ³ ãĤ¹ãĥĪãĥ¼ãĥ«
é£Ł ãģĦ
é£Ł ãģĨ
é£Ł ãģĪãĤĭ
é£Ł çī©
é£Ł äºĭ
é£Ł çĶ¨
é£Ł å¾Į
é£Ł ãģ¹
é£Ł åĵģ
é£Ł æĸĻ
é£Ł ãģ¹ãĤĭ
é£Ł æĿĲ
é£Ł åĻ¨
é£Ł æ¬²
é£Ł åłĤ
é£Ł ãĤīãģĨ
é£Ł åįĵ
é£Ł çĶŁæ´»
é£Ł ç³§
çĤ¹ æķ°
çĤ¹ æ¤ľ
çĤ¹ åŃĹ
çĤ¹ çģ¯
çĤ¹ æ»´
çĶ£ ãĤĢ
çĶ£ åŃ¦
çĶ£ åľ°
çĶ£ æ¥Ń
çĶ£ å©Ĩ
æ°ĳ çĶŁ
æ°ĳ äºĭ
æ°ĳ éĸĵ
æ°ĳ æ³ķ
æ°ĳ å®¶
æ°ĳ æĶ¾
æ°ĳ æĹı
æ°ĳ åĸ¶
æ°ĳ è¡Ĩ
æ°ĳ ä¿Ĺ
æ°ĳ è¬¡
å¡ ¡
å¡ µ
å¡ ĳ
åĴ ³
åĴ ½
ç¹ ©
ç¹ ª
ç¹ ¼
ç¹ į
ç¹ Ń
çģ £
çģ ¸
çĭ ¹
çĭ ¼
çĭ Ģ
çĭ Ĳ
çĭ Ń
çĭ ŃãģĦ
èĲ ĮãģĪãĤĭ
ï¾ Ģ
ï¾ ģ
ï¾ Ĥ
ï¾ ĥ
ï¾ Ħ
ï¾ ħ
ï¾ Ĩ
ï¾ ĩ
ï¾ Ī
ï¾ ī
ï¾ Ĭ
ï¾ ĭ
ï¾ Į
ï¾ į
ï¾ İ
ï¾ ı
ï¾ Ĳ
ï¾ ĳ
ï¾ Ĵ
ï¾ ĵ
ï¾ Ķ
ï¾ ķ
ï¾ ĸ
ï¾ Ĺ
ï¾ ĺ
ï¾ Ļ
ï¾ ļ
ï¾ Ľ
ï¾ ľ
ï¾ Ŀ
ï¾ ŀ
ï¾ Ł
ãĥĽ ãĥ¼
ãĥĽ ãĥĥ
ãĥĽ ãĥĥãĥĪ
ãĥĽ ãĤ»
ãĥĽ ãĥ¼ãĥ«
ãĥĽ ãĤ¹ãĥĪ
ãĥĽ ãĥ³ãĥĪ
ãĥĽ ãĥ¼ãĤ¹
ãĥĽ ãĥ¼ãĤ¯
ãĥĽ ãĥ©ãĥ¼
ãĥĽ ãĥ³ãĥĢ
ãĥĽ ãĥĨãĥ«
ãĥĽ ãĤ¤ãĥ¼ãĥ«
æľĢ ãĤĤ
æľĢ ä¸Ń
æľĢ éķ·
æľĢ æĸ°
æľĢ å¾Į
æľĢ æľŁ
æľĢ å¼·
æľĢ è¿ĳ
æľĢ å¤ļ
æľĢ æĤª
æľĢ åĪĿ
æľĢ åı¤
æľĢ çµĤ
æľĢ éģ©
æľĢ èī¯
æľĢ çŁŃ
æľĢ åĸĦ
æľĢ ä¸ĭä½į
æľĢ åīįç·ļ
æľĢ åħĪç«¯
æľĢ åĦªç§Ģ
åħ¨ ãģı
åħ¨ ãģ¦
åħ¨ åĽ½
åħ¨ éķ·
åħ¨ ä½ĵ
åħ¨ éĥ¨
åħ¨ åĬĽ
åħ¨ æĸĩ
åħ¨ éĿ¢
åħ¨ éĸĭ
åħ¨ éĽĨ
åħ¨ åĵ¡
åħ¨ èº«
åħ¨ çĦ¶
åħ¨ åľŁ
åħ¨ ç·¨
åħ¨ æĹ¥æľ¬
åħ¨ é¡į
åħ¨ ç±³
åħ¨ è§Ĵ
åħ¨ æ»ħ
åħ¨ åŁŁ
åħ¨ èĪ¬
éĩį ãģĦ
éĩį å¤§
éĩį ãģ¿
éĩį åĬĽ
éĩį åº¦
éĩį å¿ĥ
éĩį ãģŃ
éĩį è¦ģ
éĩį éĩı
éĩį ãģªãĤĭ
éĩį è¦ĸ
éĩį ãģŁãģĦ
éĩį åĤ·
éĩį çĹĩ
éĩį åİļ
éĩį å®Ŀ
éĩį è¤ĩ
éĩį ãĤĵãģĺãĤĭ
æĿ¥ æĹ¥
æĿ¥ å¹´
æĿ¥ æľĪ
æĿ¥ åł´
æĿ¥ åºĹ
æĿ¥ å®¢
æĿ¥ éĢ±
æĿ¥ å¹´åº¦
æĿ¥ è¨ª
æ¶ ī
æ¶ ľ
çĸ ĩ
çĸ Ĭ
çĸ ĭ
çĸ Ĵ
èº Ĭèº
éľ ¸
éľ ľ
åıĹ åĭķ
åıĹ çĲĨ
åıĹ ä»ĺ
åıĹ ä¿¡
åıĹ ãģĭãĤĭ
åıĹ çµ¦
åıĹ å®¹
åıĹ æ³¨
åıĹ è¬Ľ
åıĹ çĽĬ
åıĹ è³ŀ
åıĹ è¨º
åıĹ è¨Ĺ
å¼· ãģ¿
å¼· ãĤģãĤĭ
å¼· è¡Į
å¼· æ°Ĺ
å¼· åĬĽ
å¼· åº¦
å¼· å¼ķ
å¼· ãģ¾ãĤĭ
å¼· è¦ģ
å¼· èª¿
å¼· åĮĸ
å¼· åĪ¶
å¼· é¢¨
å¼· åĽº
å¼· è¿«
å¼· è±ª
å¼· çĽĹ
å¼· ãģĦãĤĭ
å¼· ç¡¬
å¼· çĥĪ
å¼· å§¦
å¹³ ãĤī
å¹³ æĹ¥
å¹³ è¡Į
å¹³ æ°Ĺ
å¹³ çĶ°
å¹³ éĿ¢
å¹³ å±±
å¹³ éĩİ
å¹³ æĪĲ
å¹³ å®ī
å¹³ åĴĮ
å¹³ äºķ
å¹³ å¸¸
å¹³ åĿĩ
å¹³ å£Į
å¹³ ç©ı
å¹³ çĦ¶ãģ¨
å¹³ åĩ¡
å¹³ æĸ¹ãĥ¡ãĥ¼ãĥĪãĥ«
éĸĭ ãģĳãĤĭ
éĸĭ ä¼ļ
éĸĭ çĻº
éĸĭ éĢļ
éĸĭ æ¥Ń
éĸĭ åł´
éĸĭ æĪ¦
éĸĭ æĶ¾
éĸĭ åºĹ
éĸĭ é¤¨
éĸĭ æ¼Ķ
éĸĭ è¨Ń
éĸĭ è¬Ľ
éĸĭ ç¤º
éĸĭ å§ĭ
éĸĭ èĬ±
éĸĭ åĤ¬
éĸĭ å¹ķ
éĸĭ æĭĵ
éĸĭ ãģįçĽ´ãĤĭ
çī¹ ãģ«
çī¹ éķ·
çī¹ æľī
çī¹ çĶ£
çī¹ æĢ§
çī¹ éĽĨ
çī¹ è³ª
çī¹ åĪ¥
çī¹ èī²
çī¹ ä¾¡
çī¹ æĢ¥
çī¹ ä¾ĭ
çī¹ ç´Ħ
çī¹ çķ°
çī¹ æ¨©
çī¹ æ®µ
çī¹ è£½
çī¹ åĮº
çī¹ æ´¾
çī¹ åħ¸
çī¹ çŃĨ
çī¹ å¾´
çī¹ æĴ®
çī¹ æ®Ĭ
åĳ³ æĸ¹
åĳ³ è¦ļ
åĳ³ ä»ĺãģĳ
åĳ³ ãĤıãģĦ
åĳ³ ãĤıãģĨ
åĳ³ ãĤıãģĪãĤĭ
æĢ§ è³ª
æĢ§ æł¼
æĢ§ åĪ¥
æĢ§ çļĦ
æĢ§ æ¬²
è¿ĳ ãģĦ
è¿ĳ ãģı
è¿ĳ æĹ¥
è¿ĳ å¹´
è¿ĳ ãĢħ
è¿ĳ éģĵ
è¿ĳ æīĢ
è¿ĳ ä»£
è¿ĳ ä¸ĸ
è¿ĳ èĹ¤
è¿ĳ éīĦ
è¿ĳ éłĥ
è¿ĳ è¾º
è¿ĳ éļ£
è¿ĳ æ³ģ
è¿ĳ ãģ¥ãģı
è¿ĳ ãģ¥ãģĳãĤĭ
è¿ĳ æ±Ł
è¿ĳ ä»ĺãģı
è¿ĳ éĥĬ
è¿ĳ å¯ĦãĤĭ
è¿ĳ çķ¿
å£² ãĤĭ
å£² ãĤĮãĤĭ
å£² ä¸Ĭ
å£² åł´
å£² åºĹ
å£² è²·
å£² æĺ¥
å£² ãĤĬè¾¼ãĤĢ
å£² åį´
å£² ä¸ĬãģĴ
å£² ãĤĬåĩºãģĻ
å£² ãĤĮè¡Įãģį
ãĥĩãĤ£ ãĥ³
ãĥĩãĤ£ ãĤ¢
ãĥĩãĤ£ ãĥĥãĤ¯
ãĥĩãĤ£ ãĥĬãĥ¼
ãĥĩãĤ£ ãĤ¹ãĤ«
ãĥĩãĤ£ ãĥ¬ãĤ¯ãĥĪ
ãĥĩãĤ£ ãĥķãĤ§ãĥ³ãĤ¹
ãĥĩãĤ£ ãĥ¬ãĤ¯ãĤ¿ãĥ¼
æ» ¯
æ» ¿
æĴ Ń
æĴ «ãģ§ãĤĭ
æĴ Ĵãģı
ç¬ ĭ
çł ¦
èĳ µ
èĸ °
èĸ Ķèĸ
èĹ ¥
èĹ »
èĹ ı
ãģ¹ ãĤĬ
ãģ¹ ãģĹ
ãģ¹ ãģı
ãĤ½ ãĥ³ãĤ°
ãĤ½ ãĥ¼ãĥī
ãĤ½ éĢ£
ãĤ½ ãĥķãĤ¡
ãĤ½ ãĥĬãĥ«
ãĤ½ ãĥĭãĥ¼
ãĤ½ ãĤ¦ãĥ«
ãĤ½ ãĥķãĤ¡ãĥ¼
ãĤ½ ãĥ¼ãĤ»
ãĤ½ ãĥĬãĤ¿
ãĤ½ ãĥĵãĤ¨ãĥĪ
å®¶ äºĭ
å®¶ åĨħ
å®¶ éĽ»
å®¶ è¨Ī
å®¶ å±ĭ
å®¶ åħ·
å®¶ æĹı
å®¶ åºŃ
å®¶ è³ĥ
å®¶ åº·
å®¶ çķľ
ä½ķ ãģ¨
ä½ķ ãĤī
ä½ķ äºº
ä½ķ ãģĽ
ä½ķ äºĭ
ä½ķ ãģ§
ä½ķ æĻĤ
ä½ķ èĢħ
ä½ķ åĩ¦
ä½ķ ãģ¨ãĤĤ
ä½ķ ãģ§ãĤĤ
ä½ķ ãĤĪãĤĬ
ä½ķ ãģĹãĤį
ä½ķ ä¸Ģãģ¤
ä½ķ ãĤĦãĤī
ä½ķ ãģ¨ãģĭ
ä½ķ ãģ¨ãģªãģı
ä½ķ ãģłãģĭ
ä½ķ ãĤīãģĭãģ®
ä½ķ ãģĭãģĹãĤī
ä½ķ ãģĭãģ¨
ä½ķ ãĤĤãģĭãĤĤ
ä½ķ æ°ĹãģªãģĦ
è¦ģ ãĤĭ
è¦ģ ãģĻ
è¦ģ ãģ¯
è¦ģ çĤ¹
è¦ģ åĵ¡
è¦ģ ç´ł
è¦ģ æľĽ
è¦ģ ç´Ħ
è¦ģ ä»¶
è¦ģ æ±Ĥ
è¦ģ åĽł
è¦ģ éłĺ
è¦ģ è«ĭ
è¦ģ æĹ¨
è¦ģ ç¶±
è¦ģ å¡ŀ
è¦ģ æ³¨æĦı
è¨ĺ ãģĻ
è¨ĺ åħ¥
è¨ĺ äºĭ
è¨ĺ èĢħ
è¨ĺ å¿µ
è¨ĺ åı·
è¨ĺ è¿°
è¨ĺ è¼ī
è¨ĺ éĮ²
è¨ĺ æĨ¶
èª¿ åŃĲ
èª¿ çĲĨ
èª¿ æĽ¸
èª¿ æķĻ
èª¿ åĳ³
èª¿ ãģ¹
èª¿ åĴĮ
èª¿ éģĶ
èª¿ ãģ¹ãĤĭ
èª¿ æŁ»
èª¿ æķ´
èª¿ åį°
èª¿ åģľ
èª¿ ç¯Ģ
çµĲ åĲĪ
çµĲ ãģ¶
çµĲ ç¤¾
çµĲ æĪĲ
çµĲ éĽĨ
çµĲ è«ĸ
çµĲ æľ«
çµĲ æŀľ
çµĲ æ§ĭ
çµĲ å±Ģ
çµĲ æĿŁ
çµĲ æł¸
çµĲ æĻ¶
çµĲ åŁİ
æĿ± å¤§
æĿ± æĸ¹
æĿ± éĥ¨
æĿ± ãĥĨãĤ£
æĿ± æµ·
æĿ± è¥¿
æĿ± åĮĹ
æĿ± æĢ¥
æĿ± æĹ¥æľ¬
æĿ± åįĹ
æĿ± è¨¼
æĿ± åģ´
æĿ± æ´ĭ
æĿ± æ¬§
æĿ± èĬĿ
æĿ± ãĤ¢ãĤ¸ãĤ¢
æĿ± äºľ
æ¡ Ĥ
æ¡ ĳ
æ¡ Ł
æ£ §
æ£ º
ç¿ ģ
ç¿ Ķ
è¥ ¾
è¥ ĥ
è¥ Ł
èħ ¦
èħ º
èħ ĳ
èħ ĵ
éĺ ¿ãĤĭ
éĺ ¿éĥ¨
å®ī ãģĦ
å®ī çĶ°
å®ī å®ļ
å®ī éĥ¨
å®ī åħ¨
å®ī æ¥½
å®ī ä¾¡
å®ī èĹ¤
å®ī æīĵ
å®ī åĢ¤
å®ī æĺĵ
å®ī åĢį
å®ī åłµ
ä»£ ãģĪãĤĭ
ä»£ è¡Į
ä»£ çĶ°
ä»£ çī©
ä»£ çĶ¨
ä»£ éĩĳ
ä»£ çĽ®
ä»£ èŃ°
ä»£ ãĤıãĤĭ
ä»£ è¡¨
ä»£ æĽ¿
ä»£ å¼ģ
ä»£ ãĤıãĤĬ
ä»£ åĦŁ
ä»£ è¬Ŀ
ä»£ åĲįè©ŀ
éĽ» æ°Ĺ
éĽ» åŃĲ
éĽ» åĭķ
éĽ» åĬĽ
éĽ» éĽ»
éĽ» åĮĸ
éĽ» è»Ĭ
éĽ» ç·ļ
éĽ» æ©Ł
éĽ» æµģ
éĽ» åł±
éĽ» æ³¢
éĽ» åľ§
éĽ» æºĲ
éĽ» çĲĥ
éĽ» èĦ³
éĽ» æ±ł
éĽ» çģ¯
éĽĨ ãģĦ
éĽĨ ãģĨ
éĽĨ ãĤģ
éĽĨ ãĤģãĤĭ
éĽĨ åĲĪ
éĽĨ ä¸Ń
éĽĨ ä¼ļ
éĽĨ ãģ¾ãĤĭ
éĽĨ çµĲ
éĽĨ èĲ½
éĽĨ è¨Ī
éĽĨ åĽ£
éĽĨ ç©į
éĽĨ ç´Ħ
éĽĨ å®¢
éĽĨ èĭ±
éĽĨ ãģ¾ãĤĬ
è³ª æĦŁ
è³ª çļĦ
è³ª éĩı
è³ª åķı
è³ª çĸĳ
èŃ° å®ļ
èŃ° éķ·
èŃ° äºĭ
èŃ° è«ĸ
èŃ° æ±º
èŃ° åĵ¡
èŃ° é¡Į
èŃ° æ¡Ī
èŃ° å¸Ń
å³ ½
æ¿ ģ
æ¿ ķ
æ¿ Ł
æ¿ ¡ãĤĮãĤĭ
ç¯ ĩ
åı£ å®Ł
åı£ èª¿
åı£ èªŀ
åı£ éłŃ
åı£ åº§
åı£ ãĤ³ãĥŁ
å¤ļ ãģĦ
å¤ļ ãģı
å¤ļ ãģ«
å¤ļ ãĤģ
å¤ļ å¤§
å¤ļ çĶ°
å¤ļ åĪĨ
å¤ļ çĻº
å¤ļ çĶ¨
å¤ļ ãĢħ
å¤ļ æķ°
å¤ļ éĩį
å¤ļ å°ĳ
å¤ļ éĩı
å¤ļ æ§ĺ
å¤ļ ç¨®
å¤ļ é¡į
å¤ļ è§Ĵ
å¤ļ å½©
å¤ļ å¿Ļ
å¤ļ å²Ĳ
å¤ļ æĳ©
æĸŃ ãĤĭ
æĸŃ å®ļ
æĸŃ éĿ¢
æĸŃ è¨Ģ
æĸŃ é£Ł
æĸŃ çĦ¶
æĸŃ çµ¶
æĸŃ å¿µ
æĸŃ çĨ±
æĸŃ çīĩ
æĸŃ åĽº
æĸŃ å±¤
æĸŃ ãģĺãģ¦
æĸŃ ãģ¡åĪĩãĤĭ
èªŀ ãĤĭ
èªŀ ãĤĮãĤĭ
èªŀ åŃ¦
èªŀ æºĲ
èªŀ åı¥
èªŀ ãĤĬåĲĪãģĨ
èªŀ å½Ļ
èªŀ ãĤĬãģĭãģĳãĤĭ
èªŃ ãĤĢ
èªŃ ãĤģãĤĭ
èªŃ æĽ¸
èªŃ è§£
èªŃ èĢħ
èªŃ äºĨ
å·Ŀ ä¸Ĭ
å·Ŀ åı£
å·Ŀ å³¶
å·Ŀ ç«¯
å·Ŀ å´İ
å·Ŀ æŁ³
åĮĸ ãģĻ
åĮĸ ãģĳ
åĮĸ åŃ¦
åĮĸ åĲĪ
åĮĸ çŁ³
åĮĸ ç²§
æł¼ åŃĲ
æł¼ è¨Ģ
æł¼ å®ī
æł¼ åĪ¥
æł¼ å¥½
æł¼ å·®
æł¼ æ®µ
æł¼ ç´į
æł¼ ä»ĺãģĳ
è»Ĭ ä½ĵ
è»Ĭ åĨħ
è»Ĭ ç·ļ
è»Ĭ æ¤ľ
è»Ĭ ç¨®
è»Ĭ ä¸¡
è»Ĭ è¼ª
è»Ĭ æ¤ħåŃĲ
è«ĸ çĲĨ
è«ĸ æĸĩ
è«ĸ èĢħ
è«ĸ çĤ¹
è«ĸ èª¿
è«ĸ èŃ°
è«ĸ ãģĺãĤĭ
è«ĸ èª¬
è«ĸ äºī
è«ĸ è©ķ
ç©º ãģı
ç©º ãģį
ç©º ãģĳãĤĭ
ç©º æīĭ
ç©º ä¸Ń
ç©º æ°Ĺ
ç©º éĸĵ
ç©º èª¿
ç©º æĥ³
ç©º çĻ½
ç©º æ¯į
ç©º è»į
ç©º èħ¹
ç©º æ´ŀ
ç©º è¥²
åĵģ çī©
åĵģ çĽ®
åĵģ è³ª
åĵģ å·Ŀ
åĵģ æł¼
åĵģ ç¨®
åĵģ åĪĩãĤĮ
åıĸãĤĬ è¾¼ãĤĢ
åıĸãĤĬ åĩºãģĻ
åıĸãĤĬ ä¸ĬãģĴãĤĭ
åıĸãĤĬ åĲĪãģĨ
åıĸãĤĬ ä»ĺãģĳãĤĭ
åıĸãĤĬ çµĦãģ¿
åıĸãĤĬ ä»ĺãģĳ
åıĸãĤĬ åħ¥ãĤĮãĤĭ
åıĸãĤĬ æĽ¿ãģĪãĤĭ
åıĸãĤĬ å¯ĦãģĽãĤĭ
åıĸãĤĬ çµĦãĤĢ
åıĸãĤĬ æī±ãģĦ
åıĸãĤĬ ãģ¾ãģ¨ãĤģãĤĭ
åıĸãĤĬ æ®ĭãģĻ
åıĸãĤĬ éĻ¤ãģı
åıĸãĤĬ åĽ²ãĤĢ
åıĸãĤĬ æī±ãģĨ
åıĸãĤĬ å·»ãģı
åıĸãĤĬ æĪ»ãģĻ
æĨ ¬
æĨ ĳ
æį »
æį §ãģĴãĤĭ
æį ıéĢł
ãĥļ ãĤ¤
ãĥļ ãĤ¢
ãĥļ ãĥĢãĥ«
ãĥļ ãĥ«ãĥ¼
ãĥļ ãĥ¼ãĥĳãĥ¼
ãĥļ ãĤ¤ãĥ³ãĥĪ
ãĥļ ãĥĭãĤ¹
ãĤ´ ãĥŀ
ãĤ´ ãĥł
ãĤ´ ãĥ¼ãĥ«ãĥī
ãĤ´ ãĥªãĤºãĥł
ãĤ´ ãĥ¡ãĥ³
ãĤ´ ãĤ¸ãĥ©
åıį ãģĻ
åıį æĹ¥
åıį åĭķ
åıį çĻº
åıį éĿ¢
åıį æĪ¦
åıį æĦŁ
åıį è«ĸ
åıį çľģ
åıį è»¢
åıį ãģĻãĤĭ
åıį å¾©
åıį å¿ľ
åıį æĴĥ
åıį ç±³
åıį å°Ħ
åıį æĺł
åıį ä¹±
åıį éŁ¿
åıį åīĩ
åıį æĬĹ
åĪ¥ ãĤĮ
åĪ¥ ãģ«
åĪ¥ äºº
åĪ¥ ãĤĮãĤĭ
åĪ¥ çī©
åĪ¥ ãĢħ
åĪ¥ åĲį
åĪ¥ é¤¨
åĪ¥ ç´Ļ
åĪ¥ åĢĭ
åĪ¥ éĢĶ
åĪ¥ èįĺ
éĢ² åĩº
éĢ² åŃ¦
éĢ² è¡Į
éĢ² åħ¥
éĢ² åĮĸ
éĢ² æŃ©
éĢ² è·¯
éĢ² å±ķ
éĢ² æįĹ
éĢ² ãĤģæĸ¹
ç·ļ è·¯
ä¿¡ éķ·
ä¿¡ çĶ¨
ä¿¡ èĢħ
ä¿¡ ãģĺãĤĭ
ä¿¡ å¿µ
ä¿¡ åı·
ä¿¡ æĿ¡
ä¿¡ å¾Ĵ
ä¿¡ å·ŀ
ä¿¡ éł¼
ä¿¡ è¨Ĺ
ä¿¡ ä»°
ä¿¡ æĨĳ
ä¿Ŀ ãģ¤
ä¿Ŀ æľī
ä¿Ŀ åħ¨
ä¿Ŀ å®ī
ä¿Ŀ æĮģ
ä¿Ŀ åŃĺ
ä¿Ŀ çķĻ
ä¿Ŀ è¨¼
ä¿Ŀ å®Ī
ä¿Ŀ èŃ·
ä¿Ŀ ç®¡
ä¿Ŀ éļľ
ä¿Ŀ éĻº
éħį ãĤĭ
éħį åĲĪ
éħį åĪĨ
éħį å½ĵ
éħį ä»ĺ
éħį ç·ļ
éħį ä¿¡
éħį éĢģ
éħį éģĶ
éħį çµ¦
éħį åĤĻ
éħį ç½®
éħį å±ŀ
éħį åĪĹ
éħį å¸ĥ
éħį ç®¡
éħį æħ®
éħį åģ¶
çļĦ ä¸Ń
çļĦ ç¢º
æ©Ł ä¼ļ
æ©Ł åĭķ
æ©Ł ä½ĵ
æ©Ł åĨħ
æ©Ł èĥ½
æ©Ł ç¨®
æ©Ł æĿĲ
æ©Ł å¯Ĩ
æ©Ł æ§ĭ
æ©Ł åĻ¨
æ©Ł æ¢°
çı¾ ãģĻ
çı¾ ãģ«
çı¾ ãĤĮãĤĭ
çı¾ è¡Į
çı¾ åľ°
çı¾ çī©
çı¾ å®Ł
çı¾ éĩĳ
çı¾ åł´
çı¾ ä»£
çı¾ åľ¨
çı¾ èģ·
çı¾ å½¹
çı¾ åŃĺ
çı¾ è±¡
çı¾ çĬ¶
çı¾ åĥı
çı¾ æ³ģ
çı¾ ãĤıãĤĮãĤĭ
çı¾ æĻĤçĤ¹
åĴĮ ãĤĢ
åĴĮ åŃĲ
åĴĮ çĶ°
åĴĮ è§£
åĴĮ æĦŁ
åĴĮ é£Ł
åĴĮ å¹³
åĴĮ éŁ³
åĴĮ é¢¨
åĴĮ æŃĮ
åĴĮ å£°
åĴĮ å¤«
åĴĮ èıĵåŃĲ
èĲ½ åĲĪ
èĲ½ ä¸ĭ
èĲ½ èªŀ
èĲ½ éģ¸
èĲ½ æĽ¸ãģį
èĲ½ æľŃ
èĲ½ ãģ¡ãĤĭ
èĲ½ èĥĨ
ç¦ ª
ç¦ ®
ç¦ ¾
ç¦ į
çª ¯
çĬ §
ãĤ® ãĥ³
ãĤ® ãĤ¢
ãĤ® ãĤ¿ãĥ¼
ãĤ® ãĥķãĥĪ
ãĤ® ãĥ¥ãĤ¢
ãĤ® ãĥ«ãĥī
ãĤ® ãĤ¿ãĥªãĤ¹ãĥĪ
åħ± çĶŁ
åħ± çĶ¨
åħ± éĢļ
åħ± æľī
åħ± æĦŁ
åħ± æ¼Ķ
åħ± åŃĺ
åħ± æ¸Ī
åħ± èĳĹ
åħ± é³´
åħ± åĤ¬
åħ± è¬Ģ
åĲĳ ãģĨ
åĲĳ ãģĳ
åĲĳ ãģĳãĤĭ
åĲĳ ä¸Ĭ
åĲĳ ãģĭãģĦ
åĲĳ ãģĵãģĨ
ä»Ĭ æĹ¥
ä»Ĭ ãĤĦ
ä»Ĭ å¹´
ä»Ĭ æľĪ
ä»Ĭ åº¦
ä»Ĭ å¾Į
ä»Ĭ æĻĤ
ä»Ĭ åĽŀ
ä»Ĭ æľŁ
ä»Ĭ äºķ
ä»Ĭ æľĿ
ä»Ĭ å¤ľ
ä»Ĭ éĢ±
ä»Ĭ éłĥ
ä»Ĭ æĻ©
ä»Ĭ ãģķãĤī
ä»Ĭ æĽ´
ä»Ĭ å¹´åº¦
ä»Ĭ åŃ£
ä»Ĭ ãģ¾ãģ§
ä»Ĭ ãģ²ãģ¨ãģ¤
çµĮ ãĤĭ
çµĮ ãģ¤
çµĮ çĲĨ
çµĮ éģİ
çµĮ åĽ£
çµĮ å¸¸
çµĮ è·¯
çµĮ è²»
çµĮ åĸ¶
çµĮ çĶ±
çµĮ æŃ´
çµĮ ç·¯
åľ¨ ãĤĭ
åľ¨ æĹ¥
åľ¨ åŃ¦
åľ¨ å¤ĸ
åľ¨ æĿ¥
åľ¨ ä½ı
åľ¨ çķĻ
åľ¨ åº«
åľ¨ å®ħ
åľ¨ ç±į
åľ¨ ãĤĬæĸ¹
éĸ¢ ãģĻ
éĸ¢ æķ°
éĸ¢ éĢ£
éĸ¢ æĿ±
éĸ¢ ãĤıãĤĭ
éĸ¢ ç¨İ
éĸ¢ è¥¿
éĸ¢ ä¸İ
éĸ¢ ãĤıãĤĬ
éĸ¢ ç¯Ģ
ãĥĨãĤ£ ãĥł
ãĥĨãĤ£ ãĥ¼ãĥ³
ãĥĨãĤ£ ãĥĥãĤ·ãĥ¥
æĮģ ãģ¤
æĮģ ãģ¦ãĤĭ
æĮģ ç¶ļ
æĮģ åıĤ
çľģ ãģı
çľģ åºģ
çľģ çķ¥
çľģ ä»¤
çľģ ãĤ¨ãĥį
çľŁ ãģ«
çľŁ çĲĨ
çľŁ å®Ł
çľŁ æĦı
çľŁ ç©º
çľŁ çĽ¸
çľŁ åģ½
çľŁ å¤ı
çľŁ åī£
çľŁ çıł
çľŁ å¤ľä¸Ń
çľŁ æĳ¯
çľŁ ãĤĵä¸Ń
çľŁ éĿ¢çĽ®
æ±º ãĤģãĤĭ
æ±º æĦı
æ±º å¿ĥ
æ±º æĪ¦
æ±º ãģ¾ãĤĭ
æ±º çĿĢ
æ±º ãģĹãģ¦
æ±º èŃ°
æ±º æĸŃ
æ±º ç®Ĺ
æ±º æ¸Ī
æ½ Ľ
èĻ į
èĻ ķ
èĻ Ľ
èĻ ŀ
èĻ Ł
ãĥĦ ãĥ³
ãĥĦ ãĤŃ
ãĥĦ ãĥ¼ãĥ«
ãĥĦ ãĥªãĥ¼
ãĥĦ ãĤ±
ãĥĦ ãĥľ
ãĥĦ ãĤ¤ãĥ³
ãĥĦ ãĤ¢ãĥ¼
ãĥĦ ãĥ¼ãĥªãĥ³ãĤ°
ãĥ¼ãĤ¸ ãĥ¼ãĥ©ãĥ³ãĥī
æľ¨ ä¸ĭ
æľ¨ ãĢħ
æľ¨ æĿĳ
æľ¨ éĢł
æľ¨ æĽľ
æľ¨ æĿĲ
æľ¨ æĺŁ
æľ¨ è£½
æľ¨ æĽľæĹ¥
å¤ī ãĤĭ
å¤ī ãģĪãĤĭ
å¤ī åĭķ
å¤ī æķ°
å¤ī è³ª
å¤ī åĮĸ
å¤ī èº«
å¤ī å½¢
å¤ī å®¹
å¤ī æıĽ
å¤ī æħĭ
å¤ī æĽ´
å¤ī éĿ©
å¤ī ãĤıãĤīãģļ
å¤ī éģ·
å¤ī è²Į
åĪ© ãģı
åĪ© ãģį
åĪ© åŃĲ
åĪ© çĶ¨
åĪ© çĤ¹
åĪ© å®³
åĪ© æ¨©
åĪ© çĽĬ
åĪ© çİĩ
åĪ© ä¾¿
åĪ© ä¸ĬãģĴ
åĪ© æģ¯
åĪ© å·±
åĪ© åĽŀãĤĬ
åĪ© æ½¤
ãĥªãĤ¢ ãĥł
ãĥªãĤ¢ ãĤ¯ãĤ·ãĥ§ãĥ³
ãĥªãĤ¢ ãĥªãĥĨãĤ£
éģİ ãģ¡
éģİ å¤§
éģİ åº¦
éģİ è¨Ģ
éģİ å¤±
éģİ ç¨ĭ
éģİ æ¿Ģ
éģİ åİ»
éģİ éħ·
éģİ çĸİ
éģİ åī°
éģİ åįĬæķ°
çĽ¸ æĸ¹
çĽ¸ å½ĵ
çĽ¸ åł´
çĽ¸ å¯¾
çĽ¸ æĢ§
çĽ¸ åıį
çĽ¸ éĸ¢
çĽ¸ ç¶ļ
çĽ¸ è«ĩ
çĽ¸ éģķ
çĽ¸ äºĴ
çĽ¸ æ£Ĵ
çĽ¸ æĴ²
çĽ¸ æ¬¡ãģĲ
çĽ¸ å¤īãĤıãĤīãģļ
ãĤıãĤĭ ãģĦ
æĦĽ ãģĻ
æĦĽ äºº
æĦĽ ãģĹãģĦ
æĦĽ åŃĲ
æĦĽ çĶ¨
æĦĽ çŁ¥
æĦĽ çĿĢ
æĦĽ èªŃ
æĦĽ è»Ĭ
æĦĽ å¥½
æĦĽ æĥ³
æĦĽ æĥħ
æĦĽ ãģĻãĤĭ
æĦĽ ç§°
æĦĽ çĬ¬
æĦĽ åªĽ
æµģ ãģĻ
æµģ åĩº
æµģ ãĤĮãĤĭ
æµģ åħ¥
æµģ åĭķ
æµģ çĶ¨
æµģ éĢļ
æµģ çŁ³
æµģ å¸ĥ
æµģ åŁŁ
è©± ãģĻ
è©± ãģĽãĤĭ
è©± é¡Į
è©± ãģĹãģĭ
æ¥½ ãģĹãģĦ
æ¥½ è¦³
æ¥½ å±ĭ
æ¥½ å¤©
æ¥½ æĽ²
æ¥½ åĻ¨
æ¥½ åľĴ
æ¥½ ãģĹãĤĢ
æ¥½ ãģĹãģ¿
æ¥½ ç«ł
æ¥½ ãģĹãĤģãĤĭ
æ¥½ èŃľ
ãĥķãĤ¡ ãĥ³
ãĥķãĤ¡ ãĥ¼ãĥł
ãĥķãĤ¡ ãĥ³ãĤ¿
ãĥķãĤ¡ ãĥĥãĤ¯ãĤ¹
ãĥķãĤ¡ ãĤ¤ãĥ«
ãĥķãĤ¡ ãĤ¯ãĥĪ
ãĥķãĤ¡ ãĤ¯ãĤ¿ãĥ¼
ãĥķãĤ¡ ãĥĥãĤ·ãĥ§ãĥ³
ãĥķãĤ¡ ãĥ¬ãĥ³ãĤ¹
ãĥķãĤ¡ ãĤ·ãĤºãĥł
ãĥķãĤ¡ ãĥŁãĥªãĥ¼
èµ· ãĤĭ
èµ· ãģĻ
èµ· ãģį
èµ· ãģ¤
èµ· ç«ĭ
èµ· åĭķ
èµ· çĶ¨
èµ· æ¥Ń
èµ· çĤ¹
èµ· æºĲ
èµ· åĽł
èµ· ãģįãĤĭ
èµ· åºĬ
èµ· ãģĵãĤĭ
èº« åĪĨ
èº« éķ·
èº« ä½ĵ
èº« åĨħ
èº« è¿ĳ
èº« åħĥ
èº« æŁĦ
èº« ãģ®åĽŀãĤĬ
åĻ º
åĻ ĽãĤĢ
æĲ ĸ
æĲ ľ
ç³ ŀ
èı ±
é» ¨
é» ĥ
é» ĳ
é» ĺ
é» ŀ
ãģ£ãģ¦ ãģĭ
ãģ£ãģ¦ ãģª
ãģ£ãģ¦ ãģĦãģĨ
ä¼Ŀ ãģĪãĤĭ
ä¼Ŀ éģĵ
ä¼Ŀ è¨Ģ
ä¼Ŀ è¨ĺ
ä¼Ŀ ãĤıãĤĭ
ä¼Ŀ éĢģ
ä¼Ŀ éģĶ
ä¼Ŀ èª¬
ä¼Ŀ çµ±
ä¼Ŀ å°İ
ä¼Ŀ æī¿
ä¼Ŀ æİĪ
ä¼Ŀ æĴŃ
å·¥ åŃ¦
å·¥ äºĭ
å·¥ ä½ľ
å·¥ æ³ķ
å·¥ æ¥Ń
å·¥ åł´
å·¥ åĭĻ
å·¥ èĹ¤
å·¥ ç¨ĭ
å·¥ åħ·
å·¥ èĬ¸
å·¥ å¤«
å·¥ æĪ¿
å·¥ åŃ¦éĥ¨
æµ· ä¸Ĭ
æµ· éĿ¢
æµ· å¤ĸ
æµ· æ°´
æµ· è»į
æµ· æ´ĭ
æµ· åŁŁ
æµ· èĢģ
æµ· åºķ
æµ· è¾º
æµ· è³Ĭ
æµ· å³¡
æµ· èĭĶ
å¥³ æĢ§
å¥³ ç¥ŀ
å¥³ åĦª
å¥³ åħĲ
å¥³ çİĭ
å¥³ ç³»
å¥³ æĪ¿
å¥³ åı²
å¥³ ãģ®åŃĲ
æĶ¾ ãĤĭ
æĶ¾ ãģ¤
æĶ¾ åĩº
æĶ¾ é¡Į
æĶ¾ ç½®
æĶ¾ çģ«
æĶ¾ èª²
æĶ¾ æĺł
æĶ¾ ãĤĬè¾¼ãĤĢ
æĶ¾ æ£Ħ
æĶ¾ æµª
è»¢ çĶŁ
è»¢ çĶ¨
è»¢ ãģ¶
è»¢ å£²
è»¢ èĲ½
è»¢ éĢģ
è»¢ ãģĺãĤĭ
è»¢ èģ·
è»¢ ãģĮãĤĭ
è»¢ æıĽ
è»¢ ç§»
è»¢ åĢĴ
è»¢ åĭ¤
è»¢ è¼ī
æĤª ãģĦ
æĤª äºº
æĤª çĶ¨
æĤª æĦı
æĤª è³ª
æĤª åı£
æĤª åĮĸ
æĤª å½¹
æĤª å¾³
æĤª éŃĶ
æĤª å¤¢
æĤª å½±éŁ¿
æĤª å¾ªçĴ°
éŁ³ è³ª
éŁ³ èªŃ
éŁ³ èī²
éŁ³ éĩı
éŁ³ æ³¢
éŁ³ ç¨ĭ
éŁ³ å£°
éŁ³ æºĲ
éŁ³ éŁ¿
éŁ³ ç¬¦
é¨ ·
é¨ ĻãģĻ
ãĥ¤ ãĥŁ
ãĥ¤ ãĥ³ãĤ°
ãĥ¤ ãĥ¼ãĥī
ãĥ¤ ãĥĦ
ãĥ¤ ãĥķãĥ¼
ãĥ¤ ãĤ¯ãĤ¶
ä¸ĸ éĸĵ
ä¸ĸ ä¸»
ä¸ĸ è«ĸ
ä¸ĸ å¸¯
ä¸ĸ ç´Ģ
ä¸ĸ ä¿Ĺ
ä¸ĸ ãģ®ä¸Ń
ä¸ĸ çĶ°è°·
åıİ ãĤģãĤĭ
åıİ åħ¥
åıİ ãģ¾ãĤĭ
åıİ éĽĨ
åıİ æĶ¯
åıİ å®¹
åıİ çĽĬ
åıİ ç´į
åıİ ç¸®
åıİ éĮ²
åıİ ç©«
æĸĻ çĲĨ
æĸĻ éĩĳ
ãģªãģĦ ãģĹ
å°ĳ ãģĦ
å°ĳ ãĢħ
å°ĳ æķ°
å°ĳ éĩı
å°ĳ é¡į
å°ĳ ãģªãģı
å°ĳ äººæķ°
åįĬ æĹ¥
åįĬ å¹´
åįĬ åĪĨ
åįĬ ãģ°
åįĬ æľŁ
åįĬ æ¸Ľ
åįĬ é¡į
åįĬ è§Ĵ
åįĬ å°İ
ãģķãĤĵ ãģĸ
ãĥĹãĥŃ ãĥķãĤ£
ãĥĹãĥŃ ãĥķãĤ§
ãĥĹãĥŃ ãĥ¬ãĤ¹
ãĥĹãĥŃ ãĥĲãĤ¤
ãĥĹãĥŃ ãĤ°ãĥ©ãĥł
ãĥĹãĥŃ ãĥĩãĥ¥
ãĥĹãĥŃ ãĤ»ãĤ¹
ãĥĹãĥŃ ãĤ¸ãĤ§ãĤ¯ãĥĪ
ãĥĹãĥŃ ãĥĪãĤ³ãĥ«
ãĥĹãĥŃ ãĥĨãĤ¹ãĤ¿ãĥ³ãĥĪ
ãĥĹãĥŃ ãĥĳãĤ¬
ãĥĹãĥŃ ãĥĩãĥ¥ãĥ¼
ãĥĹãĥŃ ãĤ»ãĥĥãĤµ
ãĥĹãĥŃ ãĥ¢ãĥ¼ãĤ·ãĥ§ãĥ³
å¥½ ãģı
å¥½ ãĤĢ
å¥½ çī©
å¥½ æĦı
å¥½ æĦŁ
å¥½ è©ķ
å¥½ ãģ¾ãģĹãģĦ
å¥½ å¥ĩ
ç¨İ è¾¼
ç¨İ éĩĳ
ç¨İ æ³ķ
ç¨İ åĪ¥
ç¨İ éĸ¢
ç¨İ åıİ
ç¨İ åĪ¶
ç¨İ æºĲ
ç¨İ çİĩ
ç¨İ è¾¼ãģ¿
ç¨İ çĲĨå£«
ä¹Ĺ ãĤĮãĤĭ
ä¹Ĺ ãģĽãĤĭ
ä¹Ĺ åĭĻ
ä¹Ĺ è»Ĭ
ä¹Ĺ å®¢
ä¹Ĺ ãĤĬè¾¼ãĤĢ
ä¹Ĺ ãĤĬåĩºãģĻ
ä¹Ĺ ãģ£åıĸãĤĭ
ä¹Ĺ çĶ¨è»Ĭ
æĥ³ ãģĨ
æĥ³ å®ļ
æĥ³ èµ·
æĥ³ åĥı
ç¥ŀ åŃ¦
ç¥ŀ çĶ°
ç¥ŀ éģĵ
ç¥ŀ è©±
ç¥ŀ æ§ĺ
ç¥ŀ å®®
ç¥ŀ çĪ¶
ç¥ŀ ãģķãģ¾
ç¥ŀ èģĸ
ç¥ŀ ç§ĺ
ç¥ŀ æ®¿
ç¥ŀ å¥Ī
æ¬¡ ãģ«
æ¬¡ éķ·
æ¬¡ ãĢħ
æ¬¡ åĽŀ
æ¬¡ æľŁ
æ¬¡ å¥³
æ¬¡ åħĥ
æ¬¡ éĥİ
æ¬¡ çĶ·
æ¬¡ ä¸ĸä»£
æ¬¡ ãģĦãģ§
èī² æ°Ĺ
èī² ãĢħ
èī² ãĤĵãģª
èī² åĲĪãģĦ
èī² å½©
è¶³ ãĤĭ
è¶³ ãģĻ
è¶³ ç«ĭ
è¶³ åł´
è¶³ éŁ³
è¶³ åħĥ
è¶³ é¦ĸ
è¶³ è·¡
è¶³ ãĤĬãĤĭ
è¶³ ãĤīãģļ
èĥ½ åĭķ
èĥ½ åĬĽ
èĥ½ çİĩ
æĢĿãģĦ åĩº
æĢĿãģĦ è¾¼ãĤĢ
æĢĿãģĦ åĩºãģĻ
æĢĿãģĦ ãģ¤ãģı
æĢĿãģĦ åĪĩãĤĭ
æĢĿãģĦ ç«ĭãģ¤
æĢĿãģĦ ãĤĦãĤĬ
æĢĿãģĦ åħ¥ãĤĮ
æĢĿãģĦ éĢļãĤĬ
æĢĿãģĦ ãģ¤ãģį
æĢĿãģĦ è¾¼ãģ¿
æĢĿãģĦ ãģ£ãģįãĤĬ
æĢĿãģĦ è¿ĶãģĻ
æĢĿãģĦ ãĤĦãĤĭ
æĢĿãģĦ å½ĵãģŁãĤĭ
æĢĿãģĦ èµ·ãģĵãģĻ
æĢĿãģĦ ãģĵãĤĢ
æĢĿãģĦ åĩºãģĽãĤĭ
æĢĿãģĦ çŁ¥ãĤīãģĻ
æĢĿãģĦ æııãģı
æĢĿãģĦ æµ®ãģĭãģ¹ãĤĭ
æĢĿãģĦ ãģĮãģĳãģªãģĦ
å© ¿
éĤ Ĭ
éĤ ĳ
éĮ ¢
éĮ ®
éĮ Ħ
ãģ¼ ãģĨ
ãģ¼ ãģı
ãģ¼ ãĤĦãģı
çĶ» ä¸Ģ
çĶ» éĿ¢
çĶ» å®¶
çĶ» è³ª
çĶ» ç´ł
çĶ» åĥı
çĶ» æľŁçļĦ
éĢģ ãĤĮãĤĭ
éĢģ ä»ĺ
éĢģ éĩĳ
éĢģ ä¿¡
éĢģ æĸĻ
éĢģ ãĤĬè¾¼ãĤĢ
éĢģ ãĤĬåĩºãģĻ
éĢģ è¿İ
éģ¸ åĩº
éģ¸ å®ļ
éģ¸ ãģ¶
éģ¸ åĪ¥
éģ¸ ä»»
éģ¸ èĢĥ
éģ¸ ãģ¹ãĤĭ
éģ¸ æĬľ
éģ¸ æĮĻ
éģĭ è¡Į
éģĭ çĶ¨
éģĭ ãģ³
éģĭ ãģ¶
éģĭ éĢģ
éģĭ åĳ½
éģĭ åĭ¢
éģĭ åĸ¶
éģĭ æ²³
éģĭ èĪª
éģĭ è³ĥ
éģĭ æĲ¬
ä»» ãģĻ
ä»» ãģĽãĤĭ
ä»» æĦı
ä»» æľŁ
ä»» åĭĻ
ä»» åĳ½
ä»» å¤©
ä½į ä¸Ģä½ĵ
è¦³ ãĤĭ
è¦³ æĪ¦
è¦³ çĤ¹
è¦³ éŁ³
è¦³ å¯Ł
è¦³ å¿µ
è¦³ å®¢
è¦³ åħī
è¦³ åĬĩ
è¦³ æ¸¬
è¦³ è¦§
è¨Ī ãĤĭ
è¨Ī ä¸Ĭ
è¨Ī çĶ»
è¨Ī éĩı
è¨Ī ç®Ĺ
è¨Ī æ¸¬
éĩı åŃĲ
éĩı çĶ£
éĩı çļĦ
éĩı è²©
åĬł åħ¥
åĬł åĳ³
åĬł ãĤıãĤĭ
åĬł å·¥
åĬł èĹ¤
åĬł å®³
åĬł éĢŁ
åĬł ç®Ĺ
åĬł çĨ±
åĬł çŃĨ
åĬł çĽŁ
ãĤ¸ãĥ£ ãĥĥãĤ¯
ãĤ¸ãĥ£ ãĥł
ãĤ¸ãĥ£ ãĤº
ãĤ¸ãĥ£ ãĥ³ãĥĹ
ãĤ¸ãĥ£ ãĥ³ãĤ¯
ãĤ¸ãĥ£ ãĤ±ãĥĥãĥĪ
ãĤ¸ãĥ£ ãĥĥãĤ¸
ãĤ¸ãĥ£ ãĥĳãĥ³
ãĤ¸ãĥ£ ãĥ³ãĤ°ãĥ«
ãĤ¸ãĥ£ ãĤ¯ãĤ½ãĥ³
ãĤ¸ãĥ£ ãĤ¬ãĤ¤ãĥ¢
å±ĭ ä¸Ĭ
å±ĭ åĨħ
å±ĭ å¤ĸ
å±ĭ æł¹
å±ĭ åı°
å±ĭ æķ·
ç´ł äºº
ç´ł åŃĲ
ç´ł çĽ´
ç´ł æĿĲ
ç´ł é¡Ķ
ç´ł æĻ´
ç´ł æķµ
ç´ł æľ´
ç´ł æĹ©ãģĦ
éĻ¢ éķ·
ç¶ļ åĩº
ç¶ļ ãģĳãĤĭ
ç¶ļ è¡Į
ç¶ļ ãĢħ
ç¶ļ åł±
ç¶ļ ç·¨
æ¤ľ åĩº
æ¤ľ å®ļ
æ¤ľ äºĭ
æ¤ľ çŁ¥
æ¤ľ è¨¼
æ¤ľ æĮĻ
æ¤ľ è¨º
æ¤ľ ç´¢
æ¤ľ éĸ²
è¥¿ çĶ°
è¥¿ éĥ¨
è¥¿ åı£
è¥¿ å·Ŀ
è¥¿ æĿĳ
è¥¿ æĹ¥æľ¬
è¥¿ å®®
è¥¿ åģ´
è¥¿ æŃ¦
è¥¿ æ´ĭ
è¥¿ å°¾
è¥¿ æ¬§
è¥¿ ãĥīãĤ¤ãĥĦ
è¥¿ æļ¦
è¥¿ æµ·å²¸
éº ¥
éº µ
ï¨ ¢
ï¨ ¦
ï¨ °
ï¨ ±
ï¨ ²
ï¨ ³
ï¨ ´
ï¨ µ
ï¨ ¶
ï¨ ·
ï¨ ¸
ï¨ ¹
ï¨ º
ï¨ »
ï¨ ½
ï¨ ¾
ï¨ ¿
ï¨ Ĳ
ï¨ Ļ
ï¨ ļ
ï¨ Ľ
ãģĸ ãĤĬ
ãģĸ ãģĹ
ãģĸ ãģ£ãģ¨
ãģĸ ãģĭãĤĭ
ãĤĨ ãĤĬ
ãĤĨ ãģĨ
ãĤĨ ãģı
ãĤĨ ãģĪãĤĭ
ãĤĨ ãģĭãĤĬ
ãĤĨ ãģ¨ãĤĬ
ãĤĨ ãģ£ãģıãĤĬ
ãĤĨ ãģ§ãĤĭ
ãĤĨ ãģ£ãģŁãĤĬ
ãĤĨ ãģłãģŃãĤĭ
åħĥ æ°Ĺ
åħĥ å¹´
åħĥ ãĢħ
åħĥ åīį
åħĥ æĿ¥
åħĥ ç´ł
åħĥ ç¥ĸ
åħĥ æĹ¦
äº¤ ãģĨ
äº¤ ãģĪãĤĭ
äº¤ ä»ĺ
äº¤ ä»£
äº¤ æµģ
äº¤ æıĽ
äº¤ æĺĵ
äº¤ äºĴ
äº¤ éļĽ
äº¤ ãĤıãģĻ
äº¤ æ¸ī
äºĪ ãĤģ
äºĪ è¦ĭ
äºĪ å®ļ
äºĪ è¨Ģ
äºĪ çŁ¥
äºĪ æľŁ
äºĪ æĦŁ
äºĪ æĥ³
äºĪ éģ¸
äºĪ åł±
äºĪ ç´Ħ
äºĪ éĺ²
äºĪ ç®Ĺ
äºĪ ç¿Ĵ
äºĪ æ¸¬
äºķ ä¸Ĭ
äºķ æ²¢
äºķ æĪ¸
åĪ¶ ãģĻ
åĪ¶ å®ļ
åĪ¶ åº¦
åĪ¶ ä½ľ
åĪ¶ ç´Ħ
åĪ¶ è£ģ
åĪ¶ æľį
åĪ¶ å¾¡
åĪ¶ è¦ĩ
åĪĿ ãĤģ
åĪĿ æĹ¥
åĪĿ åĽŀ
åĪĿ æĪ¦
åĪĿ æľŁ
åĪĿ ä»£
åĪĿ æŃ©
åĪĿ æ¼Ķ
åĪĿ éłŃ
åĪĿ ç´ļ
åĪĿ ãĤģãģ¦
åĪĿ å¤ı
åĪĿ æĹ¬
åĪĿ çīĪ
åĪĿ æģĭ
åĪĿ å¯¾éĿ¢
åĪĿ å¿ĥèĢħ
ä»ķ ãĤĭ
ä»ķ ãģĪãĤĭ
ä»ķ æĸ¹
ä»ķ è¾¼ãĤĢ
ä»ķ æ§ĺ
ä»ķ ä¸ĬãģĴãĤĭ
ä»ķ åĪĩãĤĭ
ä»ķ ä¸ĬãģĴ
ä»ķ åħ¥ãĤĮ
ä»ķ èįī
ä»ķ çµĦãģ¿
ä»ķ ä¸ĬãģĮãĤĭ
ä»ķ åħ¥ãĤĮãĤĭ
ä»ķ ä¸ĬãģĮãĤĬ
ä»ķ ç«ĭãģ¦ãĤĭ
ä»ķ æİĽãģĳãĤĭ
ä»ķ æİĽãģĳ
åĽ£ åľ°
åĽ£ åŃĲ
åĽ£ éķ·
åĽ£ ä½ĵ
åĽ£ çµĲ
åĽ£ åĵ¡
åĽ£ å¡Ĭ
åĭĿ ãĤĭ
åĭĿ ãģ¤
åĭĿ èĢħ
åĭĿ åĪ©
åĭĿ ãģ¦ãĤĭ
åĭĿ è²ł
åĭĿ è¨´
åĭĿ æķĹ
åºĹ éķ·
åºĹ åĨħ
åºĹ ä¸»
åºĹ åĵ¡
åºĹ éłŃ
åºĹ èĪĹ
åľŁ æĹ¥
åľŁ åľ°
åľŁ çĶ£
åľŁ æľ¨
åľŁ å±ĭ
åľŁ äºķ
åľŁ åı°
åľŁ æĽľ
åľŁ ä½Ĳ
åľŁ æĽľæĹ¥
åľŁ å£Į
åľŁ ä¿µ
è¿Ķ äºĭ
è¿Ķ éĩĳ
è¿Ķ åĵģ
è¿Ķ ä¿¡
è¿Ķ æ¸Ī
è¿Ķ çŃĶ
è¿Ķ åį´
è¿Ķ éĤĦ
åĮĹ ä¸Ĭ
åĮĹ æĸ¹
åĮĹ éĥ¨
åĮĹ æĿ±
åĮĹ æĿĳ
åĮĹ åģ´
åĮĹ ç±³
åĮĹ äº¬
åĮĹ éĻ¸
åĮĹ æ¬§
åĮĹ æľĿé®®
åĮĹ ä¹Ŀå·ŀ
çŁ³ çĶ°
çŁ³ åİŁ
çŁ³ å·Ŀ
çŁ³ äºķ
çŁ³ é¹
çŁ³ æ²¹
çŁ³ æ¯Ľ
çŁ³ æ©ĭ
çŁ³ çĤŃ
çŁ³ ç¶¿
çŁ³ åŀ£
ä¾¡ æł¼
ä¾¡ åĢ¤
ä¾¡ åŃ¦ä¼ļ
æĥħ åĭ¢
æĥħ çĨ±
æĥħ æĻ¯
æĥħ ç·Ĵ
æĥħ ãģĳãģªãģĦ
èģ· äºº
èģ· æ¥Ń
èģ· åł´
èģ· åĭĻ
èģ· ç¨®
å¢Ĺ ãģĻ
å¢Ĺ ãģĪãĤĭ
å¢Ĺ å¤§
å¢Ĺ çĶ°
å¢Ĺ å¼·
å¢Ĺ éĢ²
å¢Ĺ åĵ¡
å¢Ĺ åıİ
å¢Ĺ ç¨İ
å¢Ĺ åĬł
å¢Ĺ è³ĩ
å¢Ĺ è¨Ń
å¢Ĺ æ¸Ľ
å¢Ĺ é¡į
å¢Ĺ ãĤĦãģĻ
å¢Ĺ å¹ħ
å¢Ĺ æ®ĸ
åķı ãģĨ
åķı å±ĭ
åķı é¡Į
åķı çŃĶ
åķı åĲĪãģĽ
åķı ãģĦãģĭãģĳãĤĭ
æ§ĺ åŃĲ
æ§ĺ ãĢħ
æ§ĺ çĽ¸
æ§ĺ å¼ı
å¼ķãģį è¾¼ãĤĢ
å¼ķãģį åĩºãģĻ
å¼ķãģį ä¸ĬãģĴãĤĭ
å¼ķãģį åıĸãĤĭ
å¼ķãģį ä¸ĬãģĴ
å¼ķãģį åĲĪãģĦ
å¼ķãģį è¿ĶãģĻ
å¼ķãģį åĩºãģĹ
å¼ķãģį ãģļãĤĭ
å¼ķãģį åıĹãģĳãĤĭ
å¼ķãģį ç¶ļãģį
å¼ķãģį å¯ĦãģĽãĤĭ
å¼ķãģį ä¸ĭãģĴ
å¼ķãģį ä¸ĭãģĴãĤĭ
å¼ķãģį èµ·ãģĵãģĻ
å¼ķãģį ç¶ĻãģĲ
å¼ķãģį åĪĨãģĳ
å¼ķãģį ç¶ļãģı
èĹ¤ æľ¬
èĹ¤ çĶ°
èĹ¤ åİŁ
èĹ¤ äºķ
èĹ¤ æ²¢
åĶ ¾
åĶ ¸ãĤĭ
åĶ ĸçĦ¶
æĩ ·
æĵ ¢
æĵ §
æĵ ´
æĵ ĩ
æĵ Ĭ
æĵ Ķ
æĵ ļ
ãģ¥ ãĤĮ
ãģ¥ ãģĳ
ãģ¥ ãģıãĤĬ
ãģ¥ ãĤīãģĦ
ãĤ¹ãĤ¿ ãĥ«
ãĤ¹ãĤ¿ ãĥ¼ãĥĪ
ãĤ¹ãĤ¿ ãĥ³ãĥī
ãĤ¹ãĤ¿ ãĥĩãĤ£
ãĤ¹ãĤ¿ ãĥ³ãĤ¹
ãĤ¹ãĤ¿ ãĥ³ãĥĹ
ãĤ¹ãĤ¿ ãĥ³ãĥĢ
ãĤ¹ãĤ¿ ãĤ¸ãĤ¢
ãĤ¹ãĤ¿ ãĥĥãĥķ
ãĤ¹ãĤ¿ ãĤ¸ãĤª
è¦ª ãģĹãģĦ
è¦ª åŃĲ
è¦ª æĸ¹
è¦ª åĪĩ
è¦ª è¿ĳ
è¦ª æĮĩ
è¦ª å¯Ĩ
è¦ª æĹı
è¦ª çĪ¶
è¦ª åĸĦ
è¦ª åıĭ
è¦ª ãģĹãĤĢ
è¦ª ä¼ļç¤¾
è¦ª æĪļ
ãĥķãĤ£ ãĥĥãĤ¯
ãĥķãĤ£ ãĥĥãĥĪ
ãĥķãĤ£ ãĥ¼ãĥĪ
ãĥķãĤ£ ãĥ¼ãĥ«ãĥī
ãĥķãĤ£ ãĥªãĥĥãĥĹ
ãĥķãĤ£ ãĥ³ãĥ©ãĥ³ãĥī
ãĥķãĤ£ ãĥªãĥĶãĥ³
ãĥķãĤ£ ãĤ®ãĥ¥ãĤ¢
è¡¨ ãģĻ
è¡¨ ãĤĮãĤĭ
è¡¨ æĺİ
è¡¨ éĿ¢
è¡¨ è¨ĺ
è¡¨ çı¾
è¡¨ æĥħ
è¡¨ é¡Į
è¡¨ åıĤ
è¡¨ ç¤º
è¡¨ ç´Ļ
è¡¨ è±¡
è¡¨ ãĤıãģĻ
è¡¨ å½°
åºĥ å¤§
åºĥ ãĤģãĤĭ
åºĥ åł´
åºĥ ãģ¾ãĤĭ
åºĥ æĿ±
åºĥ åĳĬ
åºĥ ãģĮãĤĭ
åºĥ åł±
åºĥ å³¶
åºĥ åŁŁ
åºĥ ãģĮãĤĬ
çµ¶ ãģ¤
çµ¶ ãģĪãĤĭ
çµ¶ å¤§
çµ¶ åĵģ
çµ¶ å¥½
çµ¶ æľĽ
çµ¶ æ»ħ
çµ¶ è³Ľ
çµ¶ å¦Ļ
çµ¶ çīĪ
çµ¶ åı«
çµ¶ ãģĪãģļ
çµ¶ å¥½èª¿
çµĦ åĲĪ
çµĦ ç¹Ķ
å¸¸ ãģ«
å¸¸ ãĢħ
å¸¸ æĻĤ
å¸¸ åĭĻ
å¸¸ éĢ£
å¸¸ ä»»
å¸¸ èŃĺ
å·® ãģĻ
å·® çķ°
å·® é¡į
åĳ½ åĲį
åĳ½ ãģĺãĤĭ
åĳ½ é¡Į
åĳ½ ä»¤
åĳĬ çĻº
åĳĬ çŁ¥
åĳĬ ãģĴãĤĭ
åĳĬ çĻ½
åĳĬ è¨´
ä¿® è¡Į
ä¿® çĲĨ
ä¿® æŃ£
ä¿® å¾Ĺ
ä¿® å£«
ä¿® å¾©
ä¿® ç¿Ĵ
ä¿® äºĨ
ä¿® ç¹ķ
ä¿® åŃ¦æĹħè¡Į
åł± ãģĨ
åł± éģĵ
åł± ãģĺãĤĭ
åł± åĳĬ
åł± å¾©
åł± éħ¬
é¤¨ éķ·
é¤¨ åĨħ
å³¶ çĶ°
å³¶ æł¹
å« ¡
åĿ ĳ
ç¢ İ
çħ ©
çħ İ
çħ ½ãĤĭ
é¢¨ åĬĽ
é¢¨ æ°´
é¢¨ åĳ³
é¢¨ è»Ĭ
é¢¨ åľŁ
é¢¨ æĥħ
é¢¨ ç¿Ĵ
é¢¨ æĻ¯
é¢¨ èĪ¹
é¢¨ åĪº
é¢¨ æ½®
é¢¨ ä¿Ĺ
é¢¨ éĤª
é¢¨ åĳĤ
ãĤ¶ ãĥĻãĤ¹
ãĥ¼ãĥ³ ãĤº
åı¤ ãģĦ
åı¤ ãģı
åı¤ æľ¬
åı¤ åŃ¦
åı¤ çĶ°
åı¤ æĽ¸
åı¤ æĿ¥
åı¤ ä»£
åı¤ å·Ŀ
åı¤ ä»Ĭ
åı¤ åħ¸
åı¤ æľ¬å±ĭ
åı¤ å¢³
çĶ³ ãģĻ
çĶ³ ç«ĭ
çĶ³ è¾¼
çĶ³ è¾¼ãĤĢ
çĶ³ åĳĬ
çĶ³ è«ĭ
å¤© åĽ½
å¤© åľ°
å¤© ä¸ĭ
å¤© ä½ĵ
å¤© æĸĩ
å¤© çĦ¶
å¤© äºķ
å¤© ä½¿
å¤© çļĩ
å¤© åĢĻ
å¤© æīį
å¤© ãģ·
å¤© ä¸ĭãĤĬ
å¤© æĸĩåŃ¦
åĪ¤ ãĤĭ
åĪ¤ å®ļ
åĪ¤ äºĭ
åĪ¤ æĺİ
åĪ¤ æĸŃ
åĪ¤ åĪ¥
åĪ¤ æ±º
åĪ¤ ä¾ĭ
ä½¿ ãģĨ
ä½¿ ãģĪãĤĭ
ä½¿ çĶ¨
ä½¿ åĳ½
ä½¿ å¾Ĵ
å¼ı åħ¸
æĿĳ äºº
æĿĳ ä¸Ĭ
æĿĳ çĶ°
æĿĳ éķ·
æĿĳ å±±
æĿĳ äºķ
å½¹ äºº
å½¹ çĽ®
å½¹ åł´
å½¹ èĢħ
å½¹ åĵ¡
å½¹ èģ·
å½¹ åī²
å½¹ ç«ĭãģ¤
å½¹ ç«ĭãģ¦ãĤĭ
å½¹ ãģ«ç«ĭãģ¤
æĢ¥ è¡Į
æĢ¥ ãģĲ
æĢ¥ æĢ§
æĢ¥ èĲ½
æĢ¥ å¢Ĺ
æĢ¥ éĢŁ
æĢ¥ æ¿Ģ
æĢ¥ ä¸Ĭæĺĩ
æĢ¥ éģ½
è³ĩ æľ¬
è³ĩ éĩĳ
è³ĩ çĶ£
è³ĩ è³ª
è³ĩ æł¼
è³ĩ ãģĻãĤĭ
è³ĩ æĿĲ
è³ĩ æºĲ
çĻ½ ãģĦ
çĻ½ äºº
çĻ½ æĽ¸
çĻ½ èī²
çĻ½ çŁ³
çĻ½ ç´Ļ
çĻ½ é»Ĵ
çĻ½ é³¥
æĬķ æīĭ
æĬķ åħ¥
æĬķ ä¸ĭ
æĬķ ãģĴãĤĭ
æĬķ ä¿¡
æĬķ æ©Ł
æĬķ ãģĺãĤĭ
æĬķ è³ĩ
æĬķ ä¸İ
æĬķ çĲĥ
æĬķ å½±
æĬķ ç¨¿
æĬķ æ£Ħ
æĬķ ç¥¨
æĬķ ãģĴåĩºãģĻ
æĬķ èŀįè³ĩ
æĬķ ãģĴãģĭãģĳãĤĭ
æİ¥ ãģĻ
æİ¥ çĿĢ
æİ¥ çĤ¹
æİ¥ è¿ĳ
æİ¥ ç¶ļ
æİ¥ ãģĻãĤĭ
æİ¥ ç¨®
æİ¥ å¾ħ
æİ¥ å®¢
æİ¥ è§¦
ãĤ·ãĥ£ ãĤ¤
ãĤ·ãĥ£ ãĥ³ãĥĹ
ãĤ·ãĥ£ ãĥķãĥĪ
ãĤ·ãĥ£ ãĥ¼ãĥĹ
ãĤ·ãĥ£ ãĥĪãĥ«
ãĤ·ãĥ£ ãĥ¯ãĥ¼
ãĤ·ãĥ£ ãĥĥãĤ¿ãĥ¼
æĶ¹ ãĤģãĤĭ
æĶ¹ è¡Į
æĶ¹ å®ļ
æĶ¹ æŃ£
æĶ¹ å¤ī
æĶ¹ æĤª
æĶ¹ ä¿®
æĶ¹ éĢł
æĶ¹ è£ħ
æĶ¹ èī¯
æĶ¹ åĸĦ
æĶ¹ ç¯ī
æĶ¹ ãĤģãģ¦
æĶ¹ æľŃ
æĶ¹ éĿ©
æĶ¹ æĨ²
æĶ¹ è¨Ĥ
æĶ¿ åħļ
æĶ¿ æ¨©
æĶ¿ çķĮ
æĶ¿ ä»¤
æĶ¿ çŃĸ
æĶ¿ åºľ
æĶ¿ åĭĻæ¬¡å®ĺ
æĮĩ å®ļ
æĮĩ åĲį
æĮĩ æķ°
æĮĩ åħĪ
æĮĩ åĲĳ
æĮĩ ç¤º
æĮĩ å°İ
æĮĩ æ¨Ļ
æĮĩ ä»¤
æĮĩ è¼ª
æĮĩ éĩĿ
æĮĩ æĳĺ
æĮĩ ç´ĭ
æĮĩ æı®
ä¾ĭ ãģĪãĤĭ
ä¾ĭ å¹´
ä¾ĭ ä¼ļ
ä¾ĭ æĸĩ
ä¾ĭ å¤ĸ
ä¾ĭ ãģĪãģ°
æ²» ãĤĭ
æ²» ãģĻ
æ²» å®ī
æ²» çĻĤ
æ²» çĻĴ
é¡Į ãģĻ
é¡Į åĲį
é¡Į æĿĲ
èĤ² ãģ¤
èĤ² ãĤĢ
èĤ² ãģ¡
èĤ² æĪĲ
èĤ² ãģ¦ãĤĭ
èĤ² åħĲ
èĤ² æ¯Ľ
ç¾© çĲĨ
ç¾© æ¯į
ç¾© çĪ¶
ç¾© å¡¾
åĦª ãĤĮãĤĭ
åĦª ãģĹãģĦ
åĦª åħĪ
åĦª ä½į
åĦª åĭĿ
åĦª å¾ħ
åĦª èī¯
åĦª åĭ¢
åĦª è¶Ĭ
åĦª éģĩ
åĦª éĽħ
æ¡Ī åĨħ
æ¡Ī å¤ĸ
æ¡Ī ä»¶
æ¡Ī ãģ®å®ļ
æ¹ ĺåįĹ
çĮ ªçĢ¬
ãĥĴ ãĥĪ
ãĥĴ ãĥŀ
ãĥĴ ãĥĩ
ãĥĴ ãĥĥãĥĪ
ãĥĴ ãĥ¼ãĥ«
ãĥĴ ãĥ³ãĥĪ
ãĥĴ ãĥĥãĥĹ
ãĥĴ ãĤ²
ãĥĴ ãĥ¥ãĥ¼
ãĥĴ ãĥĪãĥ©
ãĥĴ ãĥ¼ãĥŃ
ãĥĴ ãĤ¢ãĥªãĥ³ãĤ°
ãĥĴ ãĥ¥ãĥ¼ãĥŀãĥ³
ä¸ī ãģ¤
ä¸ī çĶ°
ä¸ī æľĪ
ä¸ī éĩį
ä¸ī æľ¨
ä¸ī äºķ
ä¸ī å³¶
ä¸ī éĥİ
ä¸ī å®ħ
ä¸ī æµ¦
ä¸ī æĺ§
ä¸ī èı±
ä¸ī ä½įä¸Ģä½ĵ
æľĽ ãĤĢ
æľĽ ãģ¿
æľĽ ãĤģãĤĭ
æľĽ éģł
æľĽ ãģ¾ãģĹãģĦ
å®ĺ æ°ĳ
å®ĺ åºģ
å®ĺ æĪ¿
å®ĺ åĥļ
å®ĺ éĤ¸
åħļ åĨħ
åħļ åĵ¡
åħļ é¦ĸ
åıĤ ãĤĭ
åıĤ åħ¥
åıĤ æĪ¦
åıĤ çĶ»
åıĤ åĬł
åıĤ éĻ¢
åıĤ èĢĥ
åıĤ åĪĹ
åıĤ çħ§
åıĤ æĭĿ
åıĤ èŃ°éĻ¢
åıĤ äºĭå®ĺ
æīĵ ãģ¤
æīĵ èĢħ
æīĵ éĸĭ
æīĵ ãģ¦ãĤĭ
æīĵ æĴĥ
æīĵ çł´
æīĵ åĲĪãģĽ
ãģ¤ãģı ãĤĭ
ãģ¤ãģı ãģĻ
ãģ¤ãģı ãĤĬ
ãģ¤ãģı ãģ°
ãģ¤ãģı ãĤĬåĩºãģĻ
ãģ¤ãģı ãģ¥ãģı
ãģªãĤĭ ãģ¨
ãģªãĤĭ ãģ»ãģ©
ãģªãĤĭ ãģ¹ãģı
ãĥ¬ãĥ¼ ãĤ¶
ãĥ¬ãĥ¼ ãĤ¶ãĥ¼
æŃ¢ ãĤĢ
æŃ© ãģį
æŃ© ãĤĢ
æŃ© ãģ¿
æŃ© ãģĳãĤĭ
æŃ© è¡Į
æŃ© éģĵ
æŃ© ãģįåĽŀãĤĭ
éĽ¢ ãĤĮ
éĽ¢ ãģĽãĤĭ
éĽ¢ èģ·
éĽ¢ å³¶
éĽ¢ èĦ±
éĽ¢ å©ļ
å¸° ãģĻ
å¸° ãĤĮãĤĭ
å¸° åĽ½
å¸° çµĲ
å¸° çľģ
å¸° è·¯
å¸° å±ŀ
å¸° å®ħ
å¸° éĤĦ
éĻĲ ãĤĭ
éĻĲ ãĤĬ
éĻĲ å®ļ
éĻĲ åº¦
éĻĲ çķĮ
è¿½ ãģĨ
è¿½ è¨ĺ
è¿½ æĶ¾
è¿½ åĬł
è¿½ æ±Ĥ
è¿½ è·¡
è¿½ ãģĦãĤĦ
è¿½ åıĬ
è¿½ ä¼¸
è¿½ éļı
è¿½ æĤ¼
è¿½ ãģĦãģĭãģĳãĤĭ
ãĤŃãĥ£ ãĤ¹ãĥĪ
ãĤŃãĥ£ ãĥĥãĥĹ
ãĤŃãĥ£ ãĥªãĤ¢
ãĤŃãĥ£ ãĥ³ãĥĹ
ãĤŃãĥ£ ãĥĥãĥģ
ãĤŃãĥ£ ãĥĥãĤ·ãĥ¥
ãĤŃãĥ£ ãĤ¹ãĤ¿ãĥ¼
ãĤŃãĥ£ ãĥ³ãĥĳ
ãĤŃãĥ£ ãĥ³ãĤ»ãĥ«
ãĤŃãĥ£ ãĥ³ãĥļãĥ¼ãĥ³
ãĤŃãĥ£ ãĥŃãĥ«
ãĤŃãĥ£ ãĥĹãĥĨãĥ³
ãĤŃãĥ£ ãĥĻãĥĦ
ãĤŃãĥ£ ãĥĶãĤ¿ãĥ«
ãģĿãĤĮ ãģ¨
ãģĿãĤĮ ãĤī
ãģĿãĤĮ ãģĭãĤī
ãģĿãĤĮ ãģ¨ãĤĤ
ãģĿãĤĮ ãģ»ãģ©
ãģĿãĤĮ ãģ§ãĤĤ
ãģĿãĤĮ ãģŀ
ãģĿãĤĮ ãģªãĤĬ
ãģĿãĤĮ ãģ§ãģ¯
ãģĿãĤĮ ãģ©ãģĵãĤįãģĭ
ãģĿãĤĮ ãģªãģ®ãģ«
æĶ¯ ãģĪ
æĶ¯ åĩº
æĶ¯ éĥ¨
æĶ¯ åº¦
æĶ¯ ç¤¾
æĶ¯ éħį
æĶ¯ æĮģ
æĶ¯ åºĹ
æĶ¯ çµ¦
æĶ¯ æı´
æĶ¯ éļľ
æł¹ æľ¬
æł¹ æ°Ĺ
æł¹ æĢ§
æł¹ åħĥ
æł¹ æºĲ
æł¹ åºķ
æł¹ å¹¹
æł¹ æĭł
æł¹ ä»ĺãģı
æł¹ å¼·ãģĦ
è©¦ ãģĻ
è©¦ ãģĹ
è©¦ ãģ¿
è©¦ åĲĪ
è©¦ ä½ľ
è©¦ é£Ł
è©¦ æĸĻ
è©¦ ä¹Ĺ
è©¦ ç®Ĺ
è©¦ èģ´
è©¦ ç·´
è©¦ é¨ĵ
è©¦ åĨĻ
è©¦ ãģ¿ãĤĭ
è©¦ è¡ĮéĮ¯
æĮ¯ åĭķ
æĮ¯ è¾¼
æĮ¯ è¾¼ãĤĢ
æĮ¯ æĽ¿
æĮ¯ èĪĪ
æĮ¯ ãĤĬè¾¼ãĤĢ
æĮ¯ èĪŀãģĨ
ç¨® åŃĲ
ç¨® ãĢħ
ç¨® çĽ®
ç¨® æĹı
ç¨® é¡ŀ
ãĥģãĥ£ ãĥĥãĥĪ
ãĥģãĥ£ ãĥ¼ãĥĪ
ãĥģãĥ£ ãĥ³ãĤ¹
ãĥģãĥ£ ãĥ¼ãĤ¸
ãĥģãĥ£ ãĥ¼ãĤ¿ãĥ¼
ãĥģãĥ£ ãĥ¬ãĥ³ãĤ¸
ãĥģãĥ£ ãĥ³ãĥĶ
ãĥģãĥ£ ãĥįãĥ«
ãĥģãĥ£ ãĥ³ãĥįãĥ«
ãĥģãĥ£ ãĥ¼ãĥ«ãĤº
ãĥģãĥ£ ãĤ¤ãĥ«ãĥī
ãĥģãĥ£ ãĤ¤ãĥĬ
ç©į ãĤĢ
ç©į ç«ĭ
ç©į æ¥µ
ç©į ãĤĤãĤĭ
ç©į éĽª
èģŀ ãģı
èģŀ ãģĳãĤĭ
èģŀ ãģĭãģĻ
èģŀ ãģĭãģĽãĤĭ
èģŀ ãģĵãģĪãĤĭ
ãĥķãĤ© ãĥ³
ãĥķãĤ© ãĥĪ
ãĥķãĤ© ãĥ³ãĥĪ
ãĥķãĤ© ãĥ¼ãĥī
ãĥķãĤ© ãĥ¼ãĤ¯
ãĥķãĤ© ãĥŃãĥ¼
ãĥķãĤ© ãĥªãĤª
ãĥķãĤ© ãĥ«ãĥĭãĤ¢
æºĢ ãģ¤
æºĢ æľĪ
æºĢ çĤ¹
æºĢ éĸĭ
æºĢ åĵ¡
æºĢ è¶³
æºĢ å¸Ń
æºĢ è¼ī
æºĢ ãģŁãģĻ
æºĢ å·ŀ
æºĢ èħ¹
æºĢ ãģ¡ãĤĭ
æºĢ åĸ«
æ¼Ķ åĩº
æ¼Ķ ãģĺãĤĭ
æ¼Ķ èª¬
æ¼Ķ ç®Ĺ
æ¼Ķ ç¿Ĵ
æ¼Ķ åĬĩ
æ¼Ķ æĬĢ
æ¼Ķ å¥ı
è·¯ ä¸Ĭ
è·¯ åľ°
è·¯ éĿ¢
è·¯ ç·ļ
çį ¨
çį µ
çį ¸
çį »
çį ħåŃĲ
èĮ ¹ãģ§ãĤĭ
èĶ ĵå»¶
æľ« æľŁ
æľ« ç«¯
æľ« å°¾
åı° æľ¬
åı° æķ°
åı° æīĢ
åı° åł´
åı° åĮĹ
åı° é¢¨
åı° éłŃ
åı° è©ŀ
åı° æ¹¾
åı° çĦ¡ãģĹ
éĢĢ ãģı
éĢĢ åł´
éĢĢ ç¤¾
éĢĢ éĻ¢
éĢĢ èģ·
éĢĢ æ²»
éĢĢ å¸Ń
éĢĢ åİ»
éĢĢ å±Ī
éĢł ãĤĭ
éĢł ãĤĬ
éĢł æĪĲ
éĢł å½¢
éĢł èĪ¹
éģĶ ãģĻ
éģĶ äºº
éģĶ æĪĲ
éģĶ ãģĻãĤĭ
éģĶ ä¹Ł
è¦ĸ åĬĽ
è¦ĸ éĩİ
è¦ĸ çĤ¹
è¦ĸ ç·ļ
è¦ĸ å¯Ł
è¦ĸ è¦ļ
è¦ĸ åºģ
è¦ĸ çķĮ
è¦ĸ èģ´
è¨Ń ãģĳãĤĭ
è¨Ń å®ļ
è¨Ń ç«ĭ
è¨Ń è¨Ī
è¨Ń åķı
è¨Ń åĤĻ
è¨Ń ç½®
ãģŁãģĦ ãģĻ
ãģŁãģĦ ãģĹãģ¦
ãģŁãģĦ ãģĹãģŁ
ãģŁãģĦ ãģ¦ãģĦ
ãģŁãģĦ ãģ¸ãĤĵ
æĹ© ãĤģ
æĹ© ãĢħ
æĹ© æľŁ
æĹ© å·Ŀ
æĹ© æĢ¥
æĹ© æľĿ
æĹ© éĢŁ
æĹ© èµ·ãģį
å¾ħ ãģ¤
å¾ħ æ©Ł
å¾ħ ãģ¦ãĤĭ
å¾ħ æľĽ
å¾ħ ãģŁãģĻ
å¾ħ éģĩ
å¾Ĺ æĦı
å¾Ĺ çĤ¹
å¾Ĺ ãģªãģĦ
çµ¦ ä»ĺ
çµ¦ é£Ł
çµ¦ æĸĻ
çµ¦ ä¸İ
çµ¦ æ²¹
çµĤ ãĤĭ
çµĤ ãĤĬ
çµĤ ãģĪãĤĭ
çµĤ æĪ¦
çµĤ çĤ¹
çµĤ çµĲ
çµĤ ãĤıãĤĭ
çµĤ èº«
çµĤ æľ«
çµĤ åĢ¤
çµĤ å§ĭ
çµĤ äºĨ
çµĤ çĽ¤
çµĤ çĦī
æĿ¾ æľ¬
æĿ¾ åŃĲ
æĿ¾ çĶ°
æĿ¾ ä¸ĭ
æĿ¾ å±±
æĿ¾ åİŁ
æĿ¾ äºķ
æĿ¾ å²¡
æĿ¾ æ°¸
æĿ¾ å°¾
æĿ¾ æµ¦
éĽ£ ãģĹãģĦ
éĽ£ è§£
éĽ£ çĤ¹
éĽ£ æ°ĳ
éĽ£ æĺĵ
åĬ© ãģĳãĤĭ
åĬ© æīĭ
åĬ© éķ·
åĬ© è¨Ģ
åĬ© æĪĲ
åĬ© ãģĭãĤĭ
åĬ© æķĻæİĪ
å¯Ł çŁ¥
ãģ¡ãĤĥ ãģĨ
ç´Ħ æĿŁ
å¸Ĥ ç«ĭ
å¸Ĥ éķ·
å¸Ĥ åĨħ
å¸Ĥ åł´
å¸Ĥ æ°ĳ
å¸Ĥ å·Ŀ
å¸Ĥ è²©
å¸Ĥ èŃ°ä¼ļ
å¸Ĥ å½¹æīĢ
å¸Ĥ çĶºæĿĳ
å½¢ æĪĲ
å½¢ å¼ı
å½¢ å®¹
å½¢ æħĭ
å½¢ çĬ¶
åī² ãĤĭ
åī² ãģı
åī² ãĤĮ
åī² ãĤĮãĤĭ
åī² åĲĪ
åī² é«ĺ
åī² å¼ķ
åī² å®ī
åī² æĦĽ
ç«¯ åŃĲ
ç«¯ çļĦ
ç«¯ æľ«
ç·¨ ãĤĢ
ç·¨ åħ¥
ç·¨ æĪĲ
ç·¨ éĽĨ
ç·¨ æĽ²
ç·¨ èĳĹ
ç·ı ãģ¦
ç·ı åĲĪ
ç·ı éķ·
ç·ı ä¼ļ
ç·ı ä½ĵ
ç·ı çĲĨ
ç·ı æķ°
ç·ı åĭĻ
ç·ı è£ģ
ç·ı ç§°
ç·ı é¡į
ç·ı åĭ¢
ç·ı æĭ¬
ç·ı çłĶ
ç·ı ãģĺãģ¦
è¾² åľ°
è¾² æ¥Ń
è¾² åł´
è¾² æ°ĳ
è¾² å®¶
è¾² æĿĳ
è¾² æĶ¿
è¾² åįĶ
è¾² åľĴ
è¾² èĸ¬
è¾² ä½ľçī©
è¾² çĶ£çī©
éĥ½ ç«ĭ
éĥ½ ä¼ļ
éĥ½ åĨħ
éĥ½ åº¦
éĥ½ å¿ĥ
éĥ½ å®®
éĥ½ çŁ¥äºĭ
éĥ½ éģĵåºľçľĮ
æĹ¥æľ¬ ä¸Ģ
æĹ¥æľ¬ äºº
æĹ¥æľ¬ åĽ½
æĹ¥æľ¬ é£Ł
æĹ¥æľ¬ èªŀ
æĹ¥æľ¬ æµ·
æĹ¥æľ¬ æ©ĭ
æĹ¥æľ¬ éħĴ
æĹ¥æľ¬ åĨĨ
æĹ¥æľ¬ ãĥĨãĥ¬ãĥĵ
æĹ¥æľ¬ çµĮæ¸Ī
æĹ¥æľ¬ åħ±çĶ£åħļ
æĹ¥æľ¬ éĬĢè¡Į
æ¸Ľ ãĤĭ
æ¸Ľ å°ĳ
æ¸Ľ ç¨İ
æ¸Ľ éĩı
æ¸Ľ éĢŁ
æ¸Ľ ãĤīãģĻ
æ¸Ľ é¡į
éłŃ ä¸Ĭ
éłŃ éĥ¨
éłŃ çĹĽ
éłŃ èĦ³
çķ° åĽ½
çķ° åĭķ
çķ° æĢ§
çķ° è³ª
çķ° èŃ°
çķ° è«ĸ
çķ° å¤ī
çķ° æ§ĺ
çķ° å¸¸
çķ° ä¾ĭ
çķ° ãģªãĤĭ
çķ° ç«¯
è£ģ ãģı
è£ģ å®ļ
è£ģ éĩı
æ¨© åĬĽ
æ¨© åĪ©
æ¨© éĻĲ
æ¨© çĽĬ
æ¨© å¨ģ
åĤĻ ãģĪãĤĭ
åĤĻ ãĤıãĤĭ
åĤĻ èĢĥ
åĤĻ èĵĦ
æ¶Ī ãģĻ
æ¶Ī ãģĪãĤĭ
æ¶Ī åĮĸ
æ¶Ī å¤±
æ¶Ī æ¥µ
æ¶Ī éĺ²
æ¶Ī è²»
æ¶Ī åİ»
æ¶Ī æ»ħ
æ¶Ī æ¯Ĵ
æ¶Ī èĢĹ
ãĩ °
ãĩ ±
ãĩ ²
ãĩ ³
ãĩ ´
ãĩ µ
ãĩ ¶
ãĩ ·
ãĩ ¸
ãĩ ¹
ãĩ º
ãĩ »
ãĩ ¼
ãĩ ½
ãĩ ¾
ãĩ ¿
ãĥ¦ ãĥ¼ãĤ¹
ãĥ¦ ãĥ¼ãĥĨãĤ£
ãĥ¦ ãĥ¼ãĥŃ
ãĥ¦ ãĥĬãĤ¤
ãĥ¦ ãĥ¼ãĥ¢
ãĥ¦ ãĥĢãĥ¤
ãĥ¦ ãĥįãĤ¹ãĤ³
ãĥĺ ãĤ¢
ãĥĺ ãĤ¿
ãĥĺ ãĥĥãĤ¸
ãĥĺ ãĥĵãĥ¼
ãĥĺ ãĤ¯ãĤ¿ãĥ¼ãĥ«
æľĿ é£Ł
æľĿ åĪĬ
å®¹ éĩı
å®¹ åĻ¨
å®¹ èªį
å®¹ çĸĳ
å®¹ æĺĵ
å®¹ å§¿
å®¹ èµ¦
åı¯ æ±º
åı¯ èĥ½
åı¯ è¦ĸ
åı¯ ç¬ĳ
åı¯ åĵĢ
å¤± æ¥Ń
å¤± çĤ¹
å¤± æł¼
å¤± æľĽ
å¤± æķĹ
å¤± ç¤¼
å¤± è¸ª
ãĤ¢ãĥ« ãĤ¯
ãĤ¢ãĥ« ãĥŁ
ãĤ¢ãĥ« ãĤ¼
ãĤ¢ãĥ« ãĤ³ãĥ¼ãĥ«
ãĤ¢ãĥ« ãĥĲãĤ¤ãĥĪ
ãĤ¢ãĥ« ãĥĹãĤ¹
ãĤ¢ãĥ« ãĥĲãĥł
ãĤ¢ãĥ« ãĤ´ãĥªãĤºãĥł
éģ© ãģĻ
éģ© åĲĪ
éģ© çĶ¨
éģ© å½ĵ
éģ© åº¦
éģ© æŃ£
éģ© æĢ§
éģ© æł¼
éģ© å¿ľ
éģ© å®ľ
ä½ı ãĤĢ
ä½ı äºº
ä½ı æīĢ
ä½ı å±ħ
ä½ı å®ħ
ä½ı åıĭ
ä½ı ãģ¾ãģĦ
è¦ļ ãģĪ
è¦ļ ãģĪãĤĭ
è¦ļ ãĤģãĤĭ
è¦ļ ãģ¾ãģĻ
è¦ļ æĤŁ
åĽ³ ãĤĭ
åĽ³ éĿ¢
åĽ³ è§£
åĽ³ è¡¨
åĽ³ å¼ı
åĽ³ å½¢
åĽ³ éĳĳ
åĩ¦ å¥³
åĩ¦ ç½®
åĩ¦ åĪĳ
åĩ¦ éģĩ
åĩ¦ ç½°
ãģ£ãģ ´ãĤĬ
åįĹ åĽ½
åįĹ æĸ¹
åįĹ éĥ¨
åįĹ æĿ±
åįĹ è¥¿
åįĹ åĮĹ
åįĹ æ¥µ
åįĹ åģ´
åįĹ äº¬
åįĹ ãĤ¢ãĥķãĥªãĤ«
åįĺ ãģ«
åįĺ ä¸Ģ
åįĺ ä½ĵ
åįĺ èª¿
åįĺ èº«
åįĺ ä½į
åįĺ ä¾¡
åįĺ ãģªãĤĭ
åįĺ çĭ¬
åįĺ ç´Ķ
åįĺ è¡Įæľ¬
ãĥ³ãĥĹ ãĥª
ãĥ³ãĥĹ ãĥ¼ãĥ«
ä¼ĳ ãĤĢ
ä¼ĳ æĹ¥
ä¼ĳ ãĤģãĤĭ
ä¼ĳ æ¥Ń
ä¼ĳ æŃ¢
ä¼ĳ é¤Ĭ
ä¼ĳ æģ¯
ä¼ĳ æļĩ
ä¼ĳ æĨ©
ç´° ãģĦ
ç´° ãģĭ
ç´° åĪĨ
ç´° éĥ¨
ç´° å·Ŀ
ç´° å·¥
ç´° ãģĭãģĦ
ç´° èĥŀ
ç´° èıĮ
è²· ãģĨ
è²· ãģĪãĤĭ
è²· çī©
è²· åıĸ
è²· åıİ
åĨį çĶŁ
åĨį ä¼ļ
åĨį çĻº
åĨį ãģ³
åĨį åº¦
åĨį éĸĭ
åĨį çı¾
åĨį ä¸ī
åĨį ç·¨
åĨį èĢĥ
åĨį å»º
åĨį å©ļ
åĨį è²©
åĨį æ¤ľè¨İ
ãģĿãģĨ ãģł
ãģĿãģĨ ãģĹãģ¦
ãģĿãģĨ ãģĿãģĨ
ãģĿãģĨ ãģĹãģŁ
ãģĿãģĨ ãģĦãģĨ
ãģĿãģĨ ãģĦãĤĦ
ãģĿãģĨ ãģĵãģĨ
ãģĿãģĨ ãģ§ãģĻ
ãģĿãģĨ ãģĻãĤĭãģ¨
ãģĿãģĨ ãģĦãģ£ãģŁ
ãģĿãģĨ ãģĦãģĪãģ°
ãģĿãģĨ ãģªãĤĭãģ¨
æł¡ éķ·
æł¡ åĨħ
æł¡ æŃ£
æł¡ èĪİ
æ¥µ åĬĽ
æ¥µ åº¦
æ¥µ æĦı
æ¥µ æĿ±
æ¥µ éĻĲ
æ¥µ ç«¯
æ¥µ ç§ĺ
æ¥µ ãĤģãģ¦
ç§ĳ åŃ¦
ç§ĳ çĽ®
è£ħ ãģĨ
è£ħ çĿĢ
è£ħ åĤĻ
è£ħ ç½®
è£ħ é£¾
è£ľ ãģĨ
è£ľ æŃ£
è£ľ å¼·
è£ľ è¶³
è£ľ ä¿®
è£ľ çµ¦
è£ľ åĬ©
è£ľ æ¬ł
è£ľ å®Į
è£ľ ä½Ĳ
è£ľ åħħ
è£ľ åĦŁ
èĢĥ ãģĪãĤĭ
èĢĥ æ¡Ī
èĢĥ å¯Ł
èĢĥ æħ®
èĢĥ åı¤åŃ¦
æ´» æ°Ĺ
æ´» åĭķ
æ´» çĻº
æ´» çĶ¨
æ´» åĬĽ
æ´» æĢ§
æ´» åŃĹ
æ´» ãģĭãģĻ
æ´» èºį
æ¯į åĽ½
æ¯į åŃĲ
æ¯į ä½ĵ
æ¯į èªŀ
æ¯į è¦ª
æ¯į æł¡
ç¾İ äºº
ç¾İ åŃ¦
ç¾İ ãģĹãģĦ
ç¾İ å¥³
ç¾İ å®¹
ç¾İ å°ĳå¥³
èī¯ å¿ĥ
èī¯ è³ª
èī¯ å¥½
èī¯ èŃĺ
èĭ¦ ãģĦ
èĭ¦ æīĭ
èĭ¦ ãģĹãģĦ
èĭ¦ æĪ¦
èĭ¦ æĥħ
èĭ¦ éĽ£
èĭ¦ ç¬ĳ
èĭ¦ çĹĽ
èĭ¦ ãģĹãĤĢ
èĭ¦ ãģĹãģ¿
èĭ¦ ãģĹãĤģãĤĭ
èĭ¦ æĤ©
ç½® ãģı
éĺ² ãģĲ
éĺ² ãģĴãĤĭ
éĺ² æ°´
éĺ² æŃ¢
éĺ² å¾¡
éĺ² çģ½
éĺ² çĬ¯
è¸ Ĳ
ãĤ² ãĥ«
ãĤ² ãĤ¤
ãĤ² ãĥ¼ãĥĪ
ãĤ² ãĤ¹ãĥĪ
ãĤ² ãĥ¼ãĥł
ãĤ² ãĤ¤ãĥĦ
ãĤ² ãĥªãĥ©
ãĤ² ãĥİãĥł
ãĥ³ãĤ¿ ãĤ¤ãĥ³
ãĤ¹ãĥĨ ãĤ¤
ãĤ¹ãĥĨ ãĤŃ
ãĤ¹ãĥĨ ãĥĥãĥĹ
ãĤ¹ãĥĨ ãĥ¼ãĤ¸
ãĤ¹ãĥĨ ãĥ¼ãĤ·ãĥ§ãĥ³
ãĤ¹ãĥĨ ãĥ¼ãĤ¿
ãĤ¹ãĥĨ ãĥĥãĤ«ãĥ¼
ãĤ¹ãĥĨ ãĥ¼ãĤŃ
ãĤ¹ãĥĨ ãĥ¬ãĤª
ãĤ¹ãĥĨ ãĥ³ãĥ¬ãĤ¹
ãģĭãģĦ ãģª
ãģĭãĤī ãģĦ
ãģĭãĤī ãĤĢ
ãģĭãĤī ãģł
ãģĭãĤī ãģĭãģĨ
éĢŁ ãģĦ
éĢŁ åº¦
éĢŁ è¨ĺ
éĢŁ åł±
éĢŁ ãĤĦãģĭ
éĢŁ æĶ»
åŃĹ å¹ķ
åŃĺ ãģĺ
åŃĺ åĪĨ
åŃĺ åľ¨
åŃĺ ç¶ļ
åŃĺ ãģĺãĤĭ
çĽĽ ãĤĭ
çĽĽ ãĤĵ
çĽĽ å¤§
çĽĽ å²¡
çĽĽ ãĤĬè¾¼ãĤĢ
çĽĽ æ³ģ
å¾© åħĥ
å¾© å¸°
å¾© æ´»
å¾© ç¿Ĵ
å¾© åĪĬ
å¾© èĪĪ
å¾© åĪ»
å¾© æĹ§
å¾© è®
èª¬ ãģı
èª¬ æĺİ
èª¬ æķĻ
èª¬ å¾Ĺ
åºģ èĪİ
å¼µ ãĤĮãĤĭ
æĿĲ è³ª
å¯Ħ ä»ĺ
å¯Ħ ä¸İ
å¯Ħ ç¨¿
å¯Ħ è´Ī
å¯Ĩ ãģĭ
å¯Ĩ åº¦
å¯Ĩ çĿĢ
å¯Ĩ æİ¥
å¯Ĩ è¼¸
å¿µ éłŃ
å¿µ é¡ĺ
å¿ħ è¦ĭ
å¿ħ èªŃ
å¿ħ çĦ¶
å¿ħ åĭĿ
å¿ħ ä¿®
å¿ħ æŃ»
å¿ħ æ®º
å¿ħ èĩ³
å¿ħ éľĢ
å¿ħ éłĪ
å¿ľ ãģĪãĤĭ
å¿ľ çĶ¨
å¿ľ å¯¾
å¿ľ ãģĺãĤĭ
å¿ľ æĢ¥
å¿ľ çŃĶ
å¿ľ æı´
å¿ľ åĭŁ
è²ł ãģĳãĤĭ
è²ł åĤ·
è²ł æĭħ
è²ł åĤµ
è²ł èį·
æĽ² çĽ®
æĽ² ãģĴãĤĭ
æĽ² ç·ļ
æĽ² ãģĮãĤĭ
çķª æīĭ
çķª åľ°
çķª å¤ĸ
çķª çĽ®
çķª çµĦ
çķª åı·
çķĻ ãĤģãĤĭ
çķĻ åŃ¦
çķĻ æĦı
çķĻ ãģ¾ãĤĭ
çķĻ ä¿Ŀ
çķĻ åŃ¦çĶŁ
ç§° ãģĻ
ç§° ãģĪãĤĭ
ç§° ãģĻãĤĭ
ç§° åı·
è«ĩ åĲĪ
è«ĩ ç¤¾
è«ĩ è©±
æıĽ ãģĪ
æıĽ æ°Ĺ
æıĽ éĩĳ
æıĽ ç®Ĺ
æ®µ ãĢħ
æ®µ åıĸãĤĬ
æ®µ èĲ½
æ®µ éļİ
çŃī ãģĹãģĦ
çŃī ãĢħ
çŃī ä¾¡
çŃī ç´ļ
çĹħ ãĤĢ
çĹħ äºº
çĹħ æ°Ĺ
çĹħ çĲĨ
çĹħ éĻ¢
çĹħ å®¤
çĹħ çĬ¶
çĹħ æ£Ł
å»º ãģ¤
å»º ãģ¦
å»º åĽ½
å»º çī©
å»º åīį
å»º ãģ¦ãĤĭ
å»º éĢł
å»º æĿĲ
å»º ç¯ī
é¤Ĭ ãģĨ
é¤Ĭ åŃĲ
é¤Ĭ æĪĲ
é¤Ĭ èĤ²
é¤Ĭ èŃ·
é¤Ĭ èĢģ
é¤Ĭ æ®ĸ
æŀľ çī©
æŀľ å®Ł
æŀľ ãģ¦ãĤĭ
æŀľ ãģŁãģĻ
æŀľ æ¨¹
æŀľ ãģŁãģĹãģ¦
æŀľ ãģŁãģĽãĤĭ
åķĨ äºº
åķĨ çĶ¨
åķĨ æ³ķ
åķĨ æ¥Ń
åķĨ ç¤¾
åķĨ å£²
åķĨ åĵģ
åķĨ å·¥
åķĨ åºĹ
åķĨ è«ĩ
åķĨ æ¨Ļ
åķĨ åıĸå¼ķ
æ§ĭ ãģĨ
æ§ĭ ãģĪãĤĭ
æ§ĭ åĨħ
æ§ĭ æĸĩ
æ§ĭ æĪĲ
æ§ĭ æĥ³
æ§ĭ éĢł
æ§ĭ åĽ³
æ§ĭ ç¯ī
å²¡ æľ¬
å²¡ çĶ°
å²¡ å±±
å²¡ éĩİ
å²¡ å´İ
ç®Ĺ åĩº
ç®Ĺ å®ļ
ç®Ĺ æķ°
çĭ¬ åŃ¦
çĭ¬ ç«ĭ
çĭ¬ èĩª
çĭ¬ çī¹
çĭ¬ æĸŃ
çĭ¬ èº«
çĭ¬ è£ģ
çĭ¬ åīµ
çĭ¬ åįł
ç¬ĳ ãģĨ
ç¬ĳ ãĤĢ
ç¬ĳ ãģĪãĤĭ
ç¬ĳ ãģ¿
ç¬ĳ é¡Ķ
ç¬ĳ ãĤıãģĽãĤĭ
ç¿Ĵ å¾Ĺ
ç¿Ĵ æħ£
åĻ¨ å®ĺ
åĻ¨ åħ·
ä¸İ ãĤĭ
ä¸İ ãģĪãĤĭ
ä¸İ åħļ
ãĤ¹ãĤ¯ ãĥ¼ãĥ«
ãĤ¹ãĤ¯ ãĤ¨ãĤ¢
ãĤ¹ãĤ¯ ãĥŃãĥ¼ãĥ«
ãĤ¹ãĤ¯ ãĥªãĥ¼ãĥ³
ãĤ¹ãĤ¯ ãĥªãĥĹãĥĪ
æľª ãģł
æľª å®ļ
æľª æĺİ
æľª çŁ¥
æľª æĿ¥
æľª çĦ¶
æľª æºĢ
æľª éģĤ
æľª çĨŁ
æľª ãģłãģ«
æľª çµĮé¨ĵ
æľª æĪĲå¹´
å®¢ è¦³
å®¢ å®¤
å®¢ å¸Ń
å®® æľ¬
å®® åĨħ
å®® æ²¢
å®® å´İ
å®® æ®¿
å®® åŁİ
å®® å»·
åħĲ å³¶
åħĲ ç«¥
å¤ľ éĸĵ
å¤ľ ç©º
å¤ľ æĻ¯
å¤ľ æĺİãģĳ
ãĤ¤ãĥ« ãĤ«
è¦ı å®ļ
è¦ı æł¼
è¦ı åĪ¶
è¦ı ç´Ħ
è¦ı ç¨ĭ
è¦ı åīĩ
è¦ı ç¯Ħ
è¦ı å¾ĭ
ãģ¨ãĤĤ ãģªãģĨ
ãģ¨ãĤĤ ãģĭãģı
ãģ¨ãĤĤ ãģĤãĤĮ
è¨¼ äºº
è¨¼ æĽ¸
è¨¼ æĺİ
è¨¼ è¨Ģ
è¨¼ æĭł
è¨¼ åĪ¸
ãģŁãĤĬ ãĤĭ
åĭ¢ ãģĦ
åĭ¢ åĬĽ
ãĥķãĥ© ãĥĥãĥĪ
ãĥķãĥ© ãĥ³ãĥģ
ãĥķãĥ© ãĥĥãĤ·ãĥ¥
ãĥķãĥ© ãĥ¯ãĥ¼
ãĥķãĥ© ãĥ¡ãĥ³
ãĥ³ãĥĨ ãĥ¼ãĤ·ãĥ§ãĥ³
æŃ» ä½ĵ
æŃ» å¾Į
æŃ» èĢħ
æŃ» ãģŃãĤĭ
æŃ» åİ»
æŃ» ãģ¬
æŃ» åĪĳ
æŃ» äº¡
æŃĮ ãģĨ
æŃĮ ãģĪãĤĭ
æŃĮ æīĭ
æŃĮ å£°
æŃĮ åĬĩ
æŃĮ è©ŀ
åĬ´ åĬĽ
åĬ´ åĭĻ
åĬ´ çµĦ
åĬ´ ä½¿
åĬ´ çģ½
å¿« ãģĦ
å¿« æĦŁ
å¿« æ¥½
å¿« éģ©
å¿« æĻ´
åīµ ãĤĭ
åīµ åĩº
åīµ ç«ĭ
åīµ ä½ľ
åīµ æ¥Ń
åīµ éĢł
åīµ è¨Ń
åīµ å§ĭ
åīµ åĪĬ
åīµ ãĤĬåĩºãģĻ
åīµ ä¾¡åŃ¦ä¼ļ
æĬľ æľ¬
æĬľ ç¾¤
æĬľ ç²ĭ
æĬľ ãģĳåĩºãģĻ
æ³¢ éķ·
æ³¢ åĭķ
æ³¢ æķ°
æ³¢ åıĬ
æ³¢ ç´ĭ
æ³¨ åħ¥
æ³¨ ãģĲ
æ³¨ æĸĩ
æ³¨ çĽ®
æ³¨ å°Ħ
æ³¨ éĩĪ
åĮ» åŃ¦
åĮ» éĻ¢
åĮ» å¸«
åĮ» çĻĤ
åĮ» åŃ¦éĥ¨
ãĤ·ãĥ¥ ãĥ¼
ãĤ·ãĥ¥ ãĥ¼ãĥĪ
ãĤ·ãĥ¥ ãĥ¼ãĤº
ãĤ·ãĥ¥ ãĤ¿ãĤ¤ãĥ³
æ¸Ī ãĤĢ
æ¸Ī ãģ¿
æ¸Ī ãģ¾ãģĻ
æ¸Ī ãģ¾ãģĽãĤĭ
è»į äºº
è»į åĽ½
è»į äºĭ
è»į éĥ¨
è»į åĽ£
è»į åĤĻ
è»į éļĬ
ãģ©ãģĨ ãģĹ
ãģ©ãģĨ ãģĭ
ãģ©ãģĨ ãĤĤ
ãģ©ãģĨ ãģĽ
ãģ©ãģĨ ãģĹãģ¦
ãģ©ãģĨ ãģĦãģĨ
ãģ©ãģĨ ãģŀ
ãģ©ãģĨ ãģĵãģĨ
ãģ©ãģĨ ãĤĦãĤī
ãģ©ãģĨ ãģ«ãģĭ
ãģ©ãģĨ ãģ«ãĤĤ
ãģ©ãģĨ ãģĹãģ¦ãĤĤ
ç§» ãĤĭ
ç§» ãģĻ
ç§» è¡Į
ç§» åħ¥
ç§» åĭķ
ç§» æ°ĳ
ç§» è»¢
ç§» ä½ı
ç§» æ¤į
ç§» ç±į
ç§» èŃ²
é£Ľ ãģ¶
é£Ľ ãģ°ãģĻ
é£Ľ èºį
èŃĺ åĪ¥
æ®ĭ é«ĺ
æ®ĭ æ¥Ń
æ®ĭ å¿µ
æ®ĭ çķĻ
æ®ĭ èĻĲ
æ®ĭ éħ·
ãĥķãĤ§ ãĤ¢
ãĥķãĤ§ ãĥªãĥ¼
ãĥķãĤ§ ãĥ¼ãĤ¹
ãĥķãĤ§ ãĤ¤ãĤ¹
ãĥķãĤ§ ãĥ©ãĥ¼
ãĥķãĤ§ ãĥ¼ãĤº
ãĥķãĤ§ ãĤ¹ãĥĨãĤ£
ãĥķãĤ§ ãĥŁãĥĭ
ç²¾ åŃĲ
ç²¾ éĢļ
ç²¾ åĬĽ
ç²¾ åº¦
ç²¾ éĢ²
ç²¾ å¯Ĩ
ç²¾ è£½
ç²¾ éľĬ
ç²¾ ä¸ĢæĿ¯
è¬Ľ åĴĮ
è¬Ľ ãģĺãĤĭ
è¬Ľ ç¾©
è¬Ľ æ¼Ķ
è¬Ľ ç¿Ĵ
è¬Ľ åº§
è¬Ľ å¸«
è¬Ľ åłĤ
è¬Ľ ãģļãĤĭ
è¬Ľ è«ĩç¤¾
æĴĥ ãģ¤
æĮģãģ¡ ä¸»
æĮģãģ¡ è¾¼ãĤĢ
æĮģãģ¡ åĩºãģĻ
æĮģãģ¡ ä¸ĬãģĴãĤĭ
æĮģãģ¡ åĲĪãĤıãģĽãĤĭ
æĮģãģ¡ æŃ©ãģı
æĮģãģ¡ å¸°ãĤĭ
ç¢º å®ļ
ç¢º ç«ĭ
ç¢º å®Ł
ç¢º ä¿¡
ç¢º ä¿Ŀ
ç¢º èªį
ç¢º çİĩ
ç¢º åĽº
âĢ §
âĢ Ĺ
âĢ ĺ
âĢ ľ
âĢ Ŀ
çĴ ½
çĴ ĥ
ä¸¡ æīĭ
ä¸¡ åĽ½
ä¸¡ æĸ¹
ä¸¡ ç«ĭ
ä¸¡ éĿ¢
ä¸¡ èĢħ
ä¸¡ è«ĸ
ä¸¡ è¦ª
ä¸¡ æĽ¿
ä¸¡ åģ´
å®¤ éķ·
å®¤ åĨħ
å®Ī ãĤĮãĤĭ
å®Ī åĤĻ
å®Ī èŃ·
å¤ª ãĤĭ
å¤ª ãģĦ
å¤ª åŃĲ
å¤ª çĶ°
å¤ª é¼ĵ
ãģĭãģĻ ãģĭ
ãĤ¯ãĥª ãĥĥãĤ¯
ãĤ¯ãĥª ãĥĥãĥĹ
ãĤ¯ãĥª ãĥĭãĥĥãĤ¯
ãĤ¯ãĥª ãĤ¹ãĥŀ
ãĤ¯ãĥª ãĥ¼ãĥĭãĥ³ãĤ°
ãĤ¯ãĥª ãĥ³ãĥĪãĥ³
ãĤ¯ãĥª ãĤ¨ãĤ¤ãĥĨãĤ£ãĥĸ
ãĤ¯ãĥª ãĤ¹ãĤ¿ãĥ«
éģķ æ³ķ
éģķ åıį
éģķ æĨ²
éģķ åĴĮæĦŁ
ä½Ļ ãĤĭ
ä½Ļ åľ°
ä½Ļ åĪĨ
ä½Ļ è¨Ī
ä½Ļ è«ĩ
ä½Ļ åĦĢ
ä½Ļ è£ķ
ä½Ļ åī°
ä½Ļ éŁ»
ãģªãĤĵ ãģĭ
ãģªãĤĵ ãģ¨
ãģªãĤĵ ãĤī
ãģªãĤĵ ãģ¦
ãģªãĤĵ ãģĽ
ãģªãĤĵ ãģ§
ãģªãĤĵ ãģ¨ãĤĤ
ãģªãĤĵ ãģ¨ãģĭ
ãģªãĤĵ ãģ¨ãģªãģı
ãģªãĤĵ ãģłãģĭ
ãģªãĤĵ ãĤīãģĭãģ®
ãģªãĤĵ ãģłãģĭãĤĵ
ãĤ¿ãĤ¤ ãĥĹ
ãĤ¿ãĤ¤ ãĥ¤
ãĤ¿ãĤ¤ ãĥĪãĥ«
ãĤ¿ãĤ¤ ãĤ¬ãĥ¼
ãĤ¿ãĤ¤ ãĥŁãĥ³ãĤ°
ãĤ¿ãĤ¤ ãĤ¬ãĥ¼ãĤ¹
èªį ãĤģãĤĭ
èªį å®ļ
èªį çŁ¥
èªį åı¯
èªį è¨¼
èªį èŃĺ
åº§ éķ·
åº§ è«ĩ
åº§ å¸Ń
åįĶ å®ļ
åįĶ ä¼ļ
åįĶ åĬĽ
åįĶ åĲĮ
åįĶ æ¥Ń
åįĶ èª¿
åįĶ èŃ°
åįĶ è³Ľ
åįĶ å¥ı
åľ§ åĬĽ
åľ§ åĭĿ
åľ§ ç¸®
åľ§ å·»
åľ§ è¿«
åľĴ èĬ¸
éĽĳ åŃ¦
éĽĳ æĦŁ
éĽĳ è¨ĺ
éĽĳ éŁ³
éĽĳ è«ĩ
éĽĳ èįī
éĽĳ è²¨
éĽĳ èªĮ
å±ħ ãĤĭ
å±ħ éĸĵ
å±ħ ä½ı
å±ħ éħĴ
å±ħ å¿ĥåľ°
å±ħ åł´æīĢ
å±ŀ ãģĻ
å±ŀ æĢ§
å±ŀ ãģĻãĤĭ
ãĥĹãĥ¬ ãĤ¹
ãĥĹãĥ¬ ãĤ¤
ãĥĹãĥ¬ ãĥ¼ãĥĪ
ãĥĹãĥ¬ ãĥĵãĥ¥ãĥ¼
ãĥĹãĥ¬ ãĤ¤ãĥ¤ãĥ¼
ãĥĹãĥ¬ ãĥĥãĤ·ãĥ£ãĥ¼
ãĥĹãĥ¬ ãĥ¼ãĥ¤ãĥ¼
éĻ¤ å¤ĸ
éĻ¤ åİ»
å£° æĺİ
å£° åĦª
å£° æı´
çķĮ éļĪ
èŃ· è¡Ľ
æ²¢ å±±
æ²¢ æĿ±
åĢ¤ å¼ķãģį
åĢ¤ ãģĻãĤĭ
åĢ¤ æ®µ
åĢ¤ ä¸ĬãģĴ
åĢ¤ ä¸ĬãģĮãĤĬ
åĢ¤ ä¸ĭãģĴ
èĪŀ åı°
èĪŀ è¸ı
èĪŀ è¸Ĭ
ç¤º ãģĻ
ç¤º åĶĨ
åģ´ éĿ¢
çŃĶ ãģĪãĤĭ
çŃĶ çĶ³
çŃĶ æ¡Ī
çŃĶ å¼ģ
åĪĩãĤĬ åĩºãģĻ
åĪĩãĤĬ åı£
åĪĩãĤĬ ä¸ĬãģĴãĤĭ
åĪĩãĤĬ åıĸãĤĭ
åĪĩãĤĬ æĽ¿ãģĪãĤĭ
åĪĩãĤĬ æĽ¿ãģĪ
åĪĩãĤĬ æĽ¿ãĤıãĤĭ
åĪĩãĤĬ æį¨ãģ¦ãĤĭ
åĪĩãĤĬ éĸĭãģı
åĪĩãĤĬ éĽ¢ãģĻ
å§ĭ ãĤģ
å§ĭ ãĤģãĤĭ
å§ĭ åĭķ
å§ĭ ãģ¾ãĤĭ
å§ĭ æľ«
å§ĭ ãģ¾ãĤĬ
çİĭ åĽ½
çİĭ éģĵ
çİĭ èĢħ
çİĭ å®¶
çİĭ æ§ĺ
çİĭ æľĿ
çİĭ å®¤
çİĭ å¦ĥ
çģ« äºĭ
çģ« åĬĽ
çģ« å±±
çģ« æĽľ
çģ« æĺŁ
çģ« çģ½
çģ« æĽľæĹ¥
çģ« èĳ¬
èĸ¬ çī©
èĸ¬ åĵģ
èĸ¬ å±Ģ
ç¦ı çĶ°
ç¦ı éŁ³
ç¦ı äºķ
ç¦ı å³¶
ç¦ı å²¡
ç¦ı ç¥ī
çªģ ãģı
çªģ åħ¥
çªģ çĦ¶
çªģ æĴĥ
çªģ çł´
çªģ å¦Ĥ
çªģ ãģ£è¾¼ãĤĢ
ç±³ åĽ½
ç±³ ä¾¡
ç±³ åħµ
ç±³ ãĥīãĥ«
çĨ± ãģĦ
çĨ± ä¸Ń
çĨ± æ°Ĺ
çĨ± æĦı
çĨ± å¿ĥ
çĨ± å¸¯
çĨ± çĭĤ
ç° ĳ
çĩ Ī
çĩ Ĵ
çĩ Ł
çĩ Ń
èĨ ³
èĨ ½
éĨ «
éĨ ī
éĨ Ĵ
éĨ ¤æ²¹
éĨ įéĨ
éĹ ľ
ãģľ ãĤĭ
ãģľ ãģĦ
ãĥ¨ ãĤ·
ãĥ¨ ãĤ¦
ãĥ¨ ãĥĥãĥĪ
ãĥ¨ ãĤ¬
ãĥ¨ ãĥ¼ãĥŃ
ãĥ¨ ãĥ«ãĥĢãĥ³
ãĥ¨ ãĥıãĥį
æľį éĥ¨
æľį çĶ¨
æľį è£ħ
æľį å¾ĵ
ãĥĪãĥ© ãĥ³ãĤ¹
ãĥĪãĥ© ãĥ³ãĥĹ
ãĥĪãĥ© ãĥĸãĥ«
ãĥĪãĥ© ãĥĻãĥ«
ãĥĪãĥ© ãĤ¦ãĥŀ
åħµ åĬĽ
åħµ å£«
åħµ è¡Ľ
åħµ åº«
åħµ éļĬ
åħ· ä½ĵ
ãģĹãģŁ ãģĨ
ãģĹãģŁ ãģĮãģĨ
ãģĹãģŁ ãģĮãģ£ãģ¦
çĶ· åŃĲ
çĶ· æĢ§
çĶ· å¥³
çĶ· åĦª
çĶ· åħĲ
çĶ· ç³»
çĶ· ãĤīãģĹãģĦ
çĶ· ãģ®åŃĲ
ãģĭãĤĬ ãĤĭ
ãģĭãĤĬ ãģ«
åĪĬ è¡Į
ãĥªãĥ³ ãĤ´
ãĥ©ãĤ¹ ãĥĻãĤ¬ãĤ¹
éģł ãģĦ
éģł ãģı
éģł èĹ¤
éģł æħ®
éģł éļĶ
éģł å¾ģ
éģł è·ĿéĽ¢
éģł ãģĸãģĭãĤĭ
ä»® ãģ«
ä»® å®ļ
ä»® åĲį
ä»® æĥ³
ä»® è¨Ń
ä»® èª¬
ä»® ç§°
ä»® åĩ¦åĪĨ
ä»¶ åĲį
ä»¶ æķ°
ãĥ¼ãĥŀ ãĥ¼ãĤ±ãĥĥãĥĪ
è¨³ ãģĻ
è¨³ èĢħ
è¨³ æ³¨
çĽĬ ãĢħ
å°Ħ ãĤĭ
å°Ħ ç¨ĭ
å°Ħ æĴĥ
å°Ħ æ®º
æķ£ ãĤĭ
æķ£ ä¼ļ
æķ£ ãĢħ
æķ£ æŃ©
æķ£ ãĤīãģĻ
æķ£ ä¹±
æķ£ çŃĸ
çµ± ä¸Ģ
çµ± åĲĪ
çµ± è¨Ī
çµ± åĪ¶
çµ± æ²»
çµ± æĭ¬
å¼ģ çĲĨ
å¼ģ å½ĵ
å¼ģ æĺİ
å¼ģ è«ĸ
ãĥ³ãĥģ ãĥ³
æŃ¦ çĶ°
æŃ¦ éĥ¨
æŃ¦ åĬĽ
æŃ¦ éģĵ
æŃ¦ èĹ¤
æŃ¦ å£«
æŃ¦ è£ħ
æŃ¦ åĻ¨
æŃ¦ è¡ĵ
ãĤ¸ãĤ§ ãĥ³
ãĤ¸ãĤ§ ãĥ«
ãĤ¸ãĤ§ ãĤ¤
ãĤ¸ãĤ§ ãĥķ
ãĤ¸ãĤ§ ãĥĥãĥĪ
ãĤ¸ãĤ§ ãĤ¹ãĥĪ
ãĤ¸ãĤ§ ãĥªãĥ¼
ãĤ¸ãĤ§ ãĥ³ãĤ¹
ãĥŃãĥ¼ ãĥ©
ãĥŃãĥ¼ ãĤ«ãĥ«
ç´Ļ éĿ¢
ç´Ļ å¹£
æĺŁ éĩİ
æĺŁ ç©º
æĺŁ è¡ĵ
æĺŁ åº§
çīĩ æīĭ
çīĩ æĸ¹
çīĩ éģĵ
çīĩ å±±
çīĩ å²¡
çīĩ ä»ĺãģĳãĤĭ
çīĩ ä»ĺãģĳ
çīĩ ãģ¥ãģĳãĤĭ
çīĩ éļħ
è²¡ çĶ£
è²¡ åĽ£
è²¡ çķĮ
è²¡ æºĲ
è²¡ å¸ĥ
è²» çĶ¨
è²» ãĤĦãģĻ
å¸¯ åºĥ
å¸¯ åŁŁ
å¸¯ ãģ³ãĤĭ
ãĥŀãĤ¤ ãĤ¯
ãĥŀãĤ¤ ãĤº
ãĥŀãĤ¤ ãĥ³ãĥī
ãĥŀãĤ¤ ãĥĬãĥ¼
ãĥŀãĤ¤ ãĥĽãĥ¼ãĥł
ãĥŀãĤ¤ ãĥĬãĤ¹
ãĥŀãĤ¤ ãĥļãĥ¼ãĤ¹
ãĥŀãĤ¤ ãĤ±ãĥ«
åĨ· ãģĪãĤĭ
åĨ· ãĤģãĤĭ
åĨ· æĪ¦
åĨ· ãģŁãģĦ
åĨ· èĶµ
åĨ· åį´
åĨ· æĪ¿
åĨ· éĿĻ
åĨ· ãĤĦãģĻ
åĨ· åĩį
è³ŀ éĩĳ
è³ŀ åĳ³
è³ŀ åĵģ
è³ŀ ä¸İ
è³ŀ è³Ľ
æĬ¼ ãģĻ
æĬ¼ ãģĪãĤĭ
æĬ¼ åıİ
æĬ¼ ãģķãģĪãĤĭ
æİ¨ å®ļ
æİ¨ çĲĨ
æİ¨ è«ĸ
æİ¨ éĢ²
æİ¨ è¨Ī
æİ¨ å¯Ł
æİ¨ ç§»
æİ¨ æ¸¬
æİ¨ å¥¨
æİ¨ èĸ¦
æİ¨ ãģĹéĢ²ãĤģãĤĭ
çĦ¼ ãģı
çĦ¼ ãģĳãĤĭ
çĦ¼ åį´
çĦ¼ èĤī
çĦ¼ éħİ
æ¸¡ ãĤĭ
æ¸¡ ãģĹ
æ¸¡ éĥ¨
æ¸¡ è¾º
æ¸¡ èĪª
æ¸© ãĤģãĤĭ
æ¸© åº¦
æ¸© ãģĭãģĦ
æ¸© å®¤
æ¸© æ³ī
æ¸© æļĸ
çĶŁãģį ãĤĭ
çĶŁãģį çī©
çĶŁãģį æĸ¹
çĶŁãģį çĶŁãģį
çĶŁãģį ãģĮãģĦ
çĶŁãģį æĬľãģı
çĶŁãģį æ®ĭãĤĭ
çĶŁãģį æ®ĭãĤĬ
çĶŁãģį å»¶ãģ³ãĤĭ
çŁŃ ãģĦ
çŁŃ å¤§
çŁŃ æīĢ
çŁŃ æľŁ
çŁŃ ç·¨
çŁŃ æŃĮ
çŁŃ ç¸®
çŁŃ æĻĤéĸĵ
çŁŃ æľŁéĸĵ
è£½ ä½ľ
è£½ åĵģ
è£½ éĢł
è£½ åĽ³
è£½ èĸ¬
è£½ åī¤
ä¹ħ ãģĹãģĦ
ä¹ħ ãĢħ
ãĥĸãĥ« ãĥ¼
ãĥĸãĥ« ãĥ¼ãĤ¹
ãĥĸãĥ« ãĤ¬ãĥªãĤ¢
åĢĭ äºº
åĢĭ ä½ĵ
åĢĭ æīĢ
åĢĭ æĢ§
åĢĭ åĪ¥
åĢĭ å®¤
åĢĭ å±ķ
æıĲ åĩº
æıĲ è¨Ģ
æıĲ èµ·
æıĲ æ¡Ī
æıĲ ç¤º
æıĲ è¨´
æıĲ ä¾Ľ
æıĲ æĲº
æıĲ åĶ±
èģ´ ãģı
èģ´ ãģĳãĤĭ
èģ´ åıĸ
èģ´ è¦ļ
èģ´ è¡Ĩ
èģ´ ãģĵãģĪãĤĭ
æ®º ãĤĭ
æ®º ãģĻ
æ®º ãģĹ
æ®º äºº
æ®º å®³
æ®º åĪ°
ãĥĢãĤ¤ ãĥ¬ãĤ¯ãĥĪ
ãĥĢãĤ¤ ãĥĭãĥ³ãĤ°
ãĥĢãĤ¤ ãĤ¢ãĥªãĥ¼
ãĥĢãĤ¤ ãĥĵãĥ³ãĤ°
ãĥĢãĤ¤ ãĤªãĤŃãĤ·ãĥ³
ãĥĢãĤ¤ ãĥĬãĥŁãĥĥãĤ¯
ãĥĢãĤ¤ ãĤ¸ãĤ§ãĤ¹ãĥĪ
åģ¥ ä¸Ģ
åģ¥ åħ¨
åģ¥ åľ¨
åģ¥ å¸¸
åģ¥ äºĮ
åģ¥ éĹĺ
åģ¥ åº·
åģ¥ å¤ªéĥİ
æ¬ł ãģı
æ¬ł ãģĳãĤĭ
æ¬ł çĤ¹
æ¬ł èĲ½
æ¬ł ãģĭãģĻ
æ¬ł å¸Ń
æ¬ł å¦Ĥ
æ¬ł éĻ¥
è§Ĵ åº¦
è§Ĵ å·Ŀ
èµ¤ ãģĦ
èµ¤ èī²
èµ¤ æĿ¾
èµ¤ åŃĹ
èµ¤ ãģ¡ãĤĥãĤĵ
èµ¤ åĿĤ
èµ¤ åįģåŃĹ
èµ¤ å¤ĸç·ļ
èµ¤ ãĤĵåĿĬ
èµ° ãĤĭ
èµ° ãĤĮãĤĭ
èµ° è¡Į
èµ° ãĤĬåĩºãģĻ
æºĲ æ°ı
æºĲ æ³ī
æģĲ ãģĦ
æģĲ ãĤĮ
æģĲ ãĤĮãĤĭ
æģĲ ç¸®
æģĲ ãĤīãģı
æģĲ ç«ľ
æģĲ æĢĸ
æģĲ æħĮ
æģĲ ãĤįãģĹãģĦ
åĸ¶ ãĤĢ
åĸ¶ ãģ¿
åĸ¶ åĪ©
æĽ¸ãģį æīĭ
æĽ¸ãģį æĸ¹
æĽ¸ãģį è¾¼ãĤĢ
æĽ¸ãģį ä¸ĬãģĴãĤĭ
æĽ¸ãģį è¾¼ãģ¿
æĽ¸ãģį æıĽãģĪãĤĭ
æĽ¸ãģį çĽ´ãģĻ
åŁº ãģı
åŁº æľ¬
åŁº åľ°
åŁº éĩĳ
åŁº èª¿
åŁº çĽ¤
åŁº å¹¹
åŁº æºĸ
åŁº ãģ¥ãģı
åŁº ç¤İ
æ·± ãģ¿
æ·± ãĤģãĤĭ
æ·± ãģ¾ãĤĭ
æ·± å¤ľ
æ·± åĪ»
æ·± å±¤
æ·· ãĤĢ
æ·· åĲĪ
æ·· åħ¥
æ·· åĲĮ
æ·· åľ¨
æ·· ãģĺãĤĭ
æ·· éĽĳ
æ·· ä¹±
æ·· ãģĸãĤĭ
æ·· æ²Į
æ·· ãģľãĤĭ
èĭ± åĽ½
èĭ± æĸĩ
èĭ± èªŀ
èĭ± åĴĮ
èĭ± è¨³
èĭ± å¯¿
èĭ± éĽĦ
èĭ± ä¼ļè©±
èĭ± åįĺèªŀ
èĬ± è¦ĭ
èĬ± å±ĭ
èĬ± çģ«
èĬ± æĿŁ
èĬ± ç²ī
èĬ± å«ģ
èĬ± ãģ³ãĤī
èĬ¸ äºº
ãģ²ãģ¨ ãģĵãģ¨
ãģ²ãģ¨ ãģ¾ãģļ
ãģ²ãģ¨ ãģ¨ãģį
çİĩ åħĪ
çİĩ çĽ´
çİĩ ãģĦãĤĭ
çĪ¶ è¦ª
é¦¬ åł´
é¦¬ è»Ĭ
é¦¬ åĪ¸
é¦¬ é¹¿
ãģ»ãģ© ãģ»ãģ©
çł´ ãĤĭ
çł´ ãĤĮãĤĭ
çł´ çĶ£
çł´ æ»ħ
çł´ æĲį
çł´ å£Ĭ
çł´ æ£Ħ
çł´ ç¶»
æ¿Ģ ãģĹãģĦ
æ¿Ģ åĭķ
æ¿Ģ åĮĸ
æ¿Ģ æ¸Ľ
æ¿Ģ åĬ±
æ¿Ģ æĢĴ
èªŃãģ¿ æīĭ
èªŃãģ¿ çī©
èªŃãģ¿ æĸ¹
èªŃãģ¿ è¾¼ãĤĢ
èªŃãģ¿ ä¸ĬãģĴãĤĭ
èªŃãģ¿ æĽ¸ãģį
èªŃãģ¿ åıĸãĤĭ
èªŃãģ¿ è¿ĶãģĻ
èªŃãģ¿ åıĸãĤĮãĤĭ
èªŃãģ¿ è§£ãģı
å«Į ãģĨ
å«Į æĤª
å«Į ãģĮãĤĭ
å«Į ãģĮãĤī
èĶµ æĽ¸
çŀ ŀ
çŀ ĳæĥ³
è°· åı£
ĩãĤ£ ãĤ·ãĥ§ãĥ³
ĩãĤ£ ãĤ¢ãĥ³
ä¸¦ è¡Į
ä¸¦ ãģ¶
ä¸¦ ãģ¹ãĤĭ
ä¸¦ åĪĹ
ä¸¦ ãģ³ãģ«
å®¿ ãĤĭ
å®¿ åĳ½
å®¿ é¡Į
å®¿ èĪİ
å®¿ æ³Ĭ
å®Į æĪĲ
å®Į å£²
å®Į çµĲ
å®Į åĤĻ
å®Į äºĨ
å®Į çĴ§
åħī ãĤĭ
åħī åŃ¦
åħī ç·ļ
åħī æĻ¯
åħī æłĦ
åı³ ä¸Ĭ
åı³ æīĭ
åı³ ä¸ĭ
åı³ è¶³
åı³ åģ´
åı³ èĦ³
åı³ èĤ©
åı³ ç¿¼
åı· ç·ļ
åı· æ©Ł
åı· æ³£
åı¸ ä¼ļ
åı¸ æ³ķ
åı¸ æķĻ
åı¸ é¦¬
åı¸ ä»¤
åı¸ ç¥Ń
ãģĹãģĭ ãģŁ
ãģĹãģĭ ãĤĤ
çĶº çĶ°
çĶº éķ·
çĶº åĨħ
çĶº æ°ĳ
çĶº ä¸¦ãģ¿
äº¬ å¤§
äºī ãģĦ
äºī ãģĨ
äºī çĤ¹
äºī èŃ°
åĪĹ è»Ĭ
åĪĹ å³¶
åĪĹ æĮĻ
åĲĦ äºº
åĲĦ åĽ½
åĲĦ åľ°
åĲĦ èĩª
åĲĦ ãĢħ
åĲĦ ç¤¾
åĲĦ çľģ
åĲĦ ä½į
åĲĦ ç¨®
éĢĶ ä¸Ĭ
éĢĶ ä¸Ń
éĢĶ æĸ¹
éĢĶ ç«¯
éĢĶ åĪĩãĤĮãĤĭ
ä»ĸ äºº
ä»ĸ ãģ®
ä»ĸ åĽ½
ä»ĸ æĸ¹
ä»ĸ ç¤¾
ä»ĸ èĢħ
ä»ĸ äººäºĭ
ãĥ¼ãĥĬ ãĤ·ãĥ§ãĥĬãĥ«
ãĥ¼ãĥĹ ãĥ©ãĤ¤ãĤº
åĽº ãģĦ
åĽº ãĤģãĤĭ
åĽº å®ļ
åĽº æľī
åĽº ãģ¾ãĤĭ
åĽº åŁ·
è¨´ ãģĪ
è¨´ ãģĪãĤĭ
è¨´ è¨Ł
ãģ¤ãģĦ ãģ«
ãģ¤ãģĦ ãģ§
ãģ¤ãģĦ ãģ¦ãĤĭ
ãģ¤ãģĦ ãģ¤ãģĦ
ãģ¤ãģĦ ãģ¦ãģĦ
ãģ¤ãģĦ ãģ§ãģ«
ãĥ¬ãĤ¹ ãĥĿãĥ³ãĤ¹
å°Ĥ çĶ¨
å°Ĥ æ¥Ń
å°Ĥ åĭĻ
å°Ĥ å£²
å°Ĥ ä»»
å°Ĥ å¿µ
å°Ĥ å±ŀ
å°Ĥ æĶ»
å°İ ãģı
å°İ åħ¥
å°İ ãģįåĩºãģĻ
è¡Ľ çĶŁ
è¡Ľ æĺŁ
æķĳ ãģĦ
æķĳ ãģĨ
æķĳ åĩº
æķĳ åĳ½
æķĳ åĬ©
æķĳ æ¸Ī
æķĳ æı´
æķĳ ä¸ĸä¸»
æķĹ ãĤĮãĤĭ
æķĹ æĪ¦
æķĹ åĮĹ
æķĹ éĢĢ
æķĹ è¨´
åįģ æľĪ
åįģ åµĲ
åįģ ä¸ĢæľĪ
åįģ äºĮæľĪ
åĬ¹ ãģı
åĬ¹ çĶ¨
åĬ¹ åĬĽ
åĬ¹ èĥ½
åĬ¹ æŀľ
åĬ¹ çİĩ
ãĤ¸ãĥ§ ãĥ¼
ãĤ¸ãĥ§ ãĥ¼ãĤ¸
ãĤ¸ãĥ§ ãĥ¼ãĤ¯
ãĤ¸ãĥ§ ãĥĭãĥ¼
ãĤ¸ãĥ§ ãĥ¼ãĥ³ãĤº
ç´į ãĤģãĤĭ
ç´į åħ¥
ç´į ä»ĺ
ç´į æľŁ
ç´į åĵģ
ç´į ç¨İ
ç´į å¾Ĺ
ç´į è±Ĩ
éĸī ãĤģãĤĭ
éĸī ä¼ļ
éĸī ãģ¾ãĤĭ
éĸī åºĹ
éĸī ãģĺãĤĭ
éĸī éİĸ
éĸī å¡ŀ
éĸī ãģĸãģĻ
éĸī ãģĺè¾¼ãĤģãĤĭ
æĪ¸ çĶ°
æĪ¸ æĥĳ
æĪ¸ ç±į
å¸« åĮł
å¸ĥ åĽ£
å¸ĥ åĳĬ
ãĤ³ãĥ³ ãĤ»ãĥ³
ãĤ³ãĥ³ ãĤ»ãĥ³ãĥĪ
ãĤ³ãĥ³ ãĤµãĥ¼ãĥĪ
ãĤ³ãĥ³ ãĤ»ãĥĹãĥĪ
ç·ł ãĤģãĤĭ
ç·ł åĪĩ
ç·ł çµĲ
ç·ł ãĤģãģı
æİ¡ ãĤĭ
æİ¡ åıĸ
æİ¡ çĶ¨
æİ¡ çĤ¹
æİ¡ éĽĨ
æİ¡ æ±º
æİ¡ ç®Ĺ
æİ¡ æİĺ
æİ¡ æĬŀ
æİ¢ ãĤĭ
æİ¢ ãģĻ
æİ¢ çŁ¥
æİ¢ æ¤ľ
æİ¢ æ±Ĥ
æİ¢ æŁ»
æİ¢ ç´¢
æİ¢ ç©¶
æİ¢ ãģĹåĩºãģĻ
æİ¢ åģµ
åĮº åĪĨ
åĮº éĸĵ
åĮº åĪ¥
åĮº çĶ»
åĮº åĪĩãĤĬ
åĮº åĪĩãĤĭ
åĮº åŁŁ
éĿĴ ãģĦ
éĿĴ å¹´
éĿĴ å±±
éĿĴ ç©º
éĿĴ æľ¨
éĿĴ èī²
éĿĴ æĺ¥
éĿĴ æ£®
éĿĴ å°ĳå¹´
éĿŀ è¡Į
éĿŀ éĽ£
éĿŀ åħ¬éĸĭ
éĿŀ åħ¬å¼ı
è©ķ ãģĻ
è©ķ èŃ°
è©ķ è«ĸ
è©ķ ä¾¡
è©ķ åĪ¤
æĻ¯ èī²
æĻ¯ è¦³
è»½ ãģĦ
è»½ éĩı
è»½ è¦ĸ
è»½ æ¸Ľ
è»½ å¿«
è»½ èĶĳ
è»½ äºķæ²¢
ãĤµãĤ¤ ãĥī
ãĤµãĤ¤ ãĤº
ãĤµãĤ¤ ãĥ¬ãĥ³
ãĤµãĤ¤ ãĤ¨ãĥ³ãĤ¹
çľĮ ç«ĭ
çľĮ åĨħ
çľĮ æ°ĳ
çľĮ åºģ
çľĮ èŃ¦
çľĮ çŁ¥äºĭ
çľĮ èŃ°ä¼ļ
çķ¥ ãģĻ
çķ¥ ç§°
çķ¥ å¥ª
èŃ¦ åĳĬ
èŃ¦ åł±
èŃ¦ å®ĺ
èŃ¦ åĤĻ
èŃ¦ æĪĴ
èŃ¦ è¦ĸåºģ
ä¾¿ åĪ©
ä¾¿ ä¹Ĺ
ä¾¿ ç§ĺ
ä¾¿ å®ľ
é¡ĺ ãģĨ
é¡ĺ æľĽ
åİ» å¹´
æ±Ĥ ãĤĢ
æ±Ĥ äºº
æ±Ĥ èģ·
æ¨¡ æ§ĺ
æ¨¡ è©¦
æ¨¡ åŀĭ
æ¨¡ ç¯Ħ
æ¨¡ ç´¢
æ¨¡ åĢ£
æ¨¡ æĵ¬
æ¨ª è¡Į
æ¨ª çĶ°
æ¨ª çĽ®
æ¨ª å±±
æ¨ª æĸŃ
æ¨ª åĪĩãĤĭ
æ¨ª æµľ
æ¨ª éłĪ
æ¨ª ãģŁãĤıãĤĭ
æ´¾ çĶŁ
æ´¾ æīĭ
æ´¾ åħµ
æ´¾ éģ£
æ´¾ éĸ¥
æ´ĭ åŃĲ
æ´ĭ æ¥½
æ´ĭ çĶ»
æ´ĭ æľį
æ¯İ å¹´
æ¯İ æľĪ
æ¯İ åº¦
æ¯İ åĽŀ
æ¯İ æľĿ
æ¯İ éĢ±
æ¯İ æĻ©
æ¯Ķ éĩį
æ¯Ķ ä¾ĭ
æ¯Ķ ãģ¹ãĤĭ
æ¯Ķ çİĩ
æ¯Ķ å¯¿
æ¯Ķ åĸ©
ãĤĪãģĨ ãĤĦãģı
ãĤĪãģĨ ãģĵãģĿ
æħĭ åº¦
æħĭ åĭ¢
æŁ» å®ļ
æŁ» å¯Ł
æļ´ ãģı
æļ´ ãĤĮãĤĭ
æļ´ è¡Į
æļ´ åĭķ
æļ´ èĲ½
æļ´ èµ°
æļ´ éľ²
æļĹ è¨ĺ
æļĹ ç¤º
æļĹ æ®º
æļĹ åı·
æļĹ é»Ĵ
æļĹ é»Ļ
æļĹ éĹĩ
å»¶ éķ·
å»¶ æľŁ
å»¶ ãģ¹
å»¶ ãģ°ãģĻ
å»¶ ãĢħãģ¨
å¢ĥ åľ°
å¢ĥ åĨħ
å¢ĥ çķĮ
å¢ĥ éģĩ
è±¡ å¾´
çĸĳ ãģĦ
çĸĳ ãģĨ
çĸĳ åķı
çĸĳ å¿µ
çĸĳ æĥĳ
çĸĳ ãĤıãģĹãģĦ
æ»ħ äº¡
æ»ħ ãģ³ãĤĭ
æ»ħ ãģ¼ãģĻ
æ»ħ å¤ļãģ«
ç³» çµ±
ç³» åĪĹ
ç³» èŃľ
âĶ ¤
âĶ ¬
âĶ ´
âĶ ¼
âĶ Ĥ
âĶ Į
âĶ Ĳ
âĶ Ķ
âĶ ĺ
âĶ ľ
âķ £
âķ ¦
âķ ©
âķ ¬
âķ ĳ
âķ Ķ
âķ Ĺ
âķ ļ
âķ Ŀ
âķ ł
æ¢ ģ
æ¢ Ĺ
æ¢ Ŀ
æ¢ ±åĮħ
è¤ Ĳ
éİ §
éİ ®
éİ Ń
ãĤ¼ ãĥ«
ãĤ¼ ãĥŃ
ãĤ¼ ãĥŁ
ãĤ¼ ãĥªãĥ¼
ãĤ¼ ãĥ«ãĤ¹
ãģĦãģĭ ãĤĵ
ãģĦãģĭ ãģ«
ãģĦãģĭ ãģĮ
ãģĦãģĭ ãģªãĤĭ
ãģĦãģĭ ãģ«ãĤĤ
ãģĦãģ¾ ãĤĦ
ãģĦãģ¾ ãģł
ãģĦãģ¾ ãģĦãģ¡
ãģĦãģ¾ ãģķãĤī
ãģĦãģ¾ ãģ¾ãģ§
ãģĦãģ¾ ãģłãģ«
å®ħ åľ°
å®ħ éħį
åħ¸ åŀĭ
äºĮ ãģ¤
äºĮ éĥİ
äºĮ éħ¸åĮĸ
äºĮ æĹ¥éħĶãģĦ
äºĮ åº¦ãģ¨
å¤« äºº
å¤« å©¦
å¤« å¦»
å¤ķ æĹ¥
å¤ķ æĸ¹
å¤ķ é£Ł
å¤ķ ãģ¹
å¤ķ åĪĬ
å¤ķ é£¯
å¤ķ æļ®ãĤĮ
åĲī æľ¬
åĲī çĶ°
åĲī éĩİ
åĲī å·Ŀ
åĲī æĿĳ
åĲī å²¡
åĲī ç¥¥
ãĤ¢ãĥĥãĥĹ ãĥ«
ãĤ¢ãĥĥãĥĹ ãĥĩãĥ¼ãĥĪ
éĢĥ ãĤĮãĤĭ
éĢĥ ãģĴ
éĢĥ ãģĴãĤĭ
éĢĥ èµ°
éĢĥ äº¡
éĢĥ éģ¿
éĢĥ ãģĴåĩºãģĻ
éģº ä½ĵ
éģº è¨Ģ
éģº çĶ£
éģº æĹı
éģº è·¡
éģº æĨ¾
ä»¥ ãģ¦
ä»¥ ä¸Ĭ
ä»¥ ä¸ĭ
ä»¥ åĨħ
ä»¥ åīį
ä»¥ å¾Į
ä»¥ å¤ĸ
ä»¥ æĿ¥
ä»¥ éĻį
ä»ĭ ãģĻ
ä»ĭ åħ¥
ä»ĭ åĬ©
ä»ĭ èŃ·
ä½İ ãģĦ
ä½İ ä¸ĭ
ä½İ éŁ³
ä½İ æ¸Ľ
ä½İ æ¸©
ä½İ è¿·
ä½Ĳ éĩİ
ä½Ĳ èĹ¤
ä½Ĳ è³Ģ
ä½Ĳ ä¼¯
ä½Ĳ ãĢħæľ¨
ï¼¦ ï¼·
ï¼¦ ï¼©
ï¼° ï¼°
ï¼° ï¼¯
ï¼° ï¼«
ï¼° ï¼Ń
ï¼° ï¼²
è¨± ãģĻ
è¨± ãģĽãĤĭ
è¨± å®¹
è¨± åı¯
è¨± è«¾
ãģŁãģł ãģĻ
ãģŁãģł ãģĹ
ãģŁãģł ãģĦãģ¾
ãģŁãģł ãģŁãģł
ãģŁãģł ãģ¡ãģ«
å¾ĵ ãģĨ
å¾ĵ äºĭ
å¾ĵ æ¥Ń
å¾ĵ æĿ¥
å¾ĵ è»į
å¾ĵ å±ŀ
èª² ãģĻ
èª² éķ·
èª² éĩĳ
èª² ç¨İ
èª² ãģĻãĤĭ
èª² é¡Į
èª² ç¨ĭ
èªĺ ãģĨ
èªĺ çĻº
èªĺ å°İ
èªĺ æĥĳ
èªĺ èĩ´
èªĺ æĭĲ
è¡Ĩ éĻ¢
è¡Ĩ èŃ°éĻ¢
æķħ ãģ«
æķħ äºº
æķħ æĦı
æķħ éļľ
æķħ éĥ·
åįł ãģĦ
åįł ãģĨ
åįł ãĤģãĤĭ
åįł æľī
åįł éłĺ
åįł æĭł
åįł æĺŁè¡ĵ
å¼¾ ãģı
å¼¾ ãĤĢ
å¼¾ ãģĳãĤĭ
å¼¾ åĬĽ
å¼¾ éģĵ
å¼¾ åľ§
æĿ¡ æĸĩ
æĿ¡ ä¾ĭ
æĿ¡ ç´Ħ
æĿ¡ éłħ
åĬĩ åł´
åĬĩ çļĦ
åĬĩ åĽ£
å¯Į ãĤĢ
å¯Į å±±
å¯Į è±ª
å¯Į è£ķ
ãĤ«ãĥ¼ ãĤ½ãĥ«
å±ķ éĸĭ
å±ķ æľĽ
å±ķ ç¤º
å±ķ è¦§
ãģ¡ãĤĩ ãģĦ
ãģ¡ãĤĩ ãģ£ãģ¨
ãģ¡ãĤĩ ãģĦãģ¨
ãģ¡ãĤĩ ãģ£ãģ¨ãģĹãģŁ
ãģ¡ãĤĩ ãģĵãģ£ãģ¨
ãģ¡ãĤĩ ãģ£ãģ´ãĤĬ
æĪĳ ãĤī
æĪĳ ãĢħ
æĪĳ æħ¢
æĺ¥ æĹ¥
æĺ¥ ãģ®
æĺ¥ æ¨¹
æĺ¥ ç§ĭ
æĺł ãĤĭ
æĺł ãģĻ
æĺł åĥı
æĺł ãģĹåĩºãģĻ
ãģĵãģ¨ ãģĹ
ãģĵãģ¨ ãģ«
ãģĵãģ¨ ãģ°
ãģĵãģ¨ ãĤıãģĸ
ãģĵãģ¨ ãģĶãģ¨
ãģĵãģ® æĸ¹
ãģĵãģ® éĸĵ
ãģĵãģ® åħĪ
ãģĵãģ® ä¸ĸ
ãģĵãģ® ãģ»ãģ©
ãģĵãģ® éłĥ
ãģĵãģ® è¾º
ãģĵãģ® ãģĶãĤį
ãģĵãģ® ä¸ĬãģªãģĦ
ãģķãģ¾ ãĤĪãģĨ
ãģķãģ¾ ãģĸãģ¾
åĳ¨ ãĤĬ
åĳ¨ å¹´
åĳ¨ çŁ¥
åĳ¨ æľŁ
åĳ¨ åĽ²
åĳ¨ è¾º
åĳ¨ æ³¢æķ°
æĬĢ æ³ķ
æĬĢ èĥ½
æĬĢ è¡ĵ
æĬĢ å¸«
æĬĺ ãĤĭ
æĬĺ ãĤĮãĤĭ
æĬĺ è§Ĵ
æĬĺ è¡Ŀ
æĬĺ ãĤĬç´Ļ
ãĥĲãĤ¤ ãĤ¯
ãĥĲãĤ¤ ãĤª
ãĥĲãĤ¤ ãĤ¢ãĤ¹
ãĥĲãĤ¤ ãĤ¶ãĥ¼
ãĥĲãĤ¤ ãĤªãĥªãĥ³
ãģĿãģ® éĸĵ
ãģĿãģ® å¾Į
ãģĿãģ® éģĵ
ãģĿãģ® ä»ĸ
ãģĿãģ® éłĥ
ãģĿãģ® ãĤĤãģ®
ãģĿãģ® ãģ¾ãģ¾
ãģĿãģ® ãģĨãģĪ
ãģĿãģ® ãģĨãģ¡
æĶ» ãĤģ
æĶ» ãĤģãĤĭ
æĶ» éĺ²
æĶ» åĭ¢
æĶ» æĴĥ
æĶ» çķ¥
æĮĻ åĭķ
æĮĻ ãģĴãĤĭ
æĮĻ ãģĮãĤĭ
æĮĻ å¼ı
æĮĻ åı¥
ãĤªãĥ³ ãĥªãĥ¼
ãĤªãĥ³ ãĥ©ãĤ¤ãĥ³
é¡ŀ åŀĭ
é¡ŀ ä¼¼
ä¹± ãģĻ
ä¹± ãĤĮ
ä¹± ãĤĮãĤĭ
ä¹± çĶ¨
ä¹± æļ´
çĲĥ åł´
çĲĥ åĽ£
åĢĴ ãģĻ
åĢĴ ãĤĮãĤĭ
åĢĴ çĶ£
åĢĴ å£Ĭ
èĪĪ è¡Į
èĪĪ å¥®
èģĸ äºº
èģĸ åľ°
èģĸ æĽ¸
èģĸ èģ·
èģĸ ãģªãĤĭ
èģĸ åłĤ
èģĸ éľĬ
æ¨Ļ æľ¬
æ¨Ļ é«ĺ
æ¨Ļ çļĦ
æ¨Ļ èŃĺ
æ¨Ļ æºĸ
ç¤¼ åĦĢ
ç¤¼ æĭĿ
åĤ· å®³
åĤ· ãģ¤ãģı
åĤ· ãģ¤ãģĳãĤĭ
çļĩ ä½į
çļĩ å®¤
çļĩ æĹı
çļĩ å¸Ŀ
çļĩ åĲİ
çļĩ å¤ªåŃĲ
çĹĩ ä¾ĭ
çĹĩ çĬ¶
çĹĩ åĢĻ
çĹĽ ãģĦ
çĹĽ ãĤĢ
çĹĽ ãģ¿
çĹĽ ãĤģãĤĭ
çĹĽ æĦŁ
åĸĦ ãģĦ
åĸĦ æĦı
åĸĦ æĤª
èĦ± åĩº
èĦ± åĬĽ
èĦ± ãģĲ
èĦ± ç·ļ
èĦ± éĢĢ
èĦ± åį´
èĦ³ æŃ»
èĦ³ è£ı
èĦ³ ãģ¿ãģĿ
éŁ¿ ãģı
éŁ¿ ãģį
ç®¡ åĨħ
ç®¡ çĲĨ
ç®¡ å¼¦
ç®¡ è½Ħ
ç¸® ãĤģãĤĭ
ç¸® å°ı
é¦ĸ éķ·
é¦ĸ çĽ¸
é¦ĸ ä½į
é¦ĸ éĥ½
é¦ĸ èĦ³
èĳĹ ãģĹãģĦ
èĳĹ æĽ¸
èĳĹ åĲį
èĳĹ ä½ľ
èĳĹ èĢħ
çĬ¶ æħĭ
çĬ¶ æ³ģ
é§Ĩ ãĤĭ
é§Ĩ ãģĳãĤĭ
é§Ĩ åĭķ
é§Ĩ ä½¿
é§Ĩ éĻ¤
æĲį å®³
æĲį å¤±
æĲį ãģŃãĤĭ
æĲį çĽĬ
æĲį åĤ·
æĲį ãģªãģĨ
å©ļ ç´Ħ
å©ļ å§»
éīĦ äºº
éīĦ éģĵ
éīĦ éª¨
éīĦ éĭ¼
çĶ³ãģĹ åĩº
çĶ³ãģĹ è¾¼ãĤĢ
çĶ³ãģĹ ä¸ĬãģĴãĤĭ
çĶ³ãģĹ è¨³
çĶ³ãģĹ åħ¥ãĤĮ
çĶ³ãģĹ è¾¼ãģ¿
çĶ³ãģĹ ãĤıãģĳ
çĶ³ãģĹ ç«ĭãģ¦
çĶ³ãģĹ åĩºãĤĭ
çĶ³ãģĹ è¿°ãģ¹ãĤĭ
èĮ¶ èī²
æ¦ ®
é© ħ
é© Ĺ
é© Ľ
é® ¨
é® İ
é½ ¡
é½ Ĭ
é½ Ĵ
ãģ¬ ãĤĭ
ãģ¬ ãģı
ãģ¬ ãģĦãģĲãĤĭãģ¿
ãģĦãģ¤ ãģĭ
ãģĦãģ¤ ãĤĤ
ãģĦãģ¤ ãģĹãģĭ
åħħ åĪĨ
åħħ å®Ł
åħħ éĽ»
åħħ ãģ¦ãĤĭ
åħħ è¶³
åıĭ äºº
åıĭ å¥½
åıĭ æĥħ
åıĭ éģĶ
åıĭ ãģłãģ¡
çĶ± æĿ¥
çĶ± ç´Ģ
äºĨ è§£
äºĨ æī¿
ãģĭãģĳ éĽ¢ãĤĮãĤĭ
ãģĭãģĳ ãģĮãģĪ
ãģıãĤī ãģĦ
ãģıãĤī ãģĹ
ãģıãĤī ãģĨ
ãģıãĤī ãģ¹ãĤĭ
ãĥªãĤ¹ãĥĪ ãĥ©
ãĤ¯ãĥŃ ãĤ¹
ãĤ¯ãĥŃ ãĥĥãĤ¯
ãĤ¯ãĥŃ ãĤ¢ãĥģ
ãĥ©ãĥ³ ãĤ«
ãĥ©ãĥ³ ãĤŃãĥ³ãĤ°
éĢ± éĸĵ
éĢ± æľ«
éĢ± åĪĬ
ãģ¾ãģĻ ãģ¾ãģĻ
ãģ¾ãģĹãģ¦ ãĤĦ
åĽ² æ°Ĺ
åĽ² ç¢ģ
åĽĽ ãģ¤
åĽĽ åĽ½
åĽĽ æĸ¹
åĽĽ æľĪ
åĽĽ éĥİ
åĽĽ åŃ£
åĽĽ åįĬæľŁ
åĽł åŃĲ
åĽł æŀľ
åĽł ç¸ģ
åĽł ãģ¿ãģ«
ãģ¨ãģĨ ãģ¨ãģĨ
ãģ¨ãģĨ ãģ¦ãģĦ
æīķ ãģĦ
æīķ ãģĪãĤĭ
æīķ æĭŃ
ãģªãĤī ãģ¶
ãģªãĤī ãģ°
ãģªãĤī ãģ§ãģ¯
ãģªãĤī ãģ³ãģ«
æĹħ äºº
æĹħ é¤¨
æĹħ å®¢
æĹħ è²»
æĹħ ç«ĭãģ¤
åĭ¤ ãĤģãĤĭ
åĭ¤ åĭĻ
åĭ¤ åĬ´
åĭ¤ åĭī
ãģĬãģĦ ãĤī
ãģĬãģĦ ãģĹãģĦ
ãģĬãģĦ ãģ§
ãģĬãģĦ ãģĬãģĦ
å¾¡ ç¤¼
å¾¡ è¦§
å¾¡ é£¯
å¾¡ åº§ãĤĭ
å¾¡ åŃĺãģĺ
å°± ãģı
å°± åŃ¦
å°± æ¥Ń
å°± ä»»
å°± èģ·
å°± åĬ´
å°± å¯Ŀ
æķ´ ãģĨ
æķ´ ãģĪãĤĭ
æķ´ åĲĪ
æķ´ ä½ĵ
æķ´ çĲĨ
æķ´ å½¢
æķ´ åĤĻ
åį° è±¡
åį° éĳĳ
åį° åĪ·
åį´ ä¸ĭ
æ°¸ çĶ°
æ°¸ ç¶ļ
æ°¸ äºķ
æ°¸ ä½ı
æ°¸ éģł
æ°¸ ä¹ħ
å¯© çĲĨ
å¯© èŃ°
å¯© åĪ¤
å¯© æŁ»
ãĤ¸ãĥ¥ ãĥ³
ãĤ¸ãĥ¥ ãĥ¼ãĤ¹
ãĤ¸ãĥ¥ ãĥĭãĤ¢
ãĤ¸ãĥ¥ ãĥįãĥ¼ãĥĸ
ãĤ«ãĤ¦ ãĥ³ãĤ¿
ãĤ«ãĤ¦ ãĥ³ãĤ¿ãĥ¼
å±Ģ éķ·
å±Ģ éĿ¢
æĺ¨ æĹ¥
æĺ¨ å¹´
æĺ¨ ä»Ĭ
æĺ¨ å¤ľ
æĺ¨ æĻ©
æĺ¨ å¹´åº¦
æĺ¼ éĸĵ
æĺ¼ é£Ł
æĺ¼ å¯Ŀ
æĺ¼ é£¯
æĺ¼ éģİãģİ
æĺ¼ ä¼ĳãģ¿
æĺĵ ãģĦ
å¿Ĺ ãģĻ
å¿Ĺ åĲĳ
å¿Ĺ æľĽ
å¿Ĺ é¡ĺ
è²¸ ãģĻ
è²¸ åĩº
è²¸ ä»ĺ
è²¸ ä¸İ
ãĤ³ãĥ³ãĥ ļ
ãĤ³ãĥ³ãĥ ĳãĤ¯ãĥĪ
ãĤ³ãĥ³ãĥ Ŀãĥ¼ãĥį
ãĤ³ãĥ³ãĥ ĩãĤ£ãĤ·ãĥ§ãĥ³
å·¦ ä¸Ĭ
å·¦ æīĭ
å·¦ è¶³
å·¦ åģ´
å·¦ åı³
å·¦ ç¿¼
å·¦ åĪ©ãģį
ãģĤãĤĬ ãģ¾
ãģĤãĤĬ ãģĪãĤĭ
ãģĤãĤĬ æĸ¹
ãģĤãĤĬ ãģ¨ãģĤãĤīãĤĨãĤĭ
ãģĤãĤĬ ãģ®ãģ¾ãģ¾
ãģķãģĦ ãģŁãģ¾
éĻ¸ ä¸Ĭ
éĻ¸ è»į
ç·´ ãĤĭ
ç·´ ç¿Ĵ
ç·´ é¦¬
åĳ¼ ãģ¶
åĳ¼ ãģ¹ãĤĭ
åĳ¼ ç§°
åĳ¼ åĲ¸
çĻ» ãĤĭ
çĻ» å±±
çĻ» åł´
çĻ» è¨ĺ
çĻ» æł¡
çĻ» åĭ¢
çĻ» éĮ²
ãĥĲãĥ¼ ãĤµãĥ«
ãĥĲãĥ¼ ãĤ¬ãĥ¼
ãĥĲãĥ¼ ãĤ²ãĥ³
ãĤĦãĤĬ æĸ¹
ãĤĦãĤĬ åıĸãĤĬ
ãĤĦãĤĬ ãģ¨ãĤĬ
ãĤĦãĤĬ ãģĮãģĦ
ãĤĦãĤĬ çĽ´ãģĻ
ãĤĦãĤĬ çĽ´ãģĹ
æµ® ãģı
æµ® ä¸Ĭ
æµ® æ°Ĺ
æµ® ãģįå½«
éĿĻ ãģĭ
éĿĻ æŃ¢
éĿĻ å²¡
éĿĻ é¦Ļ
éĿĻ èĦĪ
éĿĻ å¯Ĥ
æ¸¬ ãĤĭ
æ¸¬ å®ļ
æ¸¬ éĩı
éłĨ ãģ«
éłĨ èª¿
éłĨ æ¬¡
éłĨ ä½į
éłĨ çķª
éłĨ åºı
éłĺ åıİ
éłĺ åľŁ
éłĺ åŁŁ
ãĤµãĥ¼ ãĤ«ãĤ¹
ãĤµãĥ¼ ãĤŃãĥĥãĥĪ
ç§ĺ ãĤģãĤĭ
ç§ĺ æĽ¸
ç§ĺ å¯Ĩ
ç§ĺ è¨£
é£² ãĤĢ
é£² ãĤģãĤĭ
é£² é£Ł
é£² æĸĻ
é£² éħĴ
æ²³ åĲĪ
æ²³ åİŁ
æ²³ éĩİ
æ²³ åı£
æ²³ å·Ŀ
èĢģ äºº
èĢģ å¾Į
èĢģ åĮĸ
èĢģ èĪĹ
éļĬ éķ·
éļĬ åĵ¡
æĭħ ãģĨ
æĭħ å½ĵ
æĭħ ãģĲ
æĭħ ä¿Ŀ
æĭħ ä»»
æĭħ ãģĦæīĭ
è¡Įãģį åħĪ
è¡Įãģį æĿ¥
è¡Įãģį çĿĢãģı
è¡Įãģį å±Ĭãģı
åİļ ãģ¿
è«ĭ è²ł
è«ĭ é¡ĺ
è«ĭ æ±Ĥ
è«ĭ ãģĳè²łãģĨ
ãĥĬãĥ« ãĥī
æĥĳ æĺŁ
æĥĳ ãĤıãģĻ
åħ¥ãĤĮ æĽ¿ãģĪãĤĭ
åħ¥ãĤĮ æĽ¿ãģĪ
åħ¥ãĤĮ æĽ¿ãĤıãĤĭ
ç¥ĸ åĽ½
ç¥ĸ åħĪ
ç¥ĸ æ¯į
ç¥ĸ çĪ¶
ç¥ĸ çĪ¶æ¯į
åģ½ ãĤĭ
åģ½ çī©
åģ½ éĢł
åģ½ è£ħ
åģ½ åĸĦ
åģľ ãĤĭ
åģľ ãĤģãĤĭ
åģľ éĽ»
åģľ è»Ĭ
åģľ æŃ¢
åģľ æ»ŀ
çŃĨ èĢħ
çŃĨ è¨ĺ
çŃĨ éłŃ
èĤī ä½ĵ
æŀĹ æ¥Ń
è¨ĢãģĦ åĪĨ
è¨ĢãģĦ æĸ¹
è¨ĢãģĦ åĩºãģĻ
è¨ĢãģĦ è¨³
è¨ĢãģĦ ãĤĪãģĨ
è¨ĢãģĦ æıĽãģĪãĤĭ
è¨ĢãģĦ æ¸¡ãģĻ
è¨ĢãģĦ åĽŀãģĹ
è¨ĢãģĦ èģŀãģĭãģĽãĤĭ
èĭ¥ ãģĦ
èĭ¥ æīĭ
èĭ¥ å¹´
èĭ¥ èĢħ
èĭ¥ æŀĹ
èĭ¥ å¹²
èĭ¥ ãģĹãģıãģ¯
æ¤į ãģĪãĤĭ
æ¤į çī©
æ¤į æ°ĳ
æ¤į æľ¨
è¼ī ãĤĭ
è¼ī ãģĽãĤĭ
åĥį ãģı
åĥį ãģĳãĤĭ
çĪĨ çĻº
çĪĨ ç¬ĳ
çĪĨ æĴĥ
çĪĨ çł´
çĪĨ å¼¾
è·¡ åľ°
çģ½ ãģĦ
çģ½ å®³
åıĹãģĳ åıĸãĤĭ
åıĹãģĳ ä»ĺãģĳãĤĭ
åıĹãģĳ åħ¥ãĤĮ
åıĹãģĳ ãģ¨ãĤģãĤĭ
åıĹãģĳ åħ¥ãĤĮãĤĭ
åıĹãģĳ åıĸãĤĮãĤĭ
åıĹãģĳ ç¶ĻãģĲ
åıĹãģĳ æŃ¢ãĤģãĤĭ
èĳī æĽ¸
èĳī åİŁ
èĳī ãģ£ãģ±
ç¯ī ãģı
ç¯ī åľ°
ç¯ī ãģįä¸ĬãģĴãĤĭ
èįī åŃĲ
èįī åİŁ
èįī æ¡Ī
é»Ĵ ãģĦ
é»Ĵ äºº
é»Ĵ çĶ°
é»Ĵ åŃĹ
é»Ĵ æĿ¿
é¨ĵ èĢħ
éĮ² éŁ³
éĮ² çĶ»
çµĦãģ¿ è¾¼ãĤĢ
çµĦãģ¿ åĲĪãĤıãģĽ
çµĦãģ¿ ç«ĭãģ¦ãĤĭ
çµĦãģ¿ åĲĪãĤıãģĽãĤĭ
çµĦãģ¿ ç«ĭãģ¦
è¢« ãĤĭ
è¢« åĳĬ
è¢« å®³
è¢« çĸĳ
è¢« çĪĨ
è¢« çģ½
è¢« é¨ĵèĢħ
ãģ£ãģ± ãģªãģĹ
çĴ° çĬ¶
åĺ ±
åĺ ²
åĺ ī
åĺ ĺ
ç¡ «
ç¡ ı
ç¡ Ŀ
èĵ ®
èĽ Ļ
èĽ ĭçĻ½
éª ¸
é¬ ¥
é¬ ¯
é¬ ļ
é¬ Ń
é¹ µ
é¹ ½
éį Ĭ
ãģŀ ãģĨ
ãģĦãģ£ ãģĿ
ãģĦãģ£ ãģŁãģĦ
ãģĦãģ£ ãģĿãģĨ
ãģĦãģ£ ãģķãģĦ
ãģĦãģ£ ãģĹãĤĩ
ãģĦãģ£ ãģŁãĤĵ
ãģĦãģ¡ ãģĶ
ãģĦãģ¡ ãģĦãģ¡
ãģĦãģ¡ ãģ°ãĤĵ
ãģĦãģ¡ æĹ©ãģĦ
ãģĦãģ¡ ãģĬãģĨ
ãģĦãĤĦ ãĥ¼
ãģĦãĤĦ ãģĤ
ãģĦãĤĦ ãģģ
ãģĦãĤĦ ãģĦãĤĦ
ãĥĪãĥ« ãĤ³
ãĥĪãĥª ãĤª
ãĥĪãĥª ãĥİ
å®Ŀ çī©
å®Ŀ çŁ³
å®Ŀ å¡ļ
å®Ŀ ãģıãģĺ
åħį ãĤĮãĤĭ
åħį ç¨İ
åħį éĻ¤
åħį è¨±
åħį è²¬
åħį çĸ«
åıĬ ãģ³
åıĬ ãģ¶
åıĬ ãģ¼ãģĻ
äºĴ æıĽ
ãģıãĤĭ ãĤĢ
åĪ» ãĤĢ
åĪĳ äºĭ
åĪĳ æ³ķ
åĪĳ ç½°
åĪĳ åĭĻæīĢ
ãĥªãĤ¹ ãĥĬãĥ¼
ãĥªãĤ¹ ãĥĭãĥ³ãĤ°
åĲ¦ ãĤģãĤĭ
åĲ¦ å®ļ
åĲ¦ æ±º
åĲ¦ èªį
ä»² éĸĵ
ä»² è£ģ
ä»² ä»ĭ
ä»² èī¯ãģĦ
ï¼® ï¼¯
ï¼® ï¼´
ï¼® ï¼¡
ï¼® ï¼¨
ï¼® ï¼¹
ï¼® ï¼°ï¼¯
ï¼ĳ ï¼ĳ
ï¼ĳ ï¼Ĵ
ï¼ĳ ï¼Ĳ
æī± ãģĪãĤĭ
æī¿ ãĤĭ
æī¿ çŁ¥
æī¿ èªį
æī¿ è«¾
ãģ¤ãģĭ ãģĨ
ãģ¤ãģĭ ãĤĢ
ãģ¤ãģĭ ãģĪãĤĭ
ãģ¤ãģĭ ãĤģãĤĭ
ãģ¤ãģĭ ãģ¾ãĤĭ
ãģ¤ãģĭ ãģ¾ãģĪãĤĭ
ãģªãģı ãģĻ
ãģªãģı ãģªãĤĭ
æĹ¢ ãģ«
æĹ¢ å®ļ
æĹ¢ æĪĲ
æĹ¢ å¾Ĺ
æĹ¢ åŃĺ
æĹ¢ å©ļ
çĽ£ çĲĨ
çĽ£ ä¿®
çĽ£ è¦ĸ
çĽ£ æŁ»
çĽ£ ç¦ģ
çĽ£ çįĦ
çĽ£ çĿ£
å¾Ĵ çĦ¶
å¾Ĵ æŃ©
ãĥķãĥ¬ ãĥĥãĥĪ
ãĥķãĥ¬ ãĥ¼ãĥł
ãĥķãĥ¬ ãĥ³ãĥģ
ãĥķãĥ¬ ãĥ³ãĥīãĥªãĥ¼
è¡Ģ åľ§
è¡Ģ çµ±
è¡Ģ ç®¡
è¡Ģ æ¶²
è¡Ģ ç³ĸ
è¡Ĺ éģĵ
è¡Ĺ éłŃ
è¡Ĺ è§Ĵ
è¡Ĺ ä¸¦ãģ¿
å¼± ãĤĭ
å¼± ãģĦ
å¼± èĢħ
å¼± çĤ¹
å¹¸ ãģĦ
å¹¸ ãģĽ
å¹¸ åŃĲ
å¹¸ éģĭ
å¹¸ ç¦ı
å¹¹ äºĭ
å¹¹ éĥ¨
ãĤ«ãĥ« ãĥĨ
ãĤ«ãĥ« ãĥŃãĤ¹
ãĤ«ãĥ« ãĥģãĥ£ãĥ¼
ãĤ«ãĥ« ãĤ·ãĤ¦ãĥł
ãģĵãģĨ ãģĹãģ¦
ãģĵãģĨ ãģĹãģŁ
ãģĵãģĨ ãģĦãģĨ
è²´ ãģĦ
è²´ æĸ¹
è²´ éĩį
è²´ å¥³
è²´ æĹı
å½¼ ãĤī
å½¼ æĸ¹
å½¼ çŃī
å½¼ æ°ı
å¤§åŃ¦ çĶŁ
å¤§åŃ¦ éĻ¢
å¤§åŃ¦ éĻ¢çĶŁ
å·» ãģį
å·» æľ«
å·» ãģįè¾¼ãĤĢ
ãĥŀãĥ³ ãĤ¬
ãĥŀãĥ³ ãĤ·ãĥ§ãĥ³
ãĥŀãĥ³ ãĤ´ãĥ¼
åīĩ ãĤĭ
åĨĻ ãĤĭ
åĨĻ ãģĻ
åĨĻ çľŁ
è³Ľ åĲĮ
è³Ľ æĪĲ
è³Ľ ç¾İ
è³Ľ åĲ¦
è¾º ãĤĬ
è¾ŀ ãĤģãĤĭ
è¾ŀ æĽ¸
è¾ŀ ä»»
è¾ŀ èģ·
è¾ŀ éĢĢ
è¾ŀ åħ¸
ä¿Ĥ ãĤĭ
ä¿Ĥ æķ°
ä¿Ĥ åĵ¡
ä¿Ĥ ãĤıãĤĭ
è¿« ãĤĭ
è¿« åĬĽ
è¿« å®³
ãĤŃãĥ¥ ãĥ¼ãĥĪ
ãĤŃãĥ¥ ãĥ¼ãĥĸ
ãĤŃãĥ¥ ãĥ©ãĥł
ãĤŃãĥ¥ ãĥ¼ãĥĲ
ãĤ°ãĥ© ãĥķ
ãĤ°ãĥ© ãĥķãĤ£ãĥĥãĤ¯
ãĤ°ãĥ© ãĥ³ãĥĹãĥª
æİĽ ãģĭãĤĭ
æłª ä¸»
æłª ä¾¡
è©° ãĤģ
è©° ãģ¾ãĤĭ
è©° ãĤģè¾¼ãĤĢ
éł¼ ãĤĭ
éł¼ ãĤĬ
éł¼ ãĤĢ
éł¼ ãģ¿
éł¼ ãĤĤãģĹãģĦ
æĻ© å¹´
æĻ© é¤Ĳ
çľł ãĤĭ
çľł ãģĦ
çľł ãĤĬ
çľł ãĤĮãĤĭ
çľł æ°Ĺ
ç§ģ åŃ¦
ç§ģ è¦ĭ
ç§ģ ç«ĭ
ç§ģ çļĦ
ç§ģ éīĦ
ç§ģ çĶŁæ´»
ä¾Ľ çµ¦
ä¾Ľ é¤Ĭ
ä¾Ľ ä¸İ
ä¾Ľ è¿°
æ²¹ æĸŃ
é¡Ķ éĿ¢
é¡Ķ èī²
é¡Ķ ãģ¤ãģį
é¡Ķ çµµ
ãģłãģĳ ãģ©
ãģłãģĳ ãĤĮãģ©ãĤĤ
éļ£ ãĤĭ
éļ£ äºº
éļ£ åĽ½
éļ£ æİ¥
éļĽ ç«ĭãģ¤
æĭł åĩº
æĭł çĤ¹
åİ³ ãģĹãģĦ
åİ³ æŃ£
åİ³ éĩį
åİ³ æł¼
åİ³ éģ¸
åİ³ å¯Ĩ
ãĥĸãĥ© ãĤ·
ãĥĸãĥ© ãĥĥãĤ¯
ãĥĸãĥ© ãĥĥãĥī
ãĥĸãĥ© ãĤ¦ãĥ³
ãĥĸãĥ© ãĤ¸ãĥ«
èĪ¹ éķ·
èĪ¹ èĪ¶
æı´ åĬ©
æı´ èŃ·
æ¨¹ ç«ĭ
æ¨¹ æľ¨
æ¨¹ èĦĤ
éħ¸ åĳ³
éħ¸ ç´ł
ãĥŁãĥ¥ ãĥ³ãĥĺãĥ³
ç«ĭãģ¡ èªŃãģ¿
ç«ĭãģ¡ ä¸ĬãģĮãĤĭ
ç«ĭãģ¡ çĽ´ãĤĭ
ç«ĭãģ¡ å¯ĦãĤĭ
ç«ĭãģ¡ åİ»ãĤĭ
ç«ĭãģ¡ ä¼ļãģĨ
ç«ĭãģ¡ åĲĳãģĭãģĨ
ç«ĭãģ¡ æŃ¢ãģ¾ãĤĭ
æ´Ĺ ãģĨ
æ´Ĺ ç¤¼
æ´Ĺ èĦ³
æ´Ĺ ç·´
æ´Ĺ åī¤
æ´Ĺ æµĦ
æ´Ĺ æ¿¯
åĤµ åĭĻ
åĤµ æ¨©
åĤµ åĪ¸
æ¬² ãģĹãģĦ
æ¬² æľĽ
æ¬² æ±Ĥ
æ¯Ľ å¸ĥ
æ¯Ľ æ²¢æĿ±
çŃĸ å®ļ
æĤ² ãģĹãģĦ
æĤ² è¦³
æĤ² åĬĩ
æĤ² é³´
æĤ² ãģĹãĤĢ
æĤ² ãģĹãģ¿
æĤ² æĥ¨
æºĸ åĤĻ
æºĸ æĭł
æºĸ æ±ºåĭĿ
ç¶Ļ ç¶ļ
ç¶Ļ æī¿
éĢļãĤĬ éģİãģİãĤĭ
éĢļãĤĬ æĬľãģĳãĤĭ
éĢļãĤĬ ãģĻãģĮãĤĬ
æģ¯ åŃĲ
æģµ ãģ¿
æģµ åŃĲ
æģµ ãģ¾ãĤĮãĤĭ
æģµ æ¯Ķå¯¿
æŁĵ ãĤģãĤĭ
æŁĵ ãģ¾ãĤĭ
æŁĵ èī²
æļ® ãĤĮãĤĭ
æļ® ãĤīãģĻ
ãĥĻãĥ« ãĥªãĥ³
ãĥĻãĥ« ãĤ®ãĥ¼
åĦĢ å¼ı
åĦĢ ç¤¼
åĦŁ ãģĨ
åĦŁ åį´
åĦŁ éĤĦ
ãĥ¯ãĤ¤ ãĥī
ç½ª æĤª
å²© æīĭ
å²© åĽ½
å²© çĶ°
å²© å´İ
è±ª å¿«
è±ª å·ŀ
è±ª èı¯
è±ª éĽ¨
æ©ĭ æľ¬
é¦Ļ ãĤĬ
é¦Ļ æ°´
é¦Ļ å·Ŀ
é¦Ļ æ¸¯
éľ² åĩº
éľ² éª¨
éľ² åĳĪ
æ£® çĶ°
æ£® ä¸ĭ
æ£® å±±
æ£® æŀĹ
ç¯Ģ çĽ®
ç¯Ģ ç´Ħ
ç¯Ħ åĽ²
ç¯Ħ çĸĩ
æįķ ãĤĭ
æįķ ãģ¾ãĤĭ
æįķ ãģ¾ãģĪãĤĭ
æįķ çį²
æįķ ãĤīãģĪãĤĭ
æįķ èĻľ
çĬ¯ ãģĻ
çĬ¯ äºº
çĬ¯ è¡Į
çĬ¯ ç½ª
èįĴ ãģĦ
èįĴ ãĤĮãĤĭ
èįĴ å·Ŀ
èįĴ æľ¨
èįĴ ãĤīãģĻ
èįĴ å»ĥ
èı¯ äºº
èı¯ ãĤĦãģĭ
èı¯ éºĹ
å©¦ äºº
éĬĢ åº§
éĬĢ æ²³
çħ§ ä¼ļ
çħ§ æĺİ
çħ§ ãĤīãģĻ
çħ§ å°Ħ
ä½¿ãģĦ æĸ¹
ä½¿ãģĦ éģĵ
ä½¿ãģĦ æį¨
ä½¿ãģĦ åĪĨãģĳãĤĭ
ä½¿ãģĦ åĭĿæīĭ
ä½¿ãģĦ ãģĵãģªãģĻ
æīĵãģ¡ è¾¼ãĤĢ
æīĵãģ¡ åĩºãģĻ
æīĵãģ¡ ä¸ĬãģĴãĤĭ
æīĵãģ¡ åĪĩãĤĭ
æīĵãģ¡ ä¸ĬãģĴ
æīĵãģ¡ åĲĪãĤıãģĽ
æīĵãģ¡ æĺİãģĳãĤĭ
é³´ ãģı
é³´ ãĤīãģĻ
é³´ ãģįå£°
ãģ¡ãĤĥãĤĵ ãģ¨
è¸ı ãĤĢ
è¸ı ãģ¾ãģĪãĤĭ
éĹĺ ãģĦ
éĹĺ ãģĨ
éĹĺ äºī
æ¦Ĥ ãģŃ
æ¦Ĥ è¦ģ
æ¦Ĥ è¦³
æ¦Ĥ å¿µ
æ¦Ĥ ç®Ĺ
æ¦Ĥ çķ¥
è´ Ĭ
è´ ħæ²¢
èŀ ¢
éĳ Ħ
éĳ Ľ
ãģ¸ ãĤĭ
ãģ¸ ãĥ¼
ãģ¸ ãģĩ
ä¸¸ ãģĦ
ä¸¸ å±±
ä¸¸ ãģĶãģ¨
ä¸¸ ãģ®åĨħ
ä¸ĩ ä¸Ģ
ä¸ĩ åħ¨
ä¸ĩ èĥ½
ä¸ĩ åįļ
ä¸ĩ ãģĮä¸Ģ
ãĤ¹ãĤ³ ãĤ¢
ãĥĪãĥ¬ ãĤ¤
ãĥĪãĥ¬ ãĥ¼ãĥī
ãĥĪãĥ¬ ãĥ³ãĥī
ãĥĪãĥ¬ ãĥ¼ãĥĢãĥ¼
ãĥĪãĥ¬ ãĥ¼ãĥĭãĥ³ãĤ°
ãĥĪãĥ¬ ãĥ¼ãĥĬãĥ¼
ãĥĪãĥ¬ ãĥ¼ãĥĩãĤ£ãĥ³ãĤ°
å®£ è¨Ģ
å®£ æķĻ
å®£ ä¼Ŀ
å®£ åĳĬ
å®£ æķĻå¸«
åħ« çĶ°
åħ« æľĪ
åħ« æľ¨
åħ« çİĭåŃĲ
åħ« å¹¡
åı² ä¸Ĭ
åı² æĸĻ
åı² è¦³
ãģĹãģı ãĤĢ
ãģĹãĤĥ ãģ¹ãĤĭ
äº¡ åĳ½
äº¡ ãģıãģĻ
äº¡ ãģıãģªãĤĭ
åĪº ãģĻ
åĪº èº«
åĪº æ¿Ģ
åĪº ç¹į
ãĤ¯ãĥ© ãĥĸ
ãĤ¯ãĥ© ãĥ¼ãĤ¯
ãĤ¯ãĥ© ãĥķãĥĪ
ãĤ¯ãĥ© ãĥĥãĤ·ãĥ¥
ãĤ¯ãĥ© ãĤ·ãĥĥãĤ¯
ãĤ¢ãĥ³ ãĤ³ãĥ¼ãĥ«
ãĤ¢ãĥ³ ãĤµãĥ³ãĥĸãĥ«
ãĤ¢ãĥ³ ãĤ±ãĥ¼ãĥĪ
ãĤ¢ãĤ¤ ãĤ³
ãĤ¢ãĤ¤ ãĥĮ
ãĤ¢ãĤ¤ ãĥīãĥ«
ãĤ¢ãĤ¤ ãĥĨãĥł
ãĤ¢ãĤ¤ ãĥĩãĤ£ãĤ¢
æĸ½ ãģĻ
æĸ½ è¡Į
æĸ½ å·¥
æĸ½ è¨Ń
æĸ½ çŃĸ
éģħ ãģĦ
éģħ ãĤĮ
éģħ ãĤĮãĤĭ
éģħ å»¶
éģħ åĪ»
éģħ ãĤīãģĽãĤĭ
ãģ¾ãģŁ ãģ¯
ãģ¾ãģŁ ãģĮãĤĭ
ãģ¾ãģŁ ãģ¾ãģŁ
ãģ¾ãģŁ ãĤĤãĤĦ
ï¼¢ ï¼¢
ï¼¢ ï¼§
ï¼¢ ï¼³
ï¼£ ï¼¤
ï¼£ ï¼§
ï¼£ ï¼Ń
ï¼¤ ï¼¦
ï¼¤ ï¼°
ï¼¤ ï¼®ï¼¡
ï¼§ ï¼«
ï¼§ ï¼·
ï¼§ ï¼¤ï¼°
ï¼¯ ï¼¢
ï¼¯ ï¼«
ï¼¯ ï¼¬
ï¼³ ï¼¦
ï¼³ ï¼³
ï¼´ ï¼¶
ï¼´ ãĤ·ãĥ£ãĥĦ
ï¼´ ï¼¢ï¼³
è¨º ãĤĭ
è¨º æĸŃ
è¨º å¯Ł
è¨º çĻĤ
ãģ¤ãģį ãģĤãģĦ
ãģ¤ãģį ãģĤãģĨ
çĽĹ ãĤĢ
çĽĹ ä½ľ
çĽĹ éĽ£
çĽĹ èģ´
å¾® åĪĨ
å¾® å¦Ļ
å¾® éı¡
å¾® çĶŁçī©
å¾® ç¬ĳãĤĢ
å¾³ å·Ŀ
å¾³ å³¶
èª¤ ãĤĭ
èª¤ ãĤĬ
èª¤ è§£
èª¤ å·®
èª¤ èªį
å°¾ å´İ
è¡£ æĸĻ
è¡£ è£ħ
è¡£ æľį
è¡£ é¡ŀ
æķ¬ æĦı
æķ¬ èªŀ
æķ¬ ç§°
æķ¬ éģł
åį± æ©Ł
åį± ãģªãģĦ
åį± éĻº
åį± ãģĨãģĦ
åį³ ãģĻ
åį³ ãģ¡
åį³ æĻĤ
åį³ åº§
åį³ èĪĪ
åįļ å¤ļ
åįļ å£«
åįļ è¦§
åįļ çī©é¤¨
å¹¼ ãģĦ
å¹¼ å°ĳ
å¹¾ ãĤī
å¹¾ ãģ¤
å¹¾ åĪĨ
å¹¾ åº¦
å¹¾ ä½ķ
æĿŁ ç¸Ľ
æŃ¯ ç§ĳ
æŃ¯ æŃ¢ãĤģ
æŃ¯ åĮ»èĢħ
æŃ´ ä»£
æŃ´ åı²
å¯¿ åĳ½
å¯¿ åı¸
å¯Ŀ ãĤĭ
å¯Ŀ å®¤
å¯Ŀ ãģĭãģĽãĤĭ
å¯Ŀ ä¸įè¶³
ãĤ¸ãĤ¢ ãĥ©ãĥĵãĤ¢
ä¼¼ ãĤĭ
ä¼¼ åĲĪãģĨ
ä¼¼ é¡Ķçµµ
ä¼Ĭ æĿ±
ä¼Ĭ èĹ¤
ä¼Ĭ éģĶ
ä¼Ĭ åĭ¢
ä¼Ĭ è±Ĩ
ä¼Ĭ ä¸¹
å±Ĭ ãģĳ
å±Ĭ åĩº
å±Ĭ ãģĳãĤĭ
ç´¢ å¼ķ
æĺĩ ãĤĭ
æĺĩ æł¼
æĺĩ éĢ²
ãģĵãĤĮ ãĤī
ãģĵãĤĮ ãģĭãĤī
ãģĵãĤĮ ãģŀ
ãģĵãĤĮ ãģłãģĳ
è²¨ çī©
è²¨ åºĹ
è²¨ å¹£
è²© å£²
è²© ä¿ĥ
è²¯ ãĤģãĤĭ
è²¯ éĩĳ
è²¯ ãģ¾ãĤĭ
è²¯ èĶµ
è²¯ èĵĦ
ãĥŀãĥį ãĥ¼
ãĥŀãĥį ãĤ¸ãĥ£ãĥ¼
ãĥŀãĥį ãĤ¸ãĥ¡ãĥ³ãĥĪ
ãģķãĤī ãģĨ
ãģķãĤī ãģ«
ãģķãĤī ãģªãĤĭ
æĽ´ ãģ«
æĽ´ çĶŁ
æĽ´ æĸ°
éĻ½ æ°Ĺ
éĻ½ åŃĲ
éĻį ãĤĭ
éĻį ãĤįãģĻ
ç«¶ ãģĨ
ç«¶ åĲĪ
ç«¶ å£²
ç«¶ é¦¬
ç«¶ äºī
ç«¶ æĬĢ
ç«¹ ä¸Ń
ç«¹ çĶ°
ç«¹ ä¸ĭ
ç«¹ åĨħ
ç«¹ å³¶
æĢª ãģĹãģĦ
æĢª çī©
æĢª æĪĳ
æĢª çį£
æĢª ãģĹãģĴ
æĬĹ çĶŁ
æĬĹ èŃ°
åĮħ ãĤĢ
åĮħ è£ħ
åĮħ åĽ²
åĮħ ä¸ģ
åĮħ æĭ¬
ãĤĦãģĻ ãģĦ
æµ´ å®¤
æµ´ è¡£
æµ´ ãģ³ãĤĭ
æµ´ ãģ³ãģĽãĤĭ
å¥¥ çĶ°
å¥¥ ãģķãĤĵ
å¥¥ æ§ĺ
å¥¥ è¡Įãģį
å¥¥ æ·±ãģĦ
å¥ı èĢħ
å¥ı æ¥½
å¥ı ãģ§ãĤĭ
ãĥĨãĤ¯ ãĤ¹ãĥĪ
ãĥĨãĤ¯ ãĥĭãĥĥãĤ¯
ãĥĨãĤ¯ ãĥĭãĤ«ãĥ«
å£ģ éĿ¢
å£ģ çĶ»
å£ģ ç´Ļ
å£Ĭ ãģĻ
å£Ĭ ãĤĮãĤĭ
å£Ĭ æ»ħ
ãģĮãĤī ãģ¿
æłĦ ãģĪãĤĭ
æłĦ é¤Ĭ
æłĦ åħī
ãĤ¦ãĤ§ ãĤ¤
ãĤ¦ãĤ§ ãĥ¼ãĥ«ãĤº
èĩ´ ãģĻ
èĩ´ åĳ½
éłĤ ãģı
éłĤ ãģĳãĤĭ
éłĤ ä¸Ĭ
éłĤ çĤ¹
éłĤ æĪ´
æĻ´ ãĤĮ
æĻ´ ãĤĮãĤĭ
æĻ´ å¤©
åłĤ ãĢħ
ç¨¼ åĭķ
ç¨¼ ãģĲ
ç¨¼ ãģĴãĤĭ
ç¨¼ åĥį
ç§Ģ åĲī
ç§Ģ éĢ¸
ç§Ģ éĽĦ
è£ı åģ´
è£ı åĪĩãĤĭ
è£ı ä»ĺãģĳãĤĭ
è£ı èħ¹
é£¯ çĶ°
ãģĺãĤĥ ãĥ¼
ãģĺãĤĥ ãģĨ
ãģĺãĤĥ ãĤĵ
ãģĺãĤĥ ãģĤ
ãģĺãĤĥ ãģģ
éļľ ãĤĭ
éļľ å®³
éļľ å£ģ
ãĥĭãĥ¥ ãĤ¢ãĥ³ãĤ¹
ãĥĭãĥ¥ ãĥ¼ãĥ¨ãĥ¼ãĤ¯
ãĥĭãĥ¥ ãĥ¼ãĥĪãĥ³
ãĥĭãĥ¥ ãĥ¼ãĤ¸ãĥ¼ãĥ©ãĥ³ãĥī
æ±ļ ãģĦ
æ±ļ ãģĻ
æ±ļ ãĤĮ
æ±ļ ãĤĮãĤĭ
æ±ļ èģ·
æ±ļ æŁĵ
æ±ł çĶ°
æ±ł è¢ĭ
ãĤ»ãĥ« ãĥķ
ãĤ»ãĥ« ãĥĵãĤ¢
èĪª æµ·
èĪª è·¯
ç¥Ŀ ãģĨ
ç¥Ŀ æĹ¥
ç¥Ŀ ç¦ı
ç¥Ń åħ¸
ç¥Ń å£ĩ
éħĴ äºķ
éħĴ éĢł
åĤ¬ ãģĻ
åĤ¬ ãģĹ
åĤ¬ çľł
æ¬§ ç±³
æ¬§ å·ŀ
çĤŃ éħ¸
çĤŃ éī±
çŃĭ åĬĽ
çŃĭ èĤī
ãģĲãĤĭ ãģĲãĤĭ
å»ĥ æŃ¢
å»ĥ æ£Ħ
å»ĥ å¢Ł
åĸľ ãģ³
åĸľ ãģ¶
åĸľ åĬĩ
åĸľ ãģ°ãģĹãģĦ
èĥĮ ä¸Ń
èĥĮ å¾Į
èĥĮ æĻ¯
èĥĮ çŃĭ
èĥĮ è²łãģĨ
ä»ĺãģĳ åĬłãģĪãĤĭ
ãĥ¯ãĥ¼ ãĤŃãĥ³ãĤ°
å¦Ĥ ãģĹ
å¦Ĥ ãģı
å¦Ļ ãģ«
è±Ĩ ä¹³
è±Ĩ èħĲ
å§Ķ åĵ¡
å§Ķ ä»»
å§Ķ ãģŃãĤĭ
å§Ķ è¨Ĺ
è¼¸ åĩº
è¼¸ åħ¥
è¼¸ éĢģ
ç¹ģ çĽĽ
ç¹ģ èı¯
ç¹ģ æłĦ
ç¹ģ æ®ĸ
ãĥĽãĥ¼ãĥł ãĤº
ãĥĽãĥ¼ãĥł ãĥ¬ãĤ¹
ãĥĽãĥ¼ãĥł ãĥ©ãĥ³
ãĥĽãĥ¼ãĥł ãĥļãĥ¼ãĤ¸
ãĥĽãĥ¼ãĥł ãĤ¹ãĥĨãĤ¤
éľĩ ãģĪãĤĭ
éľĩ åº¦
éľĬ çļĦ
ç¬¬ ä¸Ģäºº
ç¬¬ ä¸ĢæŃ©
ç¬¬ ä¸īèĢħ
èħ¹ çŃĭ
ç¦ģ ãģĺãĤĭ
ç¦ģ æŃ¢
ç¦ģ çħĻ
çľŁãģ£ åħĪ
çľŁãģ£ çĻ½
çľŁãģ£ èµ¤
çľŁãģ£ æļĹ
çľŁãģ£ é»Ĵ
çľŁãģ£ çĽ´ãģĲ
éº» çĶŁ
éº» èĸ¬
éº» éħĶ
éº» éĽĢ
éº» çĹº
åĿĤ æľ¬
åĿĤ éģĵ
åĿĤ åı£
éŃĶ åĬĽ
éŃĶ å¥³
éŃĶ è¡ĵ
é³¥ åıĸ
é³¥ å±ħ
è²·ãģĦ æīĭ
è²·ãģĦ çī©
è²·ãģĦ åıĸãĤĭ
è²·ãģĦ ä¸ĬãģĴ
è²·ãģĦ æıĽãģĪãĤĭ
è²·ãģĦ æ±ĤãĤģãĤĭ
æĬ¼ãģĹ è¾¼ãĤĢ
æĬ¼ãģĹ åĩºãģĻ
æĬ¼ãģĹ ãģ¤ãģĳãĤĭ
æĬ¼ãģĹ ä»ĺãģĳãĤĭ
æĬ¼ãģĹ å¯ĦãģĽãĤĭ
é®® æĺİ
é®® ãĤĦãģĭ
éª¨ æł¼
éª¨ æĬĺ
éª¨ èĳ£
æ¾ ģ
çĵ £
çĵ ľ
èĴ Ļ
éĭ ³
éĭ Ń
éĭ ŃãģĦ
ãĤĴ ãĤĤãģ£ãģ¦
ãĤĴ ãĤģãģĲ
ãĤĴ å¾ĹãģªãģĦ
ãĤĴ ä»¥ãģ¦
ãģĦãģĦ ãģĪ
ãģĦãģĦ åĬłæ¸Ľ
ä¸ģ åº¦
ä¸ģ çĽ®
ä¸ģ å¯§
ãĤ¹ãĤ¿ãĥ¼ ãĥªãĥ³
æľŃ å¹Į
åħĦ ãģķãĤĵ
åħĦ è²´
åħĦ ãģ¡ãĤĥãĤĵ
åħĦ å¼Ł
ãģĹãģ¿ ãĤĭ
ãģĹãģ¿ ãģĺãģ¿
äºĶ ãģ¤
äºĶ æľĪ
äºĶ æĦŁ
äºĶ éĥİ
äºĶ è¼ª
äºĶ åįģåµĲ
å¤ı åł´
å¤ı ä¼ĳãģ¿
ãģĭãģĹ ãģĵ
ãģĭãģı ãģĹãģ¦
åĪ° çĿĢ
åĪ° æĿ¥
åĪ° éģĶ
åĪ° åºķ
ãĤ¯ãĥ« ãĥ¼
ãĤ¯ãĥ« ãĥŀ
ãĤ¯ãĥ« ãĥ¼ãĤº
åĲĽ ä¸»
åĲĽ ãģŁãģ¡
åĲĽ ãģĮä»£
ãĥ©ãĥ« ãĥ³ãĥĹãĥ¼ãĥ«
ãĤ¢ãĤ¯ ãĤ»ãĥ«
ãĤ¢ãĤ¯ ãĤ»ãĥ³ãĥĪ
ãĤ¢ãĤ¯ ãĥĨãĤ£ãĥĸ
ãĤ¢ãĤ¯ ãĤ»ãĤ¹
ãĤ¢ãĤ¯ ãĤ»ãĤµãĥªãĥ¼
ãĤ¢ãĥī ãĥĲãĤ¤ãĤ¹
ãĤ¢ãĥī ãĥĲãĤ¤ãĤ¶ãĥ¼
éĢĨ ãģ«
éĢĨ è¡Į
éĢĨ è»¢
éĢĨ ãĤīãģĨ
éģ¿ ãģĳãĤĭ
éģ¿ éĽ£
éģĤ ãģ«
éģĤ è¡Į
éģĬ ãģ³
éģĬ ãģ¶
éģĬ ãģ¹ãĤĭ
éģĬ åľĴ
éģĬ æĪ¯
ä½µ åĲĪ
ä½µ çĶ¨
ä½µ ãģĽãĤĭ
ä½µ è¨Ń
ãģ¾ãģļ ãģĦ
ãģ¾ãģļ ãģ¯
ãģ¾ãģļ ãģ¾ãģļ
ï¼· æĿ¯
ï¼· ï½ħ
ï¼Ń ï¼¦
ãģ¨ãĤĬ ãĤıãģĳ
ãģ¨ãĤĬ ãģĤãģĴãĤĭ
ãģ¨ãĤĬ ãģĤãģĪãģļ
è¨İ ãģ¤
è¨İ èŃ°
è¨İ è«ĸ
ãģŁãģı ãģķãĤĵ
ãģŁãģı ãģ¾ãģĹãģĦ
æĹ¨ ãģĦ
åĭĺ å®ļ
åĭĺ æ¡Ī
åĭĺ å¼ģ
åĭĺ éģķãģĦ
åĭŁ ãĤĭ
åĭŁ éĩĳ
åĭŁ éĽĨ
å¾¹ ãģĻ
å¾¹ å¤ľ
ãĥ¬ãĥ³ ãĤº
ãĥ¬ãĥ³ ãĤ¬
èªł ãģ«
èªł å®Ł
èªł æĦı
ãĤ·ãĥ³ ãĤ¬ãĥ¼
ãĤ·ãĥ³ ãĤ¬ãĥĿãĥ¼ãĥ«
ãĤ·ãĤ¢ ãĤ¿ãĥ¼
ãĤ·ãĤ¢ ãĥĪãĥ«
å°Ĩ æĿ¥
å°Ĩ æł¡
å°Ĩ è»į
å°Ĩ æ£ĭ
å°Ĭ ãģĦ
å°Ĭ éĩį
å°Ĭ åİ³
å°Ĭ æķ¬
ãĥķãĥ« ãĥ¼ãĥĪ
ãĥķãĥ« ãĥ¼ãĥĦ
çµµ æľ¬
çµµ çĶ»
çµµ æŁĦ
åįĴ è«ĸ
æ°ı åĲį
å¹ķ æľ«
å¹ķ åºľ
æĿī æľ¬
æĿī å±±
æĿī ä¸¦
æĿī æµ¦
æŃ³ åĩº
æŃ³ åħ¥
æŃ³ æľĪ
æŃ³ åħĲ
ä¼¸ ãģ³
ä¼¸ ãģ³ãĤĭ
ä¼¸ ãģ°ãģĻ
ç´Ģ è¡Į
ç´Ģ åħĥåīį
ç´Ķ æŃ£
ç´Ķ ç²ĭ
ç´Ķ ä¸Ģéĥİ
ãģĵãĤĵ ãģ©
ãĤıãĤī ãģĹãģ¹
è²¬ ãĤģãĤĭ
è²¬ åĭĻ
ãģĤãĤī ãĤıãģĻ
ãģĤãĤī ãĤıãĤĮãĤĭ
ãģĤãĤī ãģŁãĤģãģ¦
ãĥŀãĥ¼ ãĤ±ãĥĥãĥĪ
ãĥŀãĥ¼ ãĤ«ãĥ¼
ãĥŀãĥ¼ ãĤ±ãĥĨãĤ£ãĥ³ãĤ°
ãĥŀãĥ« ãĤ³
ãĤĤãģĨ ãģĳãĤĭ
ãĤĤãģĨ ãģĻãģĲ
ãĤĤãģĨ ä¸Ģåº¦
ãĤĤãģĨ å°ĳãģĹ
ãĤĤãģ® ãģ®
ãĤĤãģ® åĩĦãģĦ
ãĤĤãģ® ãģĻãģĶãģĦ
åĨĨ å½¢
åĨĨ çĽ¤
åĨĨ æ»ĳ
ãĥĹãĥ© ãĤ°
ãĥĹãĥ© ãĥ³ãĥĪ
ãĥĹãĥ© ãĤ¶
ãĥĹãĥ© ãĥ³ãĥĭãĥ³ãĤ°
ãĥĹãĥ© ãĥĥãĥĪãĥķãĤ©ãĥ¼ãĥł
ãĥĹãĥ© ãĤºãĥŀ
éĻ³ æĥħ
éĻ³ åĪĹ
éĻ³ è¿°
éĻ³ èħĲ
ç·© ãģĦ
ç·© ãĤĢ
ç·© ãĤģãĤĭ
ç·© åĴĮ
ç·© ãĤĦãģĭ
çĻĤ æ³ķ
çĻĤ é¤Ĭ
ãĥĲãĥª ãĥ¥ãĥ¼
ãĥĲãĥª ãĥĲãĥª
ãĥĲãĥª ãĤ¨ãĥ¼ãĤ·ãĥ§ãĥ³
ãĥĲãĥĥãĤ¯ ãĤ¢ãĥĥãĥĹ
ãĥĲãĥĥãĤ¯ ãĥĬãĥ³ãĥĲãĥ¼
ãĥĲãĥĥãĤ¯ ãĥĪãĥ©ãĥĥãĤ¯
ãĥĲãĥĥãĤ¯ ãĤ°ãĥ©ãĤ¦ãĥ³ãĥī
éĥµ éĢģ
éĥµ ä¾¿
éĥµ è²¯
æİ§ ãģĪãĤĭ
æİ§ éĻ¤
æİ§ è¨´
æİĪ æ¥Ń
æİĪ ä¸İ
æİĴ åĩº
æİĴ æ°Ĺ
æİĴ æ°´
æİĴ éĻ¤
æİĴ ä»ĸ
ãģĿãģĵ ãĤī
ãģĿãģĵ ãģ§
ãģĿãģĵ ãģĿãģĵ
æµ¦ åĴĮ
æµľ çĶ°
æµľ æĿ¾
éĿ© æĸ°
éĿ© åĳ½
æł¸ å¿ĥ
æł¸ åħµåĻ¨
ãĤ¦ãĥ³ ãĤµãĥ¼
æ¸¯ æ¹¾
æ¸ħ æ°´
æ¸ħ ç®Ĺ
æ¸ħ æİĥ
æ¸ħ æ½Ķ
èĩ³ ãĤĭ
èĩ³ ä¸Ĭ
èĩ³ ç¦ı
èĩĵ åĻ¨
éłħ çĽ®
æĻ® éĢļ
æĻ® æ®µ
æĻ® åıĬ
æĻ® éģį
ãĤªãĥª ãĥ¼ãĥĸ
ãĤªãĥª ãĥĥãĤ¯ãĤ¹
ãĤªãĥª ãĥ³ãĥĶ
ãĤªãĥª ãĤ¸ãĥĬãĥ«
çŁ¢ çĲĨ
çŁ¢ åħĪ
çŁ¢ éĩİ
çŁ¢ åį°
ç§ĭ çĶ°
ç§ĭ å±±
ç§ĭ èĳīåİŁ
ï½į ï½į
ãĥģãĤ§ ãĥŃ
ãĥģãĤ§ ãĤ³
ãĥģãĤ§ ãĥ¼ãĥ³
ãĥģãĤ§ ãĥ³ãĤ¸
èŃ² ãĤĭ
èŃ² æŃ©
èŃ² æ¸¡
ãĤ¨ãĤ¢ ãĥ¼
ãĤ¨ãĤ¢ ãĤ³ãĥ³
ä¾µ ãģĻ
ä¾µ åħ¥
ä¾µ å®³
ä¾µ çķ¥
ä¾µ æĶ»
ä¾Ŀ ãĤĭ
ä¾Ŀ åŃĺ
ä¾Ŀ éł¼
ãĥĳãĤ¤ ãĥĹ
ãĥĳãĤ¤ ãĥŃãĥĥãĥĪ
ãĥĳãĤ¤ ãĤªãĥĭãĤ¢
èĢĲ ãģĪãĤĭ
èĢĲ æĢ§
èĢĲ ä¹ħ
èĢĲ éľĩ
ãģłãĤĵ ãģ«
éļİ æ®µ
éļİ ç´ļ
éļİ å±¤
éļı åĪĨ
éļı æĻĤ
éļı æīĢ
éļł ãģĻ
éļł ãģĹ
éļł ãĤĮ
éļł ãĤĮãĤĭ
éļł èĶ½
æĭ¬ ãĤĭ
è«¸ åĽ½
è«¸ ãĢħ
è«¸ å³¶
è«¸ åĲĽ
ãĤ»ãĥ³ ãĤ¿ãĥ¼
ãĤ»ãĥ³ çĹħ
ãĤ»ãĥ³ ãĤµãĥ¼
ç©¶ æĺİ
ç©¶ æ¥µ
æıº ãĤĮ
æıº ãĤĮãĤĭ
æıº ãĤīãģĲ
æıº ãģķãģ¶ãĤĭ
éħĶ ãģĨ
éħĶ ãģ£æīķãģĨ
æ¯Ĵ æĢ§
çĤº ãģĻ
çĤº æĽ¿
è§¦ ãĤĭ
è§¦ ãĤĮãĤĭ
ç¾¤ ãĤĮ
ç¾¤ é¦¬
ç¾½ çĶ°
ç¾½ çĽ®
ç¾½ æł¹
èī¦ éķ·
èī¦ éļĬ
å½ĵãģ¦ ãģ¯ãģ¾ãĤĭ
å½ĵãģ¦ ãģ¯ãĤģãĤĭ
æħ¢ æĢ§
æħ£ è¡Į
æħ£ ç¿Ĵ
æħ® ãĤĭ
æŁĶ éģĵ
æŁĶ ãĤīãģĭ
æŁĶ ãĤīãģĭãģĦ
çļĨ çĦ¡
çļĨ ãģķãĤĵ
çļĨ æ§ĺ
çļĨ ãģķãģ¾
åŁ· è¡Į
åŁ· çĿĢ
åŁ· çŃĨ
åŁ· æĭĹ
åŁĭ ãĤģãĤĭ
åŁĭ ãģ¾ãĤĭ
åŁĭ èĳ¬
åŁĭ ãĤģè¾¼ãĤĢ
åŁĭ ãĤĤãĤĮãĤĭ
ãĥĿãĥ¼ãĥĪ ãĥķãĤ©ãĥªãĤª
ç½° éĩĳ
ç½° åīĩ
ç²ī é£¾
ç²ī çłķ
è¬Ŀ ãĤĭ
è¬Ŀ ç½ª
å§ī ãģķãĤĵ
å§ī ãģ¡ãĤĥãĤĵ
å§ī æŃ¯
å§ī å¦¹
è¼ª éĥŃ
ãģ»ãĤĵ ãģ¾
ãģ»ãĤĵ ãģ¨
ãģ»ãĤĵ ãģ®
ãģ»ãĤĵ ãģ¨ãģĨ
ãģ»ãĤĵ ãģ¨ãģ«
å¡ļ æľ¬
çĸ² ãĤĮãĤĭ
çĸ² åĬ´
å£²ãĤĬ æīĭ
å£²ãĤĬ çī©
å£²ãĤĬ åł´
å£²ãĤĬ ä¸ĬãģĴ
æ»ĳ ãĤĭ
æ»ĳ èµ°
æ»ĳ ãĤīãģĭ
æ»ĳ ç¨½
çłĶ ä¿®
èĳ¬ ãĤĭ
èĳ¬ å¼ı
èĳ¬ åĦĢ
èĸĦ ãģĦ
èĸĦ ãĤĮãĤĭ
èĸĦ æļĹãģĦ
æ£Ħ åį´
æĨ² æ³ķ
æĨ² ç«ł
èį· çī©
ãĤ®ãĥ£ ãĥ«
ãĤ®ãĥ£ ãĥ©
ãĤ®ãĥ£ ãĤ°
ãĤ®ãĥ£ ãĥĥãĥĹ
ãĤ®ãĥ£ ãĥ©ãĥªãĥ¼
ãĤ®ãĥ£ ãĥ³ãĥĸãĥ«
æ½® æµģ
æ½ľ ãĤĭ
æ½ľ ãĤĢ
æ½ľ åħ¥
æ½ľ åľ¨
æ½ľ æ°´èī¦
é¨Ĵ åĭķ
é¨Ĵ ãģĲ
é¨Ĵ éŁ³
ä¹ĹãĤĬ çī©
ä¹ĹãĤĬ åĪĩãĤĭ
ä¹ĹãĤĬ æıĽãģĪãĤĭ
ä¹ĹãĤĬ è¶ĬãģĪãĤĭ
ä¹ĹãĤĬ æıĽãģĪ
æĩ¸ æ¡Ī
æĩ¸ å¿µ
æĩ¸ è³ŀ
æĵį ãĤĭ
æĵį ä½ľ
æĵį æ¥Ń
æĵį ç¸¦
å·®ãģĹ è¾¼ãĤĢ
å·®ãģĹ åĩºãģĻ
å·®ãģĹ ä¸ĬãģĴãĤĭ
å·®ãģĹ å¼ķãģı
å·®ãģĹ æĶ¯ãģĪãĤĭ
ãĥ¦ãĥĭ ãĥĥãĥĪ
ãĥ¦ãĥĭ ãĥ¼ãĤ¯
ãĥ¦ãĥĭ ãĤªãĥ³
ãĥ¦ãĥĭ ãĥķãĤ©ãĥ¼ãĥł
ãĥ¦ãĥĭ ãĥĲãĥ¼ãĤµãĥ«
é£Ľãģ³ è¾¼ãĤĢ
é£Ľãģ³ åĩºãģĻ
é£Ľãģ³ ãģ¤ãģı
é£Ľãģ³ ç«ĭãģ¤
é£Ľãģ³ éĻįãĤĬãĤĭ
é£Ľãģ³ äº¤ãģĨ
å¨ģ åĬĽ
å¨ģ åļĩ
ç°¡ ç´ł
ç°¡ åįĺ
ç°¡ æĺĵ
ç°¡ æ½Ķ
çĩĥ ãģĪãĤĭ
çĩĥ æĸĻ
çĩĥ è²»
çĩĥ çĦ¼
çĩĥ ãĤĦãģĻ
è¤ĩ åĲĪ
è¤ĩ æķ°
è¤ĩ éĽĳ
è¤ĩ è£½
é©ļ ãģı
é©ļ ãģį
é©ļ çķ°
é©ļ ãģĭãģĻ
é©ļ æĦķ
èŀį åĲĪ
èŀį éĢļ
âĸ ¡
âĸ ²
âĸ ³
âĸ ¼
âĸ ½
çĢ §
çĢ ¨
ãĤ¾ ãĥ³
ãĤ¾ ãĤ¦
ãĤ¾ ãĥ¼ãĥ³
ãĤ¹ãĤ± ãĥ¼ãĥ«
ãĤ¹ãĤ± ãĥ¼ãĥĪ
ãĤ¹ãĤ± ãĥĥãĥģ
ãĤ¹ãĤ± ãĤ¸ãĥ¥ãĥ¼ãĥ«
ãĤ¹ãĥļ ãĥ«
ãĤ¹ãĥļ ãĤ¤ãĥ³
ãĤ¹ãĥļ ãĥ¼ãĤ¹
ãĤ¹ãĥļ ãĤ·ãĥ£ãĥ«
ãĤ¹ãĥĨãĤ£ ãĥĥãĤ¯
ãĤ¹ãĥĨãĤ£ ãĥ³ãĤ°
ãĤ¹ãĥĨãĤ£ ãĥ¼ãĥĸ
ãĤ¹ãĥĨãĤ£ ãĥ¼ãĥĸãĥ³
å®ľ ãģĹãģĦ
å®ľ ãģĹãģı
ãģĻãģĲ ãĤĮãĤĭ
ãģĻãģĲ ãģķãģ¾
åıĮ åŃĲ
åıĮ æĸ¹
åıĮ æĸ¹åĲĳ
ãģĹãĤĩ ãģ£ãģ¡ãĤħãģĨ
å¤¢ ä¸Ń
å¤¢ è¦ĭãĤĭ
ãģĭãĤĵ ãģĺãĤĭ
ãģĭãĤĵ ãģĮãģ¿ãĤĭ
åĲ¸ ãģĨ
åĲ¸ åıİ
åĲ¸ ãģĦè¾¼ãĤĢ
ãĤ¢ãĥĬ ãĥªãĤ¹ãĥĪ
ãĤ¢ãĥĬ ãĥŃãĤ°
ãĤ¢ãĥĬ ãĤ¦ãĥ³ãĤ¹
ãĤ¢ãĥĬ ãĤ¦ãĥ³ãĤµãĥ¼
éģ£ ãģĨ
ä»ı æķĻ
ä»ı åĥı
ä»ı å£ĩ
è¦Ĩ ãĤĭ
è¦Ĩ ãģĦ
è¦Ĩ ãģĻ
è¦Ĩ ãģĨ
è¦ĩ æ¨©
ï¼© ï¼£
ï¼© ï¼¤
åĽ° ãĤĭ
åĽ° éĽ£
åĽ° æĥĳ
åŃ£ ç¯Ģ
è¨ª ãĤĮãĤĭ
è¨ª åķı
è¨ª ãģŃãĤĭ
è¨Ĺ ãģĻ
ãģ¤ãģª ãģĲ
ãģ¤ãģª ãģĴãĤĭ
ãģ¤ãģª ãģİ
ãģ¤ãģª ãģĮãĤĭ
ãģ¤ãģª ãģĮãĤĬ
ãģ¤ãģ¶ ãĤĭ
ãģ¤ãģ¶ ãģĻ
ãģ¤ãģ¶ ãĤĮãĤĭ
ãģ¤ãģ¶ ãĤĦãģı
ãģ¤ãģ¶ ãĤĦãģį
ãģªãģĭ ãģ§ãĤĤ
ãģªãģĭ ãģªãģĭ
ãģªãģ« ãģĭ
ãģªãģ« ãģĽ
ãģªãģ« ãģĹãĤį
ãģªãģ« ãĤĦãĤī
ãģŁãģŁ ãģĪãĤĭ
ãģŁãģŁ ãģĭãģĨ
ãģŁãģŁ ãģįåı°
ãģŁãģ¡ ãģ¾ãģ¡
æĹ§ æĿ¥
æĹ§ ç´Ħ
åĭ§ ãĤģ
åĭ§ ãĤģãĤĭ
åĭ§ åĳĬ
åĭ§ èªĺ
ãģĬãģĭ ãģĹãģĦ
ãģĬãģĭ ãģĴ
ãģĬãģĭ ãģļ
ãģĬãģĭ ãģĤãģķãĤĵ
å¾´ åıİ
å¾´ åħµ
ãĥ¬ãĤ¤ ãĥĹ
ãĥ¬ãĤ¤ ãĤ¢ãĤ¦ãĥĪ
åĩĦ ãģ¾ãģĺãģĦ
ãĤ·ãĥ¼ ãĤ¢
ãĤ·ãĤ§ ãĤ¢
ãĤ·ãĤ§ ãĥķ
å°½ åĬĽ
å°½ ãģįãĤĭ
å°½ ãģıãģĻ
å°ģ å»º
å°ģ åį°
å°ģ éİĸ
å°ģ çŃĴ
å°ĭ åķı
å°ĭ å¸¸
å°ĭ ãģŃãĤĭ
è¡Ŀ åĭķ
è¡Ŀ æĴĥ
è¡Ŀ çªģ
åºĬ å±ĭ
åºŃ åľĴ
æķµ å¯¾
æķ· ãģı
æķ· åľ°
æķ· å±ħ
çµ¡ ãĤĢ
çµ¡ ãĤģãĤĭ
çµ¡ ãģ¿åĲĪãģĨ
å¹ħ åºĥãģĦ
åĬ± ãĤĢ
åĬ± ãģ¾ãģĻ
å¯º éĻ¢
å±¥ ãģı
å±¥ è¡Į
å±¥ ä¿®
å±¥ æŃ´
å±Ī è¾±
ç´ħ çĻ½
ç´ħ èĮ¶
ç´ħ èĳī
æĪ» ãĤĭ
æĪ» ãĤĮãĤĭ
æĺĶ è©±
æĺĶ ãģªãģĮãĤī
å¿ł å®Ł
å¿ł åĳĬ
å¿ł èªł
ãĤıãģĸ ãģ¨
ãĤıãģĸ ãĤıãģĸ
åĩºæĿ¥ ãĤĭ
åĩºæĿ¥ äºĭ
åĩºæĿ¥ é«ĺ
åĩºæĿ¥ ä¸ĬãģĮãĤĭ
çīĪ åħĥ
è²§ ãģĹãģĦ
è²§ å¼±
è²§ åĽ°
è²§ ä¹ı
å¸Į å°ĳ
å¸Į æľĽ
å¸Į èĸĦ
å½© ãĤĭ
å·¡ ãĤĭ
å·¡ ãĤĬ
å·¡ åĽŀ
å·¡ ç¤¼
å·¨ å¤§
å·¨ äºº
å·¨ é¡į
å·¨ åĮł
ãģĤãĤĭ ãģı
ãģĤãĤĭ ãģĦãģ¯
ãģĤãĤĭ ç¨ĭåº¦
ãģĤãģĦ ãģł
ãģĤãģĦ ãģķãģ¤
ãģĤãģĦ ãģ«ãģı
åīĬ ãĤĭ
åīĬ æ¸Ľ
åīĬ éĻ¤
ãĥĹãĥ©ãĤ¤ ãĤ¹
ãĥĹãĥ©ãĤ¤ ãĤ¢
ãĥĹãĥ©ãĤ¤ ãĥī
ãĥĹãĥ©ãĤ¤ ãĥĻãĥ¼ãĥĪ
ãĥĹãĥ©ãĤ¤ ãĥĲãĤ·ãĥ¼
éĻ° éĻ½
éĻ° è¬Ģ
ç·Ĭ æĢ¥
ç·Ĭ å¼µ
ç·Ĭ å¯Ĩ
ç·Ĭ è¿«
ç·ĳ åľ°
ç·ĳ èī²
ç·ĳ èĮ¶
æĢĴ ãĤĭ
æĢĴ ãĤĬ
æĢĴ é³´ãĤĭ
è³¢ ãģĦ
è³¢ æĺİ
è³¢ æ²»
è³ĥ éĩĳ
è³ĥ è²¸
æĬ± ãģı
æĬ± ãģĪãĤĭ
æĬ± ãģ£ãģĵ
æĬ± ãģįãģĹãĤģãĤĭ
æĬĳ ãģĪãĤĭ
æĬĳ åĪ¶
æĬĳ æŃ¢
æĬĳ åľ§
ãĥĲãĥĥ ãĤ°
ãĥĲãĥĥ ãĥı
ãĥĲãĥĥ ãĥķãĤ¡
ãĥĲãĥĥ ãĤ·ãĥ³ãĤ°
ãĥĲãĥĥ ãĥĨãĥªãĥ¼
ãĥĲãĥ© ãĥ¼ãĥī
ãĥĲãĥ© ãĥ³ãĤ¹
ãĥĲãĥ© ãĥĲãĥ©
è¿· ãģĦ
è¿· ãģĨ
è¿· æĥĳ
è¿İ ãģĪãĤĭ
æ³Ĭ ãģ¾ãĤĭ
ãĤ°ãĥŃ ãĥ¼ãĥĸ
æİ² ãģĴãĤĭ
æİ² è¼ī
æİĺ ãĤĭ
æİĺ ãĤĬä¸ĭãģĴãĤĭ
æµħ ãģĦ
æµħ çĶ°
æµħ éĩİ
æµħ èįī
å¥ĩ è·¡
å¥ĩ å¦Ļ
ãĥĨãĥ³ ãĤ·ãĥ§ãĥ³
ãĤ¦ãĤ£ ãĥ¼ãĤ¯
ãĤ¦ãĤ£ ãĥ¼ãĥ³
ãĤ¦ãĤ£ ãĥ«ãĤ¹
ãĤ¦ãĤ£ ãĥ³ãĥīãĤ¦
ãĤ¦ãĤ£ ãĥªãĤ¢ãĥł
ãĤ¦ãĤ© ãĥ³
ãĤ¦ãĤ© ãĥ¼ãĥ«
ãĤ¦ãĤ© ãĥ¼ãĤ¯
ãĤ¦ãĤ© ãĥ¼ãĤ¿ãĥ¼
ãĤ¦ãĤ© ãĥ¼ãĤŃãĥ³ãĤ°
éłĲ ãģĳãĤĭ
éłĲ éĩĳ
éłĲ è¨Ģ
éłĲ ãģĭãĤĭ
ãĤªãĥ¼ ãĥ©
ãĤªãĥ¼ ãĤ¹ãĥĪãĥ©
ãĤªãĥ¼ ãĤ¹ãĥĪãĥªãĤ¢
ãĤªãĥ¼ ãĤ±ãĤ¹ãĥĪãĥ©
ãĥīãĥª ãĥ«
ãĥīãĥª ãĥ¼ãĥł
ãĥīãĥª ãĥ³ãĤ¯
ãĥīãĥª ãĥĸãĥ«
ç¨² èĳī
è£ķ ç¦ı
é£¼ ãģĨ
é£¼ æĸĻ
é£¼ èĤ²
é£¼ ãģĦä¸»
é£¾ ãĤĭ
é£¾ ãĤĬ
æ²¡ åıİ
æ²¡ éłŃ
æ²¿ ãģĦ
æ²¿ ãģĨ
æ²¿ ç·ļ
æ²¿ å²¸
é¡§ åķı
é¡§ å®¢
é¡§ ãģ¿ãĤĭ
é¡ķ åľ¨
é¡ķ èĳĹ
é¡ķ å¾®éı¡
ãĥĳãĥ³ ãĥķãĥ¬ãĥĥãĥĪ
ãģłãģĦ ãģ¶
ãģłãģĦ ãģŁãģĦ
éļĶ ãģ¦ãĤĭ
éļĶ éĽ¢
ãĥĭãĥĥãĤ¯ ãĥįãĥ¼ãĥł
æĭ¡ å¤§
æĭ¡ å¼µ
æĭ¡ æķ£
æĭ¡ åħħ
æĭĿ è¦ĭ
ä¹³ å¹¼åħĲ
ä¹Ŀ æľĪ
æ±Ł æĪ¸
ãĤ»ãĥ³ãĥĪ ãĥ©ãĥ«
åĢī åº«
åĢį å¢Ĺ
åĢį çİĩ
åĢŁ éĩĳ
åĢŁ å®¶
åĢŁ ãĤĬãĤĭ
åĢŁ åħ¥éĩĳ
æı¡ ãĤĭ
æı¡ ãĤĬ
æı¡ æīĭ
æıı ãģĳãĤĭ
æıı åĨĻ
ä¸įåı¯ è§£
ä¸įåı¯ èĥ½
ä¸įåı¯ æ¬ł
ä¸įåı¯ éģ¿
ç¥Ī ãĤĭ
ç¥Ī é¡ĺ
æ®¿ ä¸ĭ
æ´ŀ å¯Ł
æ´ŀ çªŁ
åĤ¾ ãģı
åĤ¾ ãģĳãĤĭ
åĤ¾ åĲĳ
åĤ¾ æĸľ
ãĥıãĥ³ ãĤ¿ãĥ¼
ãĥıãĥ³ ãĤ«ãĥģ
ãĥıãĥ³ ãĤ¬ãĥªãĥ¼
ãĥıãĥ³ ãĤ»ãĥ³çĹħ
ãĥıãĤ¤ ãĥĨãĤ¯
ãĥıãĤ¤ ãĥĸãĥª
ãĥıãĤ¤ ãĥĵãĤ¸ãĥ§ãĥ³
ãĥıãĤ¤ ãĥ©ãĤ¤ãĥĪ
åģı ãĤĭ
åģı è¦ĭ
åģı å·®
ãģ§ãģĻ ãģĮ
ãģ§ãģĻ ãģĭãĤī
ãģ§ãģĻ ãģĳãĤĮãģ©
æĤ© ãĤĢ
æĤ© ãģ¿
æĤ© ãģ¾ãģĻ
æĤŁ ãĤĭ
æĤŁ ãĤĬ
æº¶ ãģĳãĤĭ
æº¶ æİ¥
æº¶ ãģĭãģĻ
æº¶ ãģĳè¾¼ãĤĢ
ç¶± éłĺ
é«ª åŀĭ
é«ª ãģ®æ¯Ľ
æģĭ äºº
æģĭ æĦĽ
æħ° ãĤģãĤĭ
æħ° å®ī
æħ° éľĬ
æħ° è¬Ŀ
ãĥ¢ãĥ³ ãĤ´ãĥ«
åĸ« çħĻ
è¶£ åĳ³
è¶£ åĲĳ
è¶£ æĹ¨
è¶ħ ãģĪãĤĭ
è¶ħ éģİ
è¶ħ è¶Ĭ
æ¼¢ æĸ¹
æ¼¢ åŃĹ
æ¼ģ æ¥Ń
æ¼ģ å¸«
æ¼ģ èĪ¹
æ¼ı ãĤĮ
æ¼ı ãĤĮãĤĭ
æ¼ı ãĤīãģĻ
æ¼ı æ´©
ãĤ¬ãĥ³ ãĤ¬ãĥ³
æ·» ãģĪãĤĭ
æ·» ä»ĺ
æ·» åĬł
æ·» åīĬ
èĦħ ãģĻ
èĦħ ãģĭãģĻ
èĦħ è¿«
èĦħ å¨ģ
ç½² åĲį
çŁ¥ãĤī ãģļ
çŁ¥ãĤī ãģĽãĤĭ
è±Ĭ ãģĭ
è±Ĭ çĶ°
è±Ĭ å¯Į
èĬĿ çĶŁ
èĬĿ å±ħ
ãģĶãģ¨ ãģĹ
ç¸ģ èµ·
ãĤ¤ãĥ³ãĤ¿ ãĥĵãĥ¥ãĥ¼
ãĤ¤ãĥ³ãĤ¿ ãĥ¼ãĥį
ãĤ¤ãĥ³ãĤ¿ ãĥ¼ãĥķãĤ§
ãĤ¤ãĥ³ãĤ¿ ãĥķãĤ§ãĥ¼ãĤ¹
ãĤ¤ãĥ³ãĤ¿ ãĥ¼ãĥĬãĤ·ãĥ§ãĥĬãĥ«
å¡Ĺ ãĤĭ
å¡Ĺ ãĤĬ
å¡Ĺ æĸĻ
å¡Ĺ è£ħ
ç¹° ãĤĬåĩºãģĻ
ç¹ĭ ãģĲ
ç¹ĭ ãģĴãĤĭ
ç¹ĭ ãģĮãĤĭ
ç¹ĭ ãģĮãĤĬ
ç¹Ķ ãĤĭ
ç¹Ķ çĶ°
ç¹Ķ ãĤĬè¾¼ãĤĢ
çģ¯ æ²¹
çĭĤ ãģĨ
çĭĤ æ°Ĺ
æ¶² ä½ĵ
æ¶² æĻ¶
éľĢ è¦ģ
éľĢ çµ¦
æ»ŀ ãĤĭ
æ»ŀ åľ¨
æĴ¤ åĽŀ
æĴ¤ éĢĢ
æĴ¤ åİ»
æĴ¤ å»ĥ
æĴ® ãĤĭ
æĴ® ãĤĮãĤĭ
æĴ® å½±
çłĤ æµľ
çłĤ ç³ĸ
çłĤ æ¼ł
ãĤ½ãĥķãĥĪ ãĥĲãĥ³ãĤ¯
ãĤ½ãĥķãĥĪ ãĤ¦ãĤ§ãĤ¢
ãĤ½ãĥķãĥĪ ãĤ¦ãĤ¨ãĤ¢
ç¿Į æĹ¥
ç¿Į å¹´
ç¿Į æľĿ
èħĲ ãĤĭ
èħĲ æķĹ
éĺª ç¥ŀ
éĺª æĢ¥
æ¿ĥ ãģĦ
æ¿ĥ åº¦
æ¿ĥ ç¸®
æ¿ĥ åİļ
èĻĲ å¾ħ
èĻĲ æ®º
é§Ĳ è»Ĭ
é§Ĳ åľ¨
é§Ĳ çķĻ
æĲº ãĤıãĤĭ
æĲº å¸¯
ç³ĸ å°¿
é»Ħ éĩĳ
é»Ļ ãĤĭ
é»Ļ ãĢħãģ¨
çĨŁ æĪĲ
çĨŁ ç·´
éĤª æĤª
éĤª éŃĶ
éĤĦ åħĥ
éĬŃ æ¹¯
ä½įç½® ä»ĺãģĳãĤĭ
ä½įç½® ä»ĺãģĳ
ä½įç½® ãģ¥ãģĳãĤĭ
ä½įç½® ãģ¥ãģĳ
ãĤĨãĤĭ ãģĦ
éī± çī©
éī± å±±
éī± æ¥Ń
åĿĩ ä¸Ģ
åĿĩ çŃī
åĿĩ è¡¡
çħĻ èįī
æ¹¾ å²¸
çĮ® éĩĳ
çĮ® èº«
éŃħ åĬĽ
éŃħ ãģĽãĤĭ
éŃħ äºĨ
æĮ¯ãĤĬ åĽŀãģĻ
æĮ¯ãĤĬ åĲĳãģı
æĮ¯ãĤĬ è¿ĶãĤĭ
çį² ãĤĭ
çį² çī©
çį² å¾Ĺ
å¾ħãģ¡ æĻĤéĸĵ
å¾ħãģ¡ åĲĪãĤıãģĽ
å¾ħãģ¡ åıĹãģĳãĤĭ
è£ģåĪ¤ å®ĺ
ãĥĺãĥ« ãĤ¹
ãĥĺãĥ« ãĥĹ
ãĥĺãĥ« ãĥĳãĥ¼
ãĥĺãĥ« ãĥ¡ãĥĥãĥĪ
çĽĽãĤĬ ä¸ĬãģĴãĤĭ
çĽĽãĤĬ ä¸ĬãģĮãĤĭ
çĽĽãĤĬ ä¸ĬãģĮãĤĬ
çĽĽãĤĬ ãģłãģı
ç°¿ è¨ĺ
ç¡¬ ãģĦ
ç¡¬ çĽ´
ç¡¬ åĮĸ
èĵĦ ãģĪãĤĭ
èĵĦ ç©į
é¹¿ å³¶
é¹¿ åħĲå³¶
ç£ģ æ°Ĺ
ç£ģ çŁ³
è´Ī ãĤĭ
è´Ī ä¸İ
è´Ī ãĤĬçī©
éĳĳ å®ļ
éĳĳ è³ŀ
ãĥĨãĥ¬ãĥĵ å±Ģ
ãĥĨãĥ¬ãĥĵ æľĿæĹ¥
èĴ¸ ãģĻ
èĴ¸ æ°Ĺ
èĴ¸ çķĻ
èĴ¸ ãģĹæļĳãģĦ
âĹ Ĩ
âĹ ĩ
âĹ ĭ
âĹ İ
å¬ īãģĹãģĦ
åĹ £
åĹ ľå¥½
ç¼ º
è® Ģ
è® Ĭ
è® ĵ
é¯ ĸ
é¯ Ľ
ï¤ ¨
ï¤ ©
ï¤ ¶
ï¤ Ŀ
ãĥ¶ åĽ½
ãĥ¶ æľĪ
ãĥ¶ æīĢ
ãĥĮ ãĥ¼ãĥī
ä¸ĥ æľĪ
ä¸ĥ å¤ķ
ãĤ¹ãĥª ãĥł
ãĤ¹ãĥª ãĥĥãĥĹ
ãĤ¹ãĥª ãĥ©ãĥ³ãĤ«
ãĤ¹ãĤ« ãĤ¤
ãĤ¹ãĤ« ãĥ¼ãĥĪ
ãĤ¹ãĥŀ ãĥ¼ãĥĪ
ãĤ¹ãĥŀ ãĤ¤ãĥ«
ãĤ¹ãĤŃ ãĥ³
ãĤ¹ãĤŃ ãĥ«
ãĤ¹ãĤŃ ãĥ¼ãĥł
ãĤ¹ãĥĿ ãĥĥãĥĪ
ãĤ¹ãĥĿ ãĥ³ãĤ¸
ãĤ¹ãĥĿ ãĥ¼ãĥĦ
ãĤ¹ãĥĿ ãĥ³ãĤµãĥ¼
ãĥĪãĥŃ ãĤ¤
ãĥĪãĥŃ ãĥ³ãĥĪ
å®´ ä¼ļ
å®ĩ éĥ½å®®
å®Ĺ æķĻ
å®Ĺ æ´¾
åħĨ ãģĹ
åħĨ åĢĻ
åħŃ æľĪ
åħŃ æľ¬æľ¨
åı« ãģ³
åı« ãģ¶
ãģĹãĤį ãģĦ
ãģĹãģ° ãģĹ
ãģĹãģ° ãĤīãģı
ãģĹãģ° ãģĹãģ°
çĶ² æĸĲ
çĶ² åŃĲåľĴ
çĶĺ ãģĦ
çĶĺ ãģĪãĤĭ
çĶĺ åĳ³
äºĢ çĶ°
äºĢ äºķ
ãĤ¤ãĥ© ãĤ¯
ãĤ¤ãĥ© ãĤ¹ãĥĪ
ãĤ¤ãĥ³ãĥĨ ãĥ«
ãĤ¤ãĥ³ãĥĨ ãĥªãĤ¢
ãģĭãģĭ ãģĪãĤĭ
ãģĭãģĭ ãĤıãĤĭ
ãģĭãģĭ ãĤıãĤĬ
ãģĭãģĭ ãĤıãĤīãģļ
ãģĨãĤĵ ãģ¨
ãģĨãĤĵ ãģ¡ãģı
ãģĨãĤĵ ãģĸãĤĬ
ãĥĥãĤµ ãĥ³ãĤ¹
ãģıãģł ãĤĬ
ãģıãģł ãģķãĤĭ
ãģıãģł ãĤīãģªãģĦ
åĲ« ãĤĢ
åĲ« ãĤģãĤĭ
åĲ« æľī
åĲ¹ ãģı
åĲ¹ ãģįè¾¼ãĤĢ
åĲ¹ å¥ıæ¥½
åĲĲ ãģı
åĲĲ ãģįåĩºãģĻ
åĲĲ ãģįæ°Ĺ
ãĤ¢ãĥ¼ ãĤµãĥ¼
ãĤ¢ãĥ¼ ãĤ«ãĤ¤
ãĤ¢ãĥ¼ ãĤŃãĥĨãĤ¯
ãĤ¢ãĤ¹ ãĤŃãĥ¼
ãĤ¢ãĤ¹ ãĥĻãĤ¹ãĥĪ
æĸİ èĹ¤
æĸľ ãĤģ
æĸľ éĿ¢
éĢ¸ åĵģ
éĢ¸ èĦ±
ä»° ãĤĭ
ä»° ãģĲ
ãģ¾ãģ£ ãģŁãĤĬ
ãģ¾ãģ£ ãģŁãģı
ãģ¾ãģ£ ãģĻãģĲ
ãģ¾ãģķ ãģĭ
ãģ¾ãģķ ãģ«
ãģ¾ãģķ ãģĹãģı
ãģ¾ãģł ãģ¾ãģł
ãģ¾ãģł ãģĹãĤĤ
ï¼¨ ï¼°
ï¼ª ï¼²
ï¼ª ãĥªãĥ¼ãĤ°
ï¼¶ ï¼³
åŃ¤ ç«ĭ
åŃ¤ çĭ¬
åŃ¤ åħĲ
ãģ¨ãģį ãģ©ãģį
ãģ¨ãģį ãģ«ãģ¯
ãģ¨ãģĵãĤį ãģĮ
ãģ¨ãģĵãĤį ãģ§
ãģ¨ãģĵãĤį ãģ©ãģĵãĤį
è¨ĵ ç·´
æī¹ åĪ¤
æī¹ è©ķ
æī¹ åĩĨ
æīį èĥ½
ãģªãģĺ ãĤĢ
ãģªãģĺ ãģ¿
ãģŁãģ¾ ãģ«
ãģŁãģ¾ ãĤīãģªãģĦ
æĹ¦ éĤ£
åĭī å¼·
ãģĬãģĻ ãģĻãĤģ
ãģĬãģ¾ ãģĳ
ãģĬãģ¾ ãģĪ
ãģĬãģ¾ ãģĳãģ«
ãģĬãģ¾ ãģĭãģĽ
ãģĬãģ£ ãģķãĤĵ
ãģĬãģ£ ãģ¡ãĤĥãĤĵ
ãģĬãģ£ ãģĹãĤĥãĤĭ
ãģĬãĤĪ ãģ³
ãģĬãĤĪ ãģ¶
ãĥ¬ãĤ¸ ãĤ¹ãĥĪ
åĩį ãĤĭ
åĩį çµĲ
åĩĿ ãĤĭ
åĩĿ ãĤīãģĻ
åĩĿ ç¸®
èªĩ ãĤĭ
èªĩ ãĤĬ
èªĩ å¼µ
ãĥķãĥŃ ãĤ¢
ãĥķãĥŃ ãĥ³ãĥĪ
ãĥķãĥŃ ãĤ¤ãĥĪ
ãĥķãĥŃ ãĥªãĥĢ
ãģ«å¯¾ ãģĹ
ãģ«å¯¾ ãģĹãģ¦
ãģ«å¯¾ ãģĻãĤĭ
ãģ«å¯¾ ãģĹãģ¾ãģĹãģ¦
ãģ«éĸ¢ ãģĹ
ãģ«éĸ¢ ãģĹãģ¦
ãģ«éĸ¢ ãģĻãĤĭ
ãģ«éĸ¢ ãģĹãģ¾ãģĹãģ¦
åºı çĽ¤
åįĥ èĳī
åįĥ ä»£çĶ°
åįĪ åīį
åįĪ å¾Į
åįĵ çĲĥ
å¼Ł åŃĲ
éĩ£ ãĤĭ
éĩ£ ãĤĬ
éĩ£ ãĤĮãĤĭ
éĩĪ æĶ¾
å¹² ãģĻ
å¹² æ¸ī
æŃĵ å£°
æŃĵ åĸľ
æŃĵ è¿İ
éĽĩ ãģĨ
éĽĩ çĶ¨
åĬ£ ãĤĭ
åĬ£ åĮĸ
åĬ£ çŃī
åĬŁ ç¸¾
ãĤ¸ãĥ¼ ãĤ³
ä¼¯ çĪµ
ä¼´ ãģĨ
ä¼´ å¥ı
ä¼º ãģĦ
ä¼º ãģĨ
ä¼º ãģĪãĤĭ
ä¼ģ æ¥Ń
ãĥŃãĤ° ãĤ¤ãĥ³
éĸ£ èŃ°
éĸ£ åĥļ
æĪ¯ è¨Ģ
æĪ¯ æĽ²
å¿į èĢħ
å¿į èĢĲ
å¿ĺ ãĤĮ
å¿ĺ ãĤĮãĤĭ
å¿ĺ å¹´ä¼ļ
ãĤıãģı ãĤıãģı
ãĤıãģĮ åĽ½
ãĤıãģĮ å®¶
ãĤıãģĮ ãģ¾ãģ¾
çī§ åł´
çī§ å¸«
çīĽ èĤī
çīĽ ä¹³
å¸³ ç°¿
å¸Ŀ åĽ½
å½« ãĤĭ
å½« åĪ»
ãĤ³ãĥ¼ãĥĩãĤ£ ãĥįãĥ¼ãĥĪ
ãĤ³ãĥ¼ãĥĩãĤ£ ãĥįãĥ¼ãĤ¿ãĥ¼
å·§ ãģ¿
å·§ å¦Ļ
ãģĤãĤĮ ãģłãģĳ
ãģĤãĤĮ ãģĵãĤĮ
ãģĤãģį ãĤĮãĤĭ
ãģĤãģį ãĤīãģĭ
ãģĤãģį ãĤīãĤģãĤĭ
ãģĤãģŁ ãģĹ
ãģĤãģŁ ãģĪãĤĭ
ãģĤãģŁ ãģĭãĤĤ
ãģĤãĤĵ ãģ¾
ãģĤãĤĵ ãģŁ
ãģĤãĤĵ ãģ¾ãĤĬ
ãģĤãģ£ ãģĽãĤĵ
ãģĤãģ£ ãģķãĤĬ
ãģĤãģ£ ãģŁãģĭãģĦ
ãģĤãĤı ãģĽãĤĭ
ãģĤãĤı ãģ¦ãĤĭ
åī£ éģĵ
åī¯ æ¥Ń
åī¯ ä½ľçĶ¨
ä¸Ģãģ¤ ä¸Ģãģ¤
ä¸Ģäºº åīį
ä¸Ģäºº ãģ²ãģ¨ãĤĬ
ä¸Ģäºº æļ®ãĤīãģĹ
æĦī ãģĹãģĦ
ç«¥ è©±
åĳª ãģĦ
åĳª ãģĨ
åĳª æĸĩ
è³¼ åħ¥
è³¼ èªŃ
è³¼ è²·
è¾Ľ ãģĦ
è¾Ľ åı£
çĻ¾ ç§ĳ
çĻ¾ è²¨åºĹ
çĻĴ ãģĻ
çĻĴ çĿĢ
æĬµ æĬĹ
æĬµ è§¦
æĬ½ åĩº
æĬ½ éģ¸
æĬ½ è±¡
ãĥĲãĤ¹ åģľ
ãĥĲãĥ« ãĤ»ãĥŃãĥĬ
ãĥĲãĥ¬ ãĤĭ
ãĥĲãĥ¬ ãĤ¨
ãĥĲãĥ¬ ãĥ³ãĤ¿ãĤ¤ãĥ³
ä¿ĥ ãģĻ
ä¿ĥ éĢ²
æ³£ ãģı
æ³£ ãģĳãĤĭ
éĥ· åľŁ
æİĥ éĻ¤
ãģĿãĤį ãģĨ
ãģĿãĤį ãģĪãĤĭ
ãģĿãĤį ãģĿãĤį
ãĤĦãĤĭ æ°Ĺ
æµª è²»
æµ¸ ãĤĭ
æµ¸ ãģĭãĤĭ
æµ¸ éĢı
å¥¨ åŃ¦
å¥¨ åĬ±
å¥ª ãģĨ
å¥´ ãĤī
å¥´ éļ·
æ¸ĭ ãģĦ
æ¸ĭ è°·
æ¸ĭ æ»ŀ
è©© äºº
è©© éĽĨ
èĩ¨ ãĤĢ
èĩ¨ æĻĤ
èĩ¨ åºĬ
éł» çĻº
éł» åº¦
éł» ç¹ģ
éłĳ åĽº
éłĳ å¼µãĤĭ
éłĳ å¼µãĤĮãĤĭ
æĮĳ ãĤĢ
æĮĳ çĻº
æĮĳ æĪ¦
çľ¼ éı¡
çľĭ æĿ¿
ãģ©ãģį ãģ©ãģį
ãĤªãĤ¹ ãĤ¹ãĥ¡
åłħ ãģĦ
åłħ æĮģ
ãĥīãĥ© ãĥŀ
ãĥīãĥ© ãĥķãĥĪ
ãĥīãĥ© ãĥĥãĤ°
ãĥīãĥ© ãģĪãĤĤãĤĵ
ï½ĭ ï½į
ï½ĭ ï½ĩ
ä¸ŃåĽ½ äºº
ä¸ŃåĽ½ èªŀ
ä¸ŃåĽ½ åħ±çĶ£åħļ
ãĤ¨ãĥ« ãĤµãĥ¬ãĥł
ãĤ¨ãĥª ãĥĥãĤ¯
ãĤ¨ãĥª ãĥ¼ãĥĪ
ãĤ¨ãĥª ãĤ¶ãĥĻãĤ¹
æ²Ī ãĤĢ
æ²Ī æ²¡
æ²Ī é»Ļ
ãĥĳãĥ¼ ãĤ»ãĥ³ãĥĪ
ãĥĳãĥ¼ ãĤ½ãĥĬãĥ«
æĭį æīĭ
æĭį åŃĲ
æĭį è»Ĭ
æĭĴ ãĤĢ
æĭĴ çµ¶
æĭĴ åĲ¦
æĭĽ ãģı
æĭĽ éĽĨ
æĭĽ å¾ħ
ãģ¯ãģª ãģĹ
ãģ¯ãģª ãĤĮãĤĭ
ãģ¯ãģª ãģ¯ãģł
ãģ¯ãģļ ãģĻ
ãģ¯ãģļ ãĤĮ
ãģ¯ãģļ ãĤĮãĤĭ
ä¹¾ ãģı
ä¹¾ æĿ¯
ä¹¾ çĩ¥
ãĥĸãĥª ãĥĥãĤ¸
ãĥĬãĤ¤ ãĥĪ
ãĥĬãĤ¤ ãĥķ
æ°ĹæĮģãģ¡ ãģĦãģĦ
æ°ĹæĮģãģ¡ ãĤĪãģĦ
æ°ĹæĮģãģ¡ èī¯ãģĦ
ãĤ»ãĥĥãĥĪ ãĤ¢ãĥĥãĥĹ
åħ¥ãĤĬ åı£
èĪĹ è£ħ
æıļ ãģĴ
æıļ ãģĴãĤĭ
éħ· ãģĦ
åĵ² åŃ¦
åĵ² ä¹Ł
åĵĢ ãĤĮ
åĵĢ ãģĹãģĦ
æ´¥ æ³¢
åĤį ãĤī
åĤį èģ´
ãĥĢãĥ³ ãĤµãĥ¼
ãĥıãĥ¼ãĥī ãĥ«
ãĥıãĥ¼ãĥī ãĤ¦ãĤ§ãĤ¢
ãĥıãĥ¼ãĥī ãĥĩãĤ£ãĤ¹ãĤ¯
èĤ© æĽ¸ãģį
èĤĿ å¿ĥ
èĤĿ èĩĵ
èĩªæ²» çľģ
æĤĶ ãģĹãģĦ
æĤĶ ãĤĦãĤĢ
ç¶¿ å¯Ĩ
ç¶Ń æĸ°
ç¶Ń æĮģ
ãĤĪãģı ãģªãĤĭ
ãĤĪãģı ãĤĪãģı
å½ĵãģŁãĤĬ åīį
æģ¥ ãģĺãĤĭ
æģ¥ ãģļãģĭãģĹãģĦ
æŁ³ æ²¢
çļ® èĤī
çļ® èĨļ
æļĸ ãģĭãģĦ
æļĸ æĪ¿
çĹ´ æ¼¢
çĹ´ åĳĨ
æĺİãģĳ æĸ¹
åĦ² ãģĳãĤĭ
åĦ² ãģĭãĤĭ
æĻĤãģ« ãģ¯
æ·¡ ãģĦ
æ·¡ ãĢħ
æ·¡ è·¯
èĦĤ èĤª
ãĥ¯ãĥ¼ãĤ¯ ãĤ¹
ãĥ¯ãĥ¼ãĤ¯ ãĤ·ãĥ§ãĥĥãĥĹ
åķĵ çĻº
åķĵ èĴĻ
ãĥľãĥ¼ãĥ« ãĥļãĥ³
ä½ľãĤĬ æĸ¹
ä½ľãĤĬ ä¸ĬãģĴãĤĭ
å¼ķãģ£ ãģĭãģĭãĤĭ
å¼ķãģ£ å¼µãĤĭ
å¼ķãģ£ è¶ĬãģĹ
å¼ķãģ£ è¶ĬãģĻ
å¿ĥåľ° ãĤĪãģĦ
å²Ĳ éĺľ
å§¿ åĭ¢
è¼Ŀ ãģı
è¼Ŀ ãģį
ç®± æł¹
ç¸Ħ æĸĩ
çİĦ éĸ¢
çİĦ ç±³
ãģµãĤĭ ãģĨ
ãģµãĤĭ ãģ¾ãģĨ
ãģµãĤĭ ãģķãģ¨
åĥ§ ä¾¶
åĥķ ãĤī
åĥķ ãģŁãģ¡
çĸ¾ çĹħ
çĸ¾ èµ°
çĸ¾ æĤ£
çĸİ ãģĦ
çĸİ éĢļ
èºį éĢ²
ãĥĩãĤ£ãĥ¼ ãĥ©ãĥ¼
ãĥĩãĤ£ãĥ¼ ãĤ¼ãĥ«
ç¬¦ åı·
èĸ¦ ãĤģãĤĭ
æ£ļ çĶ°
è¥² ãģĨ
è¥² æĴĥ
èħķ æĻĤè¨Ī
éĺ» ãĤĢ
éĺ» å®³
éĺ» æŃ¢
æĨ¶ ãģĪãĤĭ
æĨ¶ æ¸¬
æĨİ ãĤĢ
æĨİ æĤª
æĨİ ãģĹãģ¿
æįľ ãģĻ
æįľ æŁ»
æįľ ç´¢
çªĵ åı£
ãģİãĤĬ ãģİãĤĬ
ãĤ®ãĥª ãĤ·ãĥ£
ãĤ®ãĥª ãĤ·ãĤ¢
ãĤ®ãĥª ãĤ®ãĥª
çµĮæ¸Ī åŃ¦éĥ¨
çµĮæ¸Ī ä¼ģçĶ»
æ½Ķ ãģĦ
èĻ« æŃ¯
èĻļ æ§ĭ
èĻļ åģ½
é§Ħ çĽ®
é§ħ åīį
é§ħ ä¼Ŀ
è©±ãģĹ æĸ¹
è©±ãģĹ åĲĪãģĨ
è©±ãģĹ åĲĪãģĦ
ãĥķãĤ¡ãĥ¼ ãĤ¹ãĥĪ
ãĥķãĤ¡ãĤ¤ ãĥĪ
ãĥķãĤ¡ãĤ¤ ãĤ¢
ãĥķãĤ¡ãĤ¤ ãĥĬãĥ«
ãĥķãĤ¡ãĤ¤ ãĥĬãĥ³ãĤ¹
çĨĬ æľ¬
çĨĬ è°·
éĤ¦ äºº
éĤ¦ è¨³
éĬĥ æĴĥ
å´© ãģĻ
å´© ãĤĮãĤĭ
å´© å£Ĭ
åĶ± ãģĪãĤĭ
æĩ² å½¹
æĩ² ãĤĬãĤĭ
æĩ² æĪĴ
æĩĲ çĸĳ
æĩĲ ãģĭãģĹãģĦ
ãĥķãĤ£ãĥ« ãĤ¿
ãĥķãĤ£ãĥ« ãĥł
ãĥķãĤ£ãĥ« ãĤ¿ãĥ¼
å«ģ ãģķãĤĵ
åĿĬ ä¸»
ç¾©åĭĻ ä»ĺãģĳãĤĭ
ç¾©åĭĻ ãģ¥ãģĳãĤĭ
ç¾©åĭĻ æķĻèĤ²
æ¹¿ ãĤĭ
æ¹¿ æ°Ĺ
æ¹¿ åº¦
è¿½ãģĦ è¾¼ãĤĢ
è¿½ãģĦ åĩºãģĻ
è¿½ãģĦ ãģ¤ãģı
è¿½ãģĦ è©°ãĤģãĤĭ
æĮ¯ãĤĭ ãģĨ
æĮ¯ãĤĭ èĪŀãģĨ
æĮ¯ãĤĭ èĪŀãģĦ
ç©įãģ¿ ä¸ĬãģĴãĤĭ
ç©įãģ¿ éĩįãģŃãĤĭ
ç©įãģ¿ éĩįãģŃ
çį£ åĮ»
åī²ãĤĬ åĪĩãĤĭ
åī²ãĤĬ å½ĵãģ¦
åī²ãĤĬ å½ĵãģ¦ãĤĭ
èĢĥãģĪ æĸ¹
èĢĥãģĪ åĩºãģĻ
èĢĥãģĪ çĽ´ãģĻ
è¸Ĭ ãĤĭ
è¸Ĭ ãĤĬ
ç¬ĳãģĦ å£°
ãĤ¿ãĤ¤ãĥł ãĤº
ãĤ¿ãĤ¤ãĥł ãĥªãĥ¼
æĳĺ ãĤĢ
æĳĺ çĻº
èĨ¨ å¤§
èĨ¨ å¼µ
èĨ¨ ãĤīãĤĢ
éĨ¸ æĪĲ
éĨ¸ éĢł
éĨ¸ ãģĹåĩºãģĻ
ãģ²ãģ¨ãĤĬ ãģ²ãģ¨ãĤĬ
ãģ²ãģ¨ãģ¤ ãģ²ãģ¨ãģ¤
çŀ¬ éĸĵ
çŀ¬ æĻĤ
ãĤ¸ãĥ§ãĥ³ ãĤ½ãĥ³
æ¢ħ çĶ°
æ¢ħ éĽ¨
ãĤ«ãĤ¦ãĥ³ãĥĪ ãĥĢãĤ¦ãĥ³
åĳ¼ãģ³ åĲį
åĳ¼ãģ³ åĩºãģĻ
åĳ¼ãģ³ ãģĭãģĳãĤĭ
åĳ¼ãģ³ åĩºãģĹ
æµ®ãģĭ ãģ¶
æµ®ãģĭ ãģ³ä¸ĬãģĮãĤĭ
äºĴãģĦ ãģ«
ãĥŁãĥ¥ãĥ¼ãĤ¸ ãĥĥãĤ¯
ãĥŁãĥ¥ãĥ¼ãĤ¸ ãĤ«ãĥ«
ãĥŁãĥ¥ãĥ¼ãĤ¸ ãĤ¢ãĥł
ãĥŁãĥ¥ãĥ¼ãĤ¸ ãĤ·ãĥ£ãĥ³
è¸ıãģ¿ è¾¼ãĤĢ
è¸ıãģ¿ åĩºãģĻ
è¸ıãģ¿ åĪĩãĤĭ
è¸ıãģ¿ åħ¥ãĤĮãĤĭ
åļ ´
çĺ ¦
è½ ī
èİ Ĭ
èİ ĸ
èİ «å¤§
èļ ķ
èł ¶
èł »
èł ħ
éĲ µ
ï¹ ģ
ï¹ Ĥ
ï¹ ı
ãģ½ ãģĦ
ãģ½ ãĤĵ
ãĤ¡ ãĥ«ãĥĪ
ãģĦãģı ãģ¤
ãģĦãģı ãģ¤ãģĭ
ãģĦãģ¨ ãģĵ
ãģĦãĤį ãĤĵãģª
ãģĦãĤį ãģĦãĤį
ãģĦãģŁãģł ãģı
ãģĦãģŁãģł ãģį
ãģĦãģŁãģł ãģĳãĤĭ
ãģĦãģıãĤī ãģĭ
ãģĦãģıãĤī ãģ§ãĤĤ
ä¸¹ ç¾½
ãĤ¹ãĤ¤ ãĤ«
ãĤ¹ãĤ¤ ãĥ³ãĤ°
ãĤ¹ãĤ¤ ãĥĥãĥģ
ãĤ¹ãĥĹ ãĥ¼ãĥ³
ãĤ¹ãĥĹ ãĥ¬ãĥ¼
ãĤ¹ãĥĹ ãĥªãĥ³ãĤ°
ãĤ¹ãĥĶ ãĥ³
ãĤ¹ãĥĶ ãĥ¼ãĥī
ãĤ¹ãĥĶ ãĥ¼ãĥģ
æľĹ èªŃ
åħ¼ ãģŃãĤĭ
ãģĻãģĶ ãģĻ
åı¬ ãģĻ
åı¬ éĽĨ
åıĪ ãģ¯
åıĶ æ¯į
åıĶ çĪ¶
äºĳ ãģĨ
äºĳ ãĢħ
ãĤ¤ãĥ³ãĥ ¡ãĥ³ãĥĪ
ãĤ¤ãĥ³ãĥ ĩãĥĥãĤ¯ãĤ¹
ãĤ¤ãĥ³ãĥ ĩãĤ£ãĤ¢ãĥ³
ãĤ¤ãĥģ ãĤ´
ãĤ¤ãĥģ ãĥŃãĥ¼
ãĤ¤ãĥ³ãĥī ãĥįãĤ·ãĤ¢
ãģĭãģ¤ ãģ¦
ãģĭãģ£ãģĵ ãģĦãģĦ
ãģĭãģ£ãģĵ ãĤĪãģĦ
åĪĥ çī©
ãĥªãĥĥãĥĪ ãĥ«
ãĥ©ãĥ³ãĥĢ ãĥł
ãĤ¢ãĥķ ãĤ¿ãĥ¼
ãĤ¢ãĥŀ ãĥģãĥ¥
ãĤ¢ãĥŀ ãĤ¾ãĥ³
ãĤ¢ãĥĭ ãĥ¡
ãĤ¢ãĥĭ ãĥ¡ãĥ¼ãĤ·ãĥ§ãĥ³
ãĤ¢ãĥĢ ãĥł
ãĤ¢ãĥĢ ãĥ«ãĥĪ
ãĤ¢ãĥĢ ãĥĹãĤ¿
ãĤ¢ãĤ¤ãĤ¹ ãĥ©ãĥ³ãĥī
ãĤ¢ãĤ¤ãĤ¹ ãĤ¯ãĥªãĥ¼ãĥł
æĸ¬ ãĤĭ
æĸ¬ æĸ°
æĸī èĹ¤
éģŃ ãģĨ
éģŃ éģĩ
ä»Ļ åı°
ãģ¾ãģ¤ ãĤĬ
ãģ¾ãģ¡ ãģĮãģĦ
ãģ¾ãģĤ ãģ¾ãģĤ
ï¼¥ ï¼µ
ãģ¨ãģĦ ãģµ
ãģ¨ãģĦ ãģ£ãģ¦
è¨Ĥ æŃ£
ãģĳãĤĮ ãģ©ãĤĤ
ãģįãģ¡ ãģ£ãģ¨
ãģįãģ¡ ãĤĵãģ¨
æī¶ åĬ©
æī¶ é¤Ĭ
ãģ¤ãģ¾ ãĤĢ
ãģ¤ãģ¾ ãĤīãģªãģĦ
ãģ¤ãĤĮ ãģ¥ãĤĮ
ãģªãģ® ãģ§
ãģªãģľ ãģĭ
ãģªãģľ ãģªãĤī
ãģŁãģ¨ ãģĪ
ãģŁãģ¨ ãģĪãĤĭ
ãģŁãģ¨ ãģĪãģ°
ãģŁãĤģ æģ¯
ãģŁãĤģ ãĤīãģĨ
ãģŁãģ© ãĤĭ
ãģŁãģ³ ãģŁãģ³
æĹĭ å¾ĭ
ãĤ¿ãĥĲ ãĤ³
åĭĩ æ°Ĺ
ãģĬãģı ãĤĮãĤĭ
ãģĬãĤĤ ãģĹ
ãģĬãĤĤ ãģ¡ãĤĥ
ãģĬãĤĤ ãģĹãĤįãģĦ
ãģĬãģķ ãģĪãĤĭ
ãģĬãģķ ãĤģãĤĭ
ãģĬãģķ ãģ¾ãĤĭ
ãģĬãģĿ ãĤĮãĤĭ
ãģĬãģ° ãģķãĤĵ
ãģĬãģ° ãģĤãģķãĤĵ
å¾Ģ ãĢħ
å¾Ģ å¾©
å¾ģ æľį
ãĥ¬ãĥĥ ãĤº
ãĥ¬ãĥĥ ãĥĨãĥ«
ãĥ¬ãĥĥ ãĤ¹ãĥ³
åĩ¶ æĤª
èª° ãģĭ
èªī ãĤģãĤĭ
èªķ çĶŁ
ãĤ·ãĥ« ãĤ¯
ãĤ·ãĥ« ãĥĲãĥ¼
ãĤ·ãĥªãĤ¢ ãĤ¹
ãĤ·ãĥªãĤ¢ ãĥ«
å°» å°¾
ãĥķãĤ¸ ãĥĨãĥ¬ãĥĵ
ãĥķãĤ¸ ãĥ¢ãĥª
ãĥķãĥªãĥ¼ ãĤ¿ãĥ¼
ãĥķãĥ©ãĤ¤ ãĥĪ
ãĥķãĥ©ãĤ¤ ãĥĳãĥ³
è¡° ãģĪãĤĭ
è¡° éĢĢ
ãģ«ãĤı ãģŁãĤĬ
ãģ«ãĤı ãģŁãĤĭ
ãģ«ãĤı ãģŁãģ£ãģ¦
ãģ«ãĤĤ ãģĭãģĭãĤıãĤīãģļ
ãĤģãģ¡ãĤĥ ãĤģãģ¡ãĤĥ
ãĤģãģ¡ãĤĥ ãģıãģ¡ãĤĥ
æķı æĦŁ
çµŀ ãĤĭ
çµŀ ãĤĬè¾¼ãĤĢ
åį¸ å£²
å¼¥ çĶŁ
å¼Ĭ ç¤¾
å¼Ĭ å®³
å¼Ķ ãģĦ
å¹» æĥ³
æŃª ãĤĢ
æŃª ãģ¿
æŃª æĽ²
éĽ¶ ç´°
åĬª ãĤģãĤĭ
åĬª åĬĽ
å¯¸ åīį
å¯¸ æ³ķ
å¯Ĥ ãģĹãģĦ
å¯Ĵ ãģĦ
å¯Ľ å®¹
ãĤ«ãĤ¤ ãĥŃ
ãĤ«ãĥª ãĥķãĤ©ãĥ«ãĥĭãĤ¢
ãĤ«ãĥª ãĤŃãĥ¥ãĥ©ãĥł
ãĤ«ãĥ© ãĥķãĥ«
ãĤ«ãĥ© ãĤªãĤ±
ãĤ«ãĥĬ ãĥĢ
ãĤ«ãĥĥãĥĹ ãĥ«
ç´« å¤ĸç·ļ
ç´¯ è¨Ī
ç´¯ ç©į
ç´Ľ å¤±
ç´Ľ äºī
éĸ² è¦§
æĪ´ ãģı
æĺ¯ æŃ£
æĺĨ å¸ĥ
æĺĨ èĻ«
æĺŃ åĴĮ
ãģĵãģ¾ ãĤģ
ãģĵãģ¾ ãģĭãģĦ
ãĤıãĤĮ ãĤıãĤĮ
åĩºä¼ļ ãģĦ
åĩºä¼ļ ãģĨ
åĩºä¼ļ ãģĪãĤĭ
è²« ãģı
å¸½ åŃĲ
ãĤ³ãĥ³ãĥĪ ãĥŃãĥ¼ãĥ«
ãĤ³ãĥ³ãĥĪ ãĥ©ãĤ¹ãĥĪ
ãĤ³ãĥ³ãĥĪ ãĥŃãĥ¼ãĥ©
ãĤ³ãĥĦ ãĤ³ãĥĦ
ãĤ³ãĥ³ãĥĨ ãĥĬ
ãĤ³ãĥ³ãĥĨ ãĤ¹ãĥĪ
ãĤ³ãĥ³ãĥĨ ãĥ³ãĥĦ
å¤§ãģį ãģĦ
å¤§ãģį ãģª
å¤§ãģį ãĤģ
å¤§äºº ãģĹãģĦ
å¤§äºº æ°Ĺ
ãģĤãģı ãģ¾ãģ§
ãģĤãģı ãģ¾ãģ§ãĤĤ
ãģĤãģŁãĤĬ ãģ¾ãģĪ
ãģĤãģ¾ãĤĬ ãģ«
ãģĤãģ¾ãĤĬ ãģ®
ãĤĤãģ¨ ãģ¥ãģı
ãĤĤãģ¨ ãĤĪãĤĬ
ãģķãģķ ãĤĦãģĭ
ãģķãģķ ãĤĦãģı
åĨ¬ åŃ£
åĨĴ éłŃ
åĨĴ éĻº
ãģ¿ãģª ãģķãĤĵ
ãģ¿ãģª ãģķãģ¾
ä¸Ģä½ĵ åĮĸ
ä¸Ģåº¦ ãģ«
ä¸Ģæ®µ ãģ¨
ä¸Ģæ®µ èĲ½
æĦļ ãģĭ
æĦļ çĹ´
ãĥĹãĥª ãĥ³ãĥĪ
ãĥĹãĥª ãĥ³ãĤ¿
äººäºĭ éĻ¢
éĻ£ åĸ¶
éĻ¥ ãĤĭ
éĻ¶ åĻ¨
éĻ¶ èĬ¸
éĻĦ å±ŀ
éĻĦ å¸¯
åĳĨ ãĤĮãĤĭ
åĳĨ çĦ¶ãģ¨
åĳĪ ãģĻ
æĢĸ ãģĦ
æĢł ãĤĭ
æĢł æħ¢
è³Ń ãģĳ
è³Ń ãģĳãĤĭ
æĬĬ æı¡
ãĥĲãĥ³ ãĤ³ãĤ¯
ãĥĲãĥ³ãĤ¯ ãĥ¼ãĥĲãĥ¼
ä¿³ åĦª
ä¿³ åı¥
ä¿Ĭ è¼Ķ
ãĤŃãĥªãĤ¹ãĥĪ æķĻ
ãĤŃãĥªãĤ¹ãĥĪ æķĻå¾Ĵ
æ³¥ æ£Ĵ
æ³³ ãģĲ
éĥĬ å¤ĸ
åĮ¹ æķµ
ãĤĦãĤĢ ãĤĴå¾ĹãģªãģĦ
æµĦ åĮĸ
å¥® éĹĺ
å¥Ī èī¯
å¥ĳ æ©Ł
å¥ĳ ç´Ħ
å£® å¤§
å£® çµ¶
çĦ¦ ãĤĭ
çĦ¦ çĤ¹
éĿ´ ä¸ĭ
è©² å½ĵ
è©³ ãģĹãģĦ
è©³ ç´°
æľ¬å½ĵ ãģ«
æľ¬å½ĵ ãģ¯
è»Į éģĵ
è»Į è·¡
ãĤµãĥ³ ãĥķãĥ©ãĥ³
ãĤµãĥ© éĩĳ
ãĤµãĥ© ãĥªãĥ¼ãĥŀãĥ³
çľº ãĤģ
çľº ãĤģãĤĭ
ãĤªãĥļ ãĥ©
ãĤªãĥļ ãĥ¬ãĥ¼ãĤ·ãĥ§ãĥ³
ãĤªãĥļ ãĥ¬ãĥ¼ãĥĨãĤ£ãĥ³ãĤ°
åł¤ éĺ²
åłª ãģĪãĤĭ
åłª èĥ½
åłĢ æ±Ł
çķľ çĶ£
æīĭä¼Ŀ ãģĨ
ãĥīãĥ©ãĤ¤ ãĥĸ
ãĥīãĥ©ãĤ¤ ãĥĲãĥ¼
ãĥīãĤ¤ãĥĦ èªŀ
ç¨½ åı¤
ï½ĥ ï½į
é£¢ ãģĪãĤĭ
é£¢ é¤ĵ
ãĥģãĥ¥ ãĥ¼ãĥĸ
ãĥģãĥ§ ãĥĥãĥĪ
ãĤ¨ãĥ³ ãĤ¶
ãĤ¨ãĥ³ ãĤ¸ãĤ§ãĥ«
ãĤ¨ãĥ³ãĤ¿ ãĥ¼ãĥĹãĥ©ãĤ¤ãĤº
ãĤ¨ãĥ³ãĤ¸ ãĥ³
ãĤ¨ãĥĥãĤ» ãĥ¼
ãĤ¨ãĥĥãĤ» ãĤ¤
ãĤ¨ãĥĥãĤ» ãĥ³ãĤ¹
ãĥ¡ãĥ¢ ãĥª
ãĥ¡ãĥ¢ ãĥªãĥ¼
æ²¸ ãģı
æ²¸ é¨°
æ²ĸ ç¸Ħ
è¦ĭãģ¤ ãĤģãĤĭ
è¦ĭãģ¤ ãģĭãĤĭ
è¦ĭãģ¤ ãģĳåĩºãģĻ
è¦ĭç©į ãĤĤãĤĭ
è¦ĭç©į ãĤĤãĤĬ
ãĥĳãĤ¹ ãĥĿãĥ¼ãĥĪ
ãĥĳãĤ¹ ãĥ¯ãĥ¼ãĥī
ãĥĳãĥ© ãĥĳãĥ©
ãĥĳãĥ© ãĥ¡ãĥ¼ãĤ¿
èĢķ ä½ľ
ãģłãĤī ãģĳ
ãģłãĤī ãģłãĤī
ãģłãģĭãĤī ãģĵãģĿ
ãģłãģĭãĤī ãģ¨ãģĦãģ£ãģ¦
éļĻ éĸĵ
ãĥĭãĤ³ ãĥ©
ãĥĭãĤ³ ãĥĭãĤ³
æĭ³ éĬĥ
æĭĺ ãĤĭ
æĭĺ æĿŁ
æĭŃ ãģı
ãģ¯ãĤĦ ãģĦ
ãģ¯ãģĺ ãĤģãĤĭ
ãģ¯ãģĺ ãģ¾ãĤĭ
ãģ¯ãģĺ ãĤģãģ¦
ä¹ı ãģĹãģĦ
ä¹Ļ å¥³
ãĥĸãĥ¬ ãĤ¢
ãĥĸãĥ¬ ãĥ³ãĥī
ãĥĸãĥ¬ ãĥ¼ãĤ¯
æ°Ĺãģ« åħ¥ãĤĭ
åľ°æĸ¹ è£ģåĪ¤æīĢ
åľ°æĸ¹ èĩªæ²»ä½ĵ
ãĥĩãĤ¶ ãĥ¼ãĥĪ
ãĥĩãĤ¶ ãĤ¤ãĥ³
ãĥĩãĤ¶ ãĤ¤ãĥĬãĥ¼
æĥľ ãģĹãģĦ
æĥľ ãģĹãĤĢ
åĢ« çĲĨ
ç©ı ãĤĦãģĭ
æıĥ ãģĦ
æıĥ ãģĨ
æıĥ ãģĪãĤĭ
éħµ ç´ł
éķ·æľŁ éĸĵ
åĤĺ ä¸ĭ
ãĥıãĥª ãĤ¦ãĥĥãĥī
ãĥıãĥª ãĤ±ãĥ¼ãĥ³
ä¼ļè¨Ī å£«
ä¼ļè¨Ī æ¤ľæŁ»
åģµ å¯Ł
åģ¶ çĦ¶
åģī ãģĦ
åģī å¤§
æ¬º çŀŀ
çĤİ çĹĩ
èĤ¥ æĸĻ
èĤ¥ æºĢ
èĩªåĭķ è»Ĭ
èĩªåĭķ çļĦ
æĤ£ èĢħ
èµ´ ãģı
èµ´ ä»»
æºľ ãĤģãĤĭ
æºľ ãģ¾ãĤĭ
ç¶² ç¾ħ
ãĤĪãĤį ãģĹãģĦ
ãĤĪãĤį ãģĹãģı
ãĤĪãĤį ãģĵãģ¶
çĦ¡çĲĨ ãĤĦãĤĬ
çĦ¡çĲĨ çŁ¢çĲĨ
æģ¨ ãĤĢ
æģ¨ ãģ¿
æģ© æģµ
æģĴ ä¾ĭ
æģĴ ä¹ħ
æħ¶ æĩī
æħĮ ãģ¦ãĤĭ
ãĥ¢ãĥĭ ãĤ¿ãĥ¼
æļ« ãģı
æļ« å®ļ
éĸĵéģķ ãģĦ
éĸĵéģķ ãģĨ
éĸĵéģķ ãģĪãĤĭ
æ¼ł çĦ¶ãģ¨
ãĥĻãĤ¹ãĥĪ ãĤ»ãĥ©ãĥ¼
æĸĩåĮĸ åºģ
æĸĩåĮĸ è²¡
æĸĩåŃĹ æķ°
æĸĩåŃĹ éĢļãĤĬ
å¢ĵ åľ°
åŁ¹ ãģĨ
ä»ĺãģį åĲĪãģĨ
ä»ĺãģį åĲĪãģĦ
æŀ¶ ç©º
æŀļ æķ°
æŀł çµĦãģ¿
çĿ¡ ãĤĭ
çĿ¡ çľł
ãģ°ãĤī ãģ°ãĤī
ãĤ¬ãĤ¤ãĥī ãĥ©ãĤ¤ãĥ³
ãĤ¬ãĤ¤ãĥī ãĥĸãĥĥãĤ¯
æĦıåĳ³ åĲĪãģĦ
èĦļ æľ¬
ãĥ¯ãĤ¯ ãĥģãĥ³
ãĥ¯ãĤ¯ ãĥ¯ãĤ¯
éŁĵ åĽ½
å¦¥ å½ĵ
å¦¥ åįĶ
å¦¨ ãģĴãĤĭ
å¦¨ å®³
å¦Ĭ å©¦
å¦Ĭ å¨ł
å¦ĸ ç²¾
å¦ĸ æĢª
ãĥľãĥ¼ ãĤ¤
ãĥľãĥ¼ ãĤ«ãĥ«
ãĥľãĥŃ ãģĦ
ãĥľãĥŃ ãĥľãĥŃ
çĽ´ãģĲ ãģ«
æ³ķåĭĻ çľģ
æ³ķåĭĻ å¤§èĩ£
ç²Ĵ åŃĲ
ç²ĺ ãĤĭ
ç²ĺ åľŁ
è¬Ļ èĻļ
è±ļ èĤī
èĬ½ çĶŁãģĪãĤĭ
ç¸Ľ ãĤĭ
çıį ãģĹãģĦ
çĪ½ å¿«
çĪ½ ãĤĦãģĭ
ãĥİãĥ³ ãĥķãĤ£ãĤ¯ãĤ·ãĥ§ãĥ³
ãĥİãĥŁ ãĥįãĥ¼ãĥĪ
å¡© ç´ł
åĴ² ãģı
åĴ² ãģĭãģĽãĤĭ
ç¹Ĭ ç´°
ç¹Ĭ ç¶Ń
çģ° èī²
çĭ© ãĤĬ
çĭ© çĮŁ
çĭĻ ãģĦ
çĭĻ ãģĨ
æľĢé«ĺ è£ģ
æľĢé«ĺ è£ģåĪ¤æīĢ
æ¶¼ ãģĹãģĦ
ãĥĩãĤ£ãĤ¹ ãĤ«ãĤ¦ãĥ³ãĥĪ
ãĥĩãĤ£ãĤ¹ ãĥĹãĥ¬ãĤ¤
æĴ² æ»ħ
çłķ ãģı
çµĲãģ³ ãģ¤ãģı
çµĲãģ³ ãģ¤ãģĳãĤĭ
çµĲãģ³ ä»ĺãģĳãĤĭ
æĿ±äº¬ å¤§åŃ¦
æĿ±äº¬ ãĤ¿ãĥ¯ãĥ¼
æ¡ľ äºķ
ç¿» è¨³
ç¿» å¼Ħ
èħ° çĹĽ
æ¿« çĶ¨
æĨĤ æħ®
æĨĤ é¬±
ãĥļãĥ³ ãĤ®ãĥ³
ãĤ´ãĥŃ ãĤ´ãĥŃ
èĲ½ãģ¨ ãģĹç©´
èĲ½ãģ¡ è¾¼ãĤĢ
èĲ½ãģ¡ çĿĢãģı
åĲĳãģį åĲĪãģĨ
éĸ¢å¿ĥ äºĭ
æ½° ãģĻ
æ½° ãĤĮãĤĭ
éģİãģĶ ãģĻ
éģİãģĶ ãģĽãĤĭ
éģİãģİ åİ»ãĤĭ
åĻ´ åĩº
åĻ´ çģ«
æĲŃ ä¹Ĺ
æĲŃ è¼ī
èıĬ æ±ł
å¥³åŃĲ å¤§
å¥³åŃĲ é«ĺ
æĶ¾å°Ħ ç·ļ
æĶ¾å°Ħ èĥ½
é¨İ æīĭ
é¨İ å£«
ãĥ¤ãĥŀ ãĥĪ
ãĥ¤ãĥŀ ãĥı
ä¸ĸçķĮ ä¸Ģ
ä¸ĸçķĮ ä¸Ń
ãĥĹãĥŃãĤ°ãĥ© ãĥŀ
ãĥĹãĥŃãĤ°ãĥ© ãĥŀãĥ¼
ãĥĹãĥŃãĤ°ãĥ© ãĥŁãĥ³ãĤ°
å¥½ãģį å«ĮãģĦ
ç¥ŀæĪ¸ å¤§
ç¥ŀæĪ¸ å¤§åŃ¦
éĤ£ è¦ĩ
éĬĺ æŁĦ
éĮ¬ ãĤĭ
éĮ¬ éĩĳè¡ĵ
éĮ¯ è¦ļ
ãĤ¸ãĥ£ãĥ¼ãĥĬ ãĥ«
ãĤ¸ãĥ£ãĥ¼ãĥĬ ãĥªãĤ¹ãĥĪ
ãĤ¸ãĥ£ãĥ¼ãĥĬ ãĥªãĤºãĥł
æ¤ľå¯Ł å®ĺ
æ¤ľå¯Ł åºģ
å´ĩ é«ĺ
å´ĩ æĭĿ
åķıãģĦ åĲĪãĤıãģĽ
åķıãģĦ åĲĪãĤıãģĽãĤĭ
åĶ¯ ä¸Ģ
åĶĦ ãģĨ
åĶĲ çªģ
åŀ£ éĸĵè¦ĭãĤĭ
åŀĤ ãĤĮãĤĭ
åŀĤ çĽ´
æĩĩ è¦ª
æĩĩ è«ĩ
æĵ¦ ãĤĭ
éīĽ çŃĨ
çħ® ãĤĭ
çħ® è¾¼ãĤĢ
çĮĽ çĥĪ
å¸°ãĤĬ éģĵ
æĶ¯æīķ ãģĦ
æĶ¯æīķ ãģĨ
èģŀãģį æīĭ
èģŀãģį åıĸãĤĭ
èģŀãģį åıĸãĤĮãĤĭ
åĬ©ãģĳ åĲĪãģĨ
è¾²æŀĹ çľģ
è¾²æŀĹ æ°´çĶ£
æľĿé®® åįĬå³¶
ãģ£ãģ½ ãģĦ
ç¾İåĳ³ ãģĦ
ç¾İåĳ³ ãģĹãģĦ
ç½®ãģį åł´
ç½®ãģį æıĽãģĪãĤĭ
ãĥ³ãĥĨãĤ£ ãĥĨãĤ£
æ³¨æĦı æ·±ãģĦ
é£Ľè¡Į åł´
é£Ľè¡Į æ©Ł
ãĥĹãĥ¬ãĤ¼ ãĥ³
ãĥĹãĥ¬ãĤ¼ ãĥ³ãĥĪ
ãĥĹãĥ¬ãĤ¼ ãĥ³ãĥĨãĥ¼ãĤ·ãĥ§ãĥ³
çªģãģį ãģ¤ãģĳãĤĭ
çªģãģį éĢ²ãĤĢ
æĳ© æĵ¦
æĳĤ ãĤĭ
æĳĤ åıĸ
ãģľãĤĵ ãģľãĤĵ
çĦ¼ãģį é³¥
ä¹ħä¿Ŀ çĶ°
ãĥĢãĤ¤ãĥ¤ ãĥ«
ãĥĢãĤ¤ãĥ¤ ãĥ¢ãĥ³ãĥī
çŀŃ çĦ¶
åįģåŃĹ æŀ¶
éĿŀå¸¸ èŃĺ
éĿŀå¸¸ åĭ¤
èŃ¦å¯Ł å®ĺ
èŃ¦å¯Ł åºģ
è¤Ĵ ãĤģãĤĭ
è¤Ĵ ç¾İ
å¯Įå£« éĢļ
å¯Įå£« å±±
ãģ¡ãĤĩãģĨ ãģ©
ãģ¡ãĤĩãģĨ ãģłãģĦ
æĪĳãģĮ åĽ½
æĪĳãģĮ å®¶
é§Ĩãģĳ è¾¼ãĤĢ
é§Ĩãģĳ å¼ķãģį
é§Ĩãģĳ ãģ¤ãģĳãĤĭ
ãģĤãĤĬãģĮ ãģ¨
ãģĤãĤĬãģĮ ãģŁãģĦ
ãģĤãĤĬãģĮ ãģ¨ãģĨ
é£²ãģ¿ çī©
é£²ãģ¿ è¾¼ãĤĢ
é£²ãģ¿ å±ĭ
åĥįãģį ãģĭãģĳ
åĥįãģį ãģĭãģĳãĤĭ
çĴ°å¢ĥ çľģ
çĴ°å¢ĥ åºģ
åĺĨ ãģı
åĺĨ ãģį
éįµ çĽ¤
æļ®ãĤī ãģĽãĤĭ
ãĥŀãĥįãĥ¼ãĤ¸ ãĥ£
ãĥŀãĥįãĥ¼ãĤ¸ ãĥ¡ãĥ³ãĥĪ
ãĥŀãĥįãĥ¼ãĤ¸ ãĥ£ãĥ¼
æ¾Ħ ãĤĢ
åªĴ ä½ĵ
åªĴ ä»ĭ
é¶ı èĤī
éĪ´ æľ¨
ç¹°ãĤĬ è¿ĶãģĻ
ç¹°ãĤĬ è¿ĶãģĹ
ç¹°ãĤĬ åºĥãģĴãĤĭ
ç¼¶ è©°
ãĤ¢ãĥ¡ãĥªãĤ« ãĥ³
ãĤ¢ãĥ¡ãĥªãĤ« åĲĪè¡ĨåĽ½
ãĤ¢ãĤ¦ãĥĪ ãĥīãĤ¢
ãĤ³ãĥŁãĥ¥ãĥĭ ãĥĨãĤ£
ãĤ³ãĥŁãĥ¥ãĥĭ ãĤ±ãĥ¼ãĤ·ãĥ§ãĥ³
ãĤ³ãĥŁãĥ¥ãĥĭ ãĥĨãĤ£ãĥ¼
âĨ Ĳ
âĨ ĵ
æ«» äºķ
Ġ t
Ġ a
h e
i n
r e
o n
Ġt he
e r
Ġ s
a t
Ġ w
Ġ o
e n
Ġ c
i t
i s
a n
o r
e s
Ġ b
e d
Ġ f
in g
Ġ p
o u
Ġa n
a l
a r
Ġt o
Ġ m
Ġo f
Ġ in
Ġ d
Ġ h
Ġan d
i c
a s
l e
Ġt h
i on
o m
l l
en t
Ġ n
Ġ l
s t
Ġ re
v e
Ġ e
r o
l y
Ġb e
Ġ g
Ġ T
c t
Ġ S
i d
o t
Ġ I
u t
e t
Ġ A
Ġ is
Ġ on
i m
a m
o w
a y
a d
s e
Ġth at
Ġ C
i g
Ġf or
a c
Ġ y
v er
u r
Ġ u
l d
Ġs t
Ġ M
' s
Ġ he
Ġ it
at ion
it h
i r
c e
Ġy ou
i l
Ġ B
Ġw h
o l
Ġ P
Ġw ith
Ġ 1
t er
c h
Ġa s
Ġw e
Ġ (
n d
i ll
Ġ D
i f
Ġ 2
a g
er s
k e
Ġ "
Ġ H
e m
Ġc on
Ġ W
Ġ R
he r
Ġw as
Ġ r
o d
Ġ F
u l
at e
Ġa t
r i
p p
o re
ĠT he
Ġs e
u s
Ġp ro
Ġh a
u m
Ġa re
Ġd e
a in
an d
Ġo r
ig h
es t
is t
a b
r om
Ġ N
t h
Ġc om
Ġ G
u n
o p
0 0
Ġ L
Ġn ot
es s
Ġe x
Ġ v
re s
Ġ E
e w
it y
an t
Ġb y
e l
o s
or t
o c
q u
Ġf rom
Ġha ve
Ġs u
i ve
ou ld
Ġs h
Ġth is
n t
r a
p e
igh t
ar t
m ent
Ġa l
u st
en d
- -
al l
Ġ O
ac k
Ġc h
Ġ le
i es
re d
ar d
â Ģ
ou t
Ġ J
Ġa b
e ar
i v
al ly
ou r
o st
g h
p t
Ġp l
as t
Ġc an
a k
om e
u d
T he
Ġh is
Ġd o
Ġg o
Ġh as
g e
' t
Ġ U
r ou
Ġs a
Ġ j
Ġb ut
Ġa ll
e ct
Ġ k
am e
Ġw ill
o k
Ġthe y
id e
0 1
f f
ic h
p l
t her
Ġt r
. .
Ġin t
i e
u re
ag e
Ġn e
i al
a p
in e
ic e
Ġm e
Ġo ut
an s
on e
on g
ion s
Ġwh o
Ġ K
Ġu p
Ġthe ir
Ġa d
Ġ 3
Ġu s
at ed
ou s
Ġm ore
u e
o g
ĠS t
in d
i ke
Ġs o
im e
p er
. "
b er
i z
a ct
Ġon e
Ġsa id
Ġ -
a re
Ġyou r
c c
ĠT h
Ġc l
e p
a ke
ab le
i p
Ġcon t
Ġwh ich
i a
Ġ im
Ġab out
Ġwe re
ver y
u b
Ġh ad
Ġ en
Ġcom p
, "
ĠI n
Ġu n
Ġa g
i re
ac e
a u
ar y
Ġw ould
as s
r y
Ġ âĢ
c l
o ok
e re
s o
Ġ V
ig n
i b
Ġof f
Ġt e
v en
Ġ Y
i le
o se
it e
or m
Ġ2 01
Ġre s
Ġm an
Ġp er
Ġo ther
or d
ul t
Ġbe en
Ġl ike
as e
an ce
k s
ay s
ow n
en ce
Ġd is
ct ion
Ġan y
Ġa pp
Ġs p
in t
res s
ation s
a il
Ġ 4
ic al
Ġthe m
Ġhe r
ou nt
ĠC h
Ġa r
Ġ if
Ġthe re
Ġp e
Ġy ear
a v
Ġm y
Ġs ome
ou gh
ac h
Ġth an
r u
on d
ic k
Ġo ver
ve l
Ġ qu
Ċ Ċ
Ġs c
re at
re e
ĠI t
ou nd
p ort
Ġal so
Ġp art
f ter
Ġk n
Ġbe c
Ġt ime
en s
Ġ 5
Ġwh at
Ġn o
d u
m er
an g
Ġn ew
-- --
Ġg et
or y
it ion
ing s
Ġj ust
Ġint o
Ġ 0
ent s
o ve
t e
Ġp re
Ġit s
Ġre c
Ġt w
i an
ir st
ar k
or s
ad e
o b
Ġs he
Ġo ur
w n
in k
l ic
Ġ1 9
ĠH e
is h
nd er
au se
Ġh im
on s
Ġ [
Ġ ro
f orm
i ld
at es
ver s
Ġon ly
o ll
Ġs pe
c k
e ll
am p
Ġa cc
Ġb l
i ous
ur n
f t
o od
Ġh ow
he d
Ġ '
Ġa fter
a w
Ġat t
o v
n e
Ġpl ay
er v
ic t
Ġc ould
it t
Ġa m
Ġf irst
Ġ 6
Ġa ct
Ġ $
e c
h ing
u al
u ll
Ġcom m
o y
o ld
c es
at er
Ġf e
Ġbe t
w e
if f
Ġtw o
oc k
Ġb ack
) .
id ent
Ġu nder
rou gh
se l
x t
Ġm ay
rou nd
Ġp o
p h
is s
Ġd es
Ġm ost
Ġd id
Ġad d
j ect
Ġin c
f ore
Ġp ol
on t
Ġag ain
ter n
Ġkn ow
Ġne ed
Ġcon s
Ġc o
Ġ .
Ġw ant
Ġse e
Ġ 7
n ing
i ew
ĠTh is
c ed
Ġe ven
Ġin d
t y
ĠW e
at h
Ġthe se
Ġp r
Ġu se
Ġbec ause
Ġf l
n g
Ġn ow
ĠâĢ ĵ
c om
is e
Ġm ake
Ġthe n
ow er
Ġe very
ĠU n
Ġse c
os s
u ch
Ġe m
Ġ =
ĠR e
i ed
r it
Ġin v
le ct
Ġsu pp
at ing
Ġl ook
m an
pe ct
Ġ 8
ro w
Ġb u
if ic
Ġyear s
i ly
Ġd iff
Ġsh ould
Ġre m
T h
I n
Ġe v
d ay
' re
ri b
Ġre l
s s
Ġde f
Ġr ight
Ġs y
) ,
l es
00 0
he n
Ġth rough
ĠT r
_ _
Ġw ay
Ġd on
Ġ ,
Ġ1 0
as ed
Ġas s
Ġre g
ĠA nd
i x
Ġ very
ot her
Ġim p
ot h
Ġsu b
ĠâĢ Ķ
Ġbe ing
ar g
ĠW h
= =
ib le
Ġdo es
an ge
r am
Ġ 9
er t
p s
it ed
ation al
Ġb r
Ġd own
Ġman y
ak ing
Ġc all
ur ing
it ies
Ġp h
ic s
al s
Ġde c
at ive
en er
Ġbe fore
il ity
Ġwe ll
Ġm uch
ers on
Ġth ose
Ġsu ch
Ġ ke
Ġ end
ĠB ut
as on
t ing
Ġl ong
e f
Ġth ink
y s
Ġbe l
Ġs m
it s
a x
Ġo wn
Ġpro v
Ġs et
if e
ment s
b le
w ard
Ġsh ow
Ġp res
m s
om et
Ġo b
Ġs ay
ĠS h
t s
f ul
Ġe ff
Ġg u
Ġin st
u nd
re n
c ess
Ġ ent
ĠY ou
Ġgo od
Ġst art
in ce
Ġm ade
t t
ol og
u p
Ġ |
um p
Ġhe l
ver n
ul ar
u ally
Ġa c
Ġm on
Ġl ast
Ġ2 00
1 0
Ġst ud
u res
ĠA r
sel f
ar s
mer ic
u es
c y
Ġm in
oll ow
Ġc ol
i o
Ġm od
Ġc ount
ĠC om
he s
Ġf in
a ir
i er
âĢ Ķ
re ad
an k
at ch
e ver
Ġst r
Ġpo int
or k
ĠN ew
Ġs ur
o ol
al k
em ent
Ġus ed
ra ct
Ġs ame
ou n
ĠA l
c i
Ġwh ile
---- ----
Ġg ame
ce pt
Ġs im
.. .
Ġin ter
e k
Ġre port
Ġst ill
l ed
a h
Ġhe re
Ġth ough
Ġn um
ar ch
im es
al e
ĠS e
ĠI f
/ /
ĠL e
Ġre t
Ġre f
Ġtr ans
n er
ut ion
ter s
Ġt ake
ĠC l
Ġcon f
w ay
a ve
Ġgo ing
Ġs l
u g
Ġspe c
Ġh and
ist s
ĠD e
o ot
I t
Ġe ar
Ġagain st
Ġh igh
g an
a z
at her
Ġex p
Ġo p
Ġin s
Ġg r
Ġhel p
Ġre qu
et s
in s
ĠP ro
is m
Ġf ound
l and
at a
us s
am es
Ġp erson
Ġg reat
p r
Ġs ign
ĠA n
' ve
Ġs omet
Ġs er
h ip
Ġr un
Ġ :
Ġt er
Ġf ollow
Ġd et
ic es
Ġf ind
1 2
Ġm em
Ġc r
e red
e x
Ġex t
ut h
en se
c o
Ġte am
v ing
ou se
as h
at t
v ed
ĠA s
d er
iv es
m in
Ġle ad
ĠB l
c ent
Ġa round
Ġgo vern
Ġc ur
an y
Ġc our
al th
ag es
iz e
Ġc ar
od e
Ġl aw
Ġre ad
' m
c on
Ġre al
Ġsupp ort
Ġ1 2
.. ..
Ġre ally
n ess
Ġf act
Ġd ay
Ġb oth
y ing
Ġs erv
ĠF or
Ġth ree
Ġm ed
od y
ĠThe y
5 0
t on
Ġe ach
ak es
Ġc he
Ġc re
in es
Ġre p
1 9
g g
ill ion
ut e
i k
W e
g et
E R
Ġm et
Ġs ays
o x
Ġd uring
er n
iz ed
a red
Ġf am
ic ally
Ġha pp
ĠI s
Ġch ar
m ed
v ent
Ġg ener
i ent
p le
i et
re nt
1 1
v es
pt ion
Ġ2 0
form ation
Ġc or
Ġoff ic
ie ld
Ġto o
is ion
Ġin f
Ġ Z
t he
o ad
Ġpro g
r ic
* *
Ġw ar
Ġp ower
v iew
Ġf ew
Ġl oc
Ġst ate
Ġhe ad
' ll
Ġp oss
Ġst at
re t
ant s
Ġv al
Ġc le
i vers
an c
Ġex pl
Ġan other
Ġ Q
Ġa v
th ing
n ce
W h
Ġch ild
Ġs ince
i red
l ess
Ġl ife
itt le
Ġde p
Ġp ass
ã ĥ
Ġt urn
or n
Th is
b ers
ro ss
ĠA d
Ġf r
Ġres p
Ġsec ond
o h
Ġ /
Ġdis c
Ġ &
Ġsomet hing
Ġcomp le
Ġ ed
Ġf il
Ġmon th
a j
u c
Ġgovern ment
Ġwith out
Ġle g
Ġd ist
Ġp ut
Ġqu est
an n
Ġpro t
2 0
Ġne ver
i ence
Ġle vel
Ġar t
Ġth ings
Ġm ight
Ġeff ect
Ġc ent
Ġ1 8
Ġall ow
ot t
Ġinc re
Ġfe el
Ġres ult
Ġl ot
Ġf un
ot e
Ġt y
Ġus ing
Ġb ig
2 01
Ġas k
Ġb est
Ġ )
I N
Ġo pp
3 0
Ġnum ber
in ess
S t
le ase
Ġc a
Ġm ust
Ġg l
Ġ <
Ġop en
Ġp ost
Ġcom e
Ġse em
ord ing
Ġwe ek
ate ly
it al
Ġe l
Ġf ar
Ġt ra
in al
Ġp ri
ĠU S
Ġpl ace
Ġfor m
Ġto ld
" :
ain s
at ure
ĠTr ump
Ġst and
Ġ #
id er
ĠF r
Ġne xt
Ġs oc
Ġp ur
Ġle t
Ġl ittle
Ġh um
Ġ i
r on
1 5
Ġ1 5
Ġcomm un
Ġm ark
ĠThe re
Ġw r
ĠTh at
Ġin formation
w ays
Ġb us
a pp
Ġinv est
m e
Ġh ard
ain ed
e ad
Ġim port
Ġapp ro
Ġt est
Ġt ri
Ġre st
os ed
Ġf ull
Ġc are
ĠS p
Ġc ase
O N
Ġs k
Ġl ess
Ġ +
ĠP l
ab ly
u ck
is hed
ch n
b e
Ġl ist
at or
Ġto p
ĠB e
ru ct
Ġd em
r ation
l ing
g y
re en
g er
Ġh ome
Ġle ft
Ġbet ter
Ġd ata
Ġ1 1
Ġatt ack
l ine
ard s
r al
ĠH ow
ĠS he
ar ge
Ġ --
: //
Ġb ro
ĠP h
at s
Ġbu ild
w w
id ed
a im
as es
en cy
Ġm ain
in ed
Ġ {
Ġg ot
Ġke ep
Ġ X
ain ing
Ġcl ass
âĢ ¦
ĠN o
Ġv ar
Ġsm all
amp le
A T
Ġ ide
ĠS o
Ġpol it
Ġm ov
Ġpl an
Ġper cent
iv ing
Ġc amp
Ġp ay
1 4
s c
is ed
Ġu nt
one y
pl oy
== ==
Ġdid n
ĠI nd
el s
ert ain
Ġp os
__ __
i ver
Ġpro cess
Ġprog ram
if ied
ĠR ep
1 6
u ro
olog y
at ter
in a
Ġn ame
ĠA ll
Ġf our
Ġret urn
v ious
b s
Ġcall ed
Ġm ove
ĠS c
ir d
Ġb re
Ġm en
Ġc ap
t en
e e
Ġd ri
le g
he re
Ġp at
Ġcur rent
id es
Ġp op
t o
ent ion
Ġal ways
Ġm il
Ġ1 6
Ġo ld
iv en
ĠO r
r or
ent ly
Ġn ear
ĠE x
re am
s h
Ġ1 4
Ġf ree
iss ion
st and
ĠC on
al ity
us ed
1 3
Ġdes ign
Ġch ange
Ġch ang
Ġb o
Ġv is
em ber
Ġb ook
read y
Ġk ill
2 5
pp ed
Ġa way
Ġab le
Ġcount ry
Ġcon st
ar n
Ġor der
A R
i or
i um
or th
1 8
Ġs w
Ġm illion
Ġ1 3
at ic
t ed
ĠG o
Ġo per
en g
Ġth ing
ĠCom m
Ġwh y
u red
ur al
b y
ĠM ar
Ġa ff
Ġd ays
Ġan n
us h
an e
I f
e g
Ġpro f
Ġhe alth
ou th
B ut
ion al
. ,
Ġs ol
Ġal ready
Ġ3 0
H e
E S
i ans
ic le
' d
ĠO n
Ġle ast
Ġp rom
Ġd r
Ġh ist
it her
Ġ est
i qu
1 7
s on
Ġte ll
Ġt alk
oh n
o int
le ction
A N
Ġunt il
au gh
Ġl ater
Ġ ve
Ġv iew
end ing
iv ed
w are
Ġc ost
Ġen ough
Ġg ive
ĠUn ited
Ġte chn
O R
Ġp ar
ĠD r
Ġ201 6
r ist
er ing
Ġ Â
Ġl arge
s ide
ac y
Ġw in
Ġimport ant
Ġ19 9
Ġdoes n
Ġ1 7
Ġbus iness
Ġcle ar
" ,
ur y
Ġe qu
as ter
al f
n ect
Ġex pect
ivers ity
Ġo cc
ĠF l
Ġk ind
Ġme an
Ġp ast
Ġde v
Ġb as
le t
ra ft
Ġor gan
Ġde l
Ġper form
Ġst ory
Ġse ason
ĠC ol
Ġcl aim
Ġc ame
Ġwith in
Ġl ine
Ġpro ject
ĠA t
end ed
ĠS y
Ġa ir
iz ation
Ġ *
le y
Ġm oney
id d
Y ou
f or
Ġfam ily
Ġm aking
Ġb it
Ġpol ice
Ġhapp en
Ġ vers
on y
u ff
ĠW hen
Ġs it
ide o
l f
is on
Ġsu re
g in
Ġapp ear
Ġl ight
Ġ es
o f
Ġw ater
Ġt imes
n ot
Ġg row
Ġcomp any
ĠT e
ow s
Ġm ar
i ol
ar m
b r
Ġex ample
Ġcon c
Ġf ore
ĠT o
p ro
E N
ri es
Ġ2 5
ĠC an
ne y
Ġact ually
Ġe ver
ur ity
ak en
ap s
Ġt ax
am a
Ġof ten
er al
Ġhum an
Ġj ob
is ter
oc r
en n
a id
iv id
Ġrec ord
? "
Ġs ing
ĠA m
id ence
Ġnew s
st er
Ġfollow ing
ĠB r
is ing
Ġh our
m ost
Ġse x
Ġbec ome
ĠE d
Ġto ok
Ġha ving
a ult
A s
ar ing
Ġme ans
Ġh op
un e
Ġch o
Ġc ertain
Ġn on
Ġde al
2 4
le ment
oc i
en e
Ġs ide
ĠP r
ĠM ay
Ġre ason
u ed
c hed
ul ation
Ġe lect
Ġoffic ial
Ġposs ible
Ġh old
and s
ot s
Ġc ity
or ies
Ġse ver
Ġchild ren
Ġon ce
Ġact iv
l er
Ġn ight
it ions
ĠJ ohn
a pe
pl ay
Ġd one
Ġl im
Ġwork ing
ĠP res
or ld
e b
ĠC o
Ġb ody
ail s
ut es
ĠM r
ro p
Ġpro per
Ġse en
) ;
Ġf ac
ĠS u
Ġcon d
it ing
Ġcour se
Ġ }
-------- --------
Ġev ent
Ġen g
Ġp ot
Ġin tern
i am
Ġsh ort
em pt
ã Ĥ
ĠG od
il ar
8 0
I S
our n
ab ility
it ive
Ġd am
Ġ1 00
Ġp ress
Ġdo ing
Ġprot ect
r ing
Ġthough t
Ġquest ion
re w
ĠW ar
Ġsever al
ĠSt ate
Ġg iven
Ġf und
ĠT w
Ġw ent
an ces
w ork
p or
m y
4 0
Ġar g
art ment
Ġme et
2 2
ĠSt ates
Ġg ames
ra w
Ġunder stand
ur s
ĠO b
l ish
s y
Ġm akes
Ġw on
ag on
Ġl ove
ent ial
Ġcomple te
p ar
ĠI m
A L
Ġacc ount
Â ł
ore d
ver t
Ġ201 5
Ġother s
ĠM in
i ber
The re
ition al
d d
Ġpro b
Ġyou ng
Ġal ong
Ġacc ording
Ġy et
Ġmem bers
ĠWh at
o id
ĠM an
A nd
Ġam ong
a i
Ġem ploy
ĠR es
Ġ >
Ġl ow
a f
ĠC ar
ĠO ne
ĠS ec
in ation
Ġlike ly
Ġan t
ag ed
ĠR uss
Ġb en
F or
b ack
ĠN ot
Ġpres ident
b all
Ġacc ess
ĠD em
ĠE uro
6 0
Ġkn own
ir l
ĠG r
Ġear ly
u se
iet y
âĢ ĵ
Ġf ight
Ġs ent
Ġto day
Ġmark et
" .
Ġb ased
Ġstr ong
Ġde b
m ber
Ġde ath
Ġsoc ial
im ate
A S
ort un
er y
C h
i ally
Ġm us
w h
p os
Ġ er
Ġsa f
Ġmonth s
ir on
Ġf ive
Ġst re
Ġplay ers
in c
al d
y ear
a un
Ġpres ent
ere nce
Ġ201 4
Ġtr y
ĠCh rist
on es
Ġpri v
2 3
Ġc rit
Ġl and
Ġloc al
if y
2 9
Ġa ut
E D
ĠG u
Ġm ult
Ġpolit ical
Ġask ed
Ġfor mer
it ter
ri pt
Ġcl ose
Ġp ract
ĠY ork
Ġget ting
Ġac ross
Ġcom b
Ġ z
ĠC ent
ir c
ĠM c
2 7
is k
ĠE ng
Ġf ace
Ġ2 4
Ġval ue
Ġare a
e v
Ġw rit
ĠPres ident
Ġv ot
Ġke y
Ġm om
p ut
Ġany thing
att le
Ġm ind
a ff
om m
g ed
Ġc ut
Ġto t
it ch
Ġv ideo
Ġn et
ĠM y
r ict
i en
. )
th ough
ward s
Ġcon nect
ĠM ed
ens ive
m b
o ber
at ors
A n
Ġ5 0
Ġre du
Ġab ove
Ġf re
ĠEuro pe
s w
Ġam ount
ĠA pp
Ġe ither
Ġmil it
Ġf ail
ĠE n
al es
Ġspec ial
Ġbl ack
I T
c her
Ġlook ing
Ġf ire
y n
Ġal most
o on
Ġstud y
Ġm iss
c hes
ro wn
Ġt re
Ġcommun ity
Ġmed ia
Ġf ood
Ġcom es
ĠUn iversity
Ġsing le
Wh at
Ġh alf
ag ue
h od
Ġstart ed
Ġqu ick
ot o
b ook
it or
Ġel se
Ġcons ider
2 6
ro du
Ġt aken
2 8
9 9
ĠW ith
Ġtr ue
Ġw a
Ġag o
Ġm ess
ie f
Ġadd ed
o ke
Ġb ad
Ġf av
3 3
Ġsim ilar
as k
ĠD on
ort s
ĠH ouse
Ġreport ed
Ġty pe
v al
i od
ĠHow ever
Ġent ire
pp ing
Ġhist ory
Ġl ive
ff ic
.... ....
Ġtr ying
Ġdisc uss
ĠH ar
ac es
Ġse lf
os p
re st
Ġro om
el t
Ġf all
ol ution
Ġe t
Ġ x
Ġis n
Ġide a
b o
Ġs ound
ĠD ep
Ġsome one
ci ally
ull y
Ġob ject
if t
ap er
Ġplay er
Ġr ather
Ġserv ice
as hing
ĠD o
ĠP art
ru g
m on
p ly
Ġm or
Ġnot hing
Ġprov ide
I C
un g
Ġpart y
Ġex ist
Ġm ag
7 0
Ġh ouse
Ġhow ever
ĠW orld
Ġs um
Ġ ;
Ġfun ction
g r
ĠP ol
Ġfr ont
2 00
Ġser ies
Ġt em
Ġty p
ill s
Ġo pt
Ġpoint s
Ġbel ow
itt ed
Ġspec ific
Ġ201 7
um b
Ġr a
Ġpre vious
Ġpre t
re me
Ġcour t
ĠM e
Ġre pl
Ġwho le
g o
c er
Ġt reat
ĠA ct
Ġprob ably
Ġle arn
end er
ĠA ss
Ġvers ion
n ow
Ġche ck
ĠC al
R E
O n
Ġben ef
Ġd oc
Ġdet er
Ġen c
Ġsu per
Ġadd ress
Ġ201 3
t r
Ġf ield
W hen
u ge
Ġfe at
Ġcomm on
l oad
Ġbe gin
Ġbr ing
Ġa ction
er man
Ġwant ed
ri ed
m ing
Ġatt empt
4 5
f er
Ġd ue
ress ion
# #
Ġsh all
Ġs ix
o o
Ġst ep
Ġp ub
Ġhim self
Ġ2 3
Ġc op
Ġd est
Ġst op
A C
ib ility
Ġl ab
ic ult
Ġhour s
Ġcre ate
ĠC ity
Ġd ou
he ad
S T
ĠN orth
c ing
Ġn ational
u le
ĠIn st
Ġt aking
ĠQ u
ir t
Ġre d
ĠG e
Ġbre ak
an a
Ġsp ace
ater ial
Ġrec ent
ĠA b
Ġgener al
Ġh it
Ġper iod
Ġevery thing
ive ly
Ġsay ing
an ks
Ġc ou
Ġc ult
ac ed
e al
u ation
l u
Ġpos ition
ĠA fter
ĠE m
Ġim m
ĠR ed
Ġp ick
Ġcom pl
Ġm atter
re g
e xt
ang u
is c
o le
a ut
Ġcomp et
e ed
f ect
Ġ2 1
ĠS en
ĠThe se
as ing
Ġcan not
Ġin it
Ġrel ations
ac hed
Ġb ar
Ġ4 0
ĠT H
Ġ201 2
Ġv ol
Ġg round
Ġsec urity
il t
3 5
Ġconc ern
ĠJ ust
Ġwh ite
Ġseem s
ĠH er
i ents
Ġf ig
ight s
Ġst ri
l ike
id s
Ġw atch
Ġ â
Ġw ind
ĠC ont
Ġit self
Ġm ass
A l
y le
iqu e
ĠN ational
Ġab s
Ġp ack
Ġout side
Ġan im
Ġp ain
et er
du ct
og n
Ġ ]
ĠSe pt
se c
o ff
ĠJ an
Ġf oot
ad es
Ġth ird
Ġm ot
Ġev idence
int on
Ġth reat
a pt
pl es
c le
Ġl o
Ġde cl
Ġit em
med i
om b
am er
s u
Ġc al
i res
00 00
I D
A M
Ġsim ply
Ġlong er
Ġf ile
O T
c he
S o
ate g
or g
ĠH is
Ġd om
Ġup on
il i
": "
Ġcom ing
Ġqu ite
Ġdiff icult
ĠB ar
re l
end s
c ial
6 4
ra p
y r
Ġne cess
ip s
Ġte xt
Ġrequ ire
Ġmilit ary
Ġre view
7 5
Ġsub ject
Ġinst ead
Ġg en
" ,"
Ġmin utes
r ay
am ed
t ime
b l
H ow
Ġc ode
ĠS m
ĠSt e
r is
Ġp age
Ġstud ents
ĠIn tern
Ġmet hod
ĠA ug
ĠP er
ĠA g
ĠS w
Ġex ec
Ġac cept
um e
rib ut
Ġword s
Ġfin al
Ġchang es
Ġfriend s
Ġres pect
Ġe p
Ġcomp an
Ġdam age
** **
og le
Ġne g
ent al
Ġa p
Ġtot al
iv al
! "
l im
Ġneed s
Ġdevelop ment
Ġa ge
2 1
Ġresult s
ĠA f
S h
Ġg un
ĠOb ama
ro ll
Ġ @
Ġright s
ĠB rit
Ġrun ning
Ġwas n
Ġp ort
Ġr ate
Ġpret ty
Ġsa w
al t
o ver
ww w
Th at
l ier
Ġevery one
ud e
Ġp ie
idd le
ra el
Ġr ad
Ġbl ock
Ġw alk
T o
ã ģ
n es
ĠA ust
a ul
ro te
ĠS outh
ess ion
op h
Ġshow s
Ġs ite
Ġj o
Ġr isk
l t
id ing
ĠS pe
ir m
Ġ2 2
itt ing
st r
Ġh y
L E
ke y
Ġbe gan
at ur
l am
ĠD av
b it
Ġs ize
ĠP ar
3 8
f ace
Ġdec ision
Ġj ud
re ct
ĠO ct
ove red
ĠI nt
==== ====
ĠW ill
Ġd rug
ang er
Ġs ense
Ġd i
id ay
ist ic
ar ter
e ks
ĠE l
ur ch
Ġg irl
o e
Ġ2 8
ĠC he
Ġrequ est
Ġso on
Ġh ost
k y
Ġst ates
om es
Ġm aterial
le x
Ġmom ent
on se
Ġn orm
Ġserv ices
p ite
r an
Ġro le
4 4
) :
Ġc red
C l
____ ____
Ġm at
Ġl og
ĠCl inton
O U
Ġoff ice
Ġ2 6
Ġtr ack
m a
Ġhe art
Ġb all
Ġperson al
Ġbuild ing
n a
s et
b ody
ĠBl ack
Ġincre ase
itt en
Ġneed ed
3 6
3 2
= "
Ġl ost
Ġbec ame
ĠM us
Ġw rote
ĠP e
Ġpro p
j oy
Ã ©
ĠWh ite
Ġde ad
. '
O S
Ġins ide
Ġwr ong
Ġstat ement
Ġ ...
y l
Ġfil m
Ġmus ic
Ġsh are
ific ation
Ġre lease
Ġfor ward
Ġst ay
it te
s er
Ġc ard
Ġc and
Ġd iv
Ġfav or
O M
Ġc ases
us es
Ġse ction
Ġle ave
g ing
ov ed
3 9
ĠG l
Ġrequ ired
act ion
ap an
o or
it er
ĠK ing
Ġcount ries
ĠG erman
ll ing
Ġ2 7
3 4
Ġquest ions
Ġpr im
Ġc ell
Ġsh oot
Ġany one
ĠW est
Ġaff ect
ep end
Ġon line
ĠIs rael
ĠSept ember
Ġab ility
Ġcont ent
is es
Ġfor ce
c ast
Ġso ld
av ing
f l
Ġso ft
Ġcompan ies
ce ed
Ġart icle
Ġa ud
Ġre v
Ġed uc
Ġplay ing
0 5
Ġhe ld
ct or
3 7
Ġinter view
Ġinst all
u k
P h
Ġser ious
Ġcre ated
Ġc ause
u el
ĠDep artment
ct ions
ĠC our
ĠN ow
z e
it es
it ution
Ġl ate
Ġspe ak
n ers
Ġleg al
ar i
ĠC or
Ġwe eks
Ġmod el
Ġp red
Ġex act
B C
ĠB y
IN G
os ing
Ġt akes
Ġreg ard
Ġopp ortun
Ġpr ice
Ġ19 8
ĠA pr
f ully
Ġor d
ru ction
h am
ĠC ount
Ġlead ers
E T
le v
Ġde ep
olog ical
es e
h aps
ĠS ome
Ġcont ract
Ġrelations hip
s p
ou d
Ġb ase
4 8
m it
A d
Ġcons um
Ġpot ential
re m
et h
ress ed
6 6
Ġl ink
Ġl ower
ay er
ĠJ une
Ġf em
un t
er c
ur d
Ġcont act
Ġ ill
Ġm other
h tt
ĠM arch
ĠB ro
ĠCh ina
Ġ2 9
Ġs qu
Ġprov ided
as ons
Ġ201 1
Ġex am
l in
5 5
n ed
Ġper fect
u x
Ġbu y
Ġsh ot
Ġcol lect
Ġph ot
Ġplay ed
Ġofficial s
Ġsim ple
av y
Ġhand s
g round
Ġp ull
Ġr ound
Ġus er
Ġr ange
u ary
Ġpriv ate
op s
e es
Ġw ays
ĠM ich
Ġex cept
Ġter ms
im um
pp er
I ON
ore s
ĠDr agon
ou l
Ġd en
Ġperform ance
Ġb ill
c il
4 7
Ġex c
ad d
Ġch ance
Ġ201 8
b or
Ġspe ed
ict ion
ĠJ apan
at ory
re et
Ġm atch
ĠI I
ord er
Ġst e
Ġl iving
Ġst ruct
in o
her n
Ġresp onse
Ġen joy
Ġv ia
A D
um ents
Ġmem ber
ib r
iz ing
Ġto ol
ĠM on
ĠWh ile
h ood
ĠA ng
ĠD ef
Ġoff er
T r
a ur
Ġturn ed
d own
an ced
Ġrec ently
ĠE ar
Ġc e
ĠSt ar
ĠC ong
rough t
Ġbl ood
Ġhop e
Ġcom ment
ain t
Ġar ri
il es
ough t
0 8
4 9
Ġg ave
Ġse lect
Ġkill ed
Ġgo es
i j
Ġc oll
Ġimp act
at ives
ĠS er
0 9
ĠAug ust
Ġb oy
d e
ĠD es
Ġf elt
U S
Ġexpect ed
Ġim age
ĠM ark
E C
ĠM ag
en ed
h old
ĠP ost
Ġpre vent
N o
Ġquick ly
A t
un k
Ġ ur
Ġl ed
c ome
e y
Ġcand id
Ġear lier
et y
P ro
led ge
ix ed
ill ed
Ġpop ular
A P
l ight
Ġvar ious
in ks
Ġlevel s
Ġro ad
ab les
he l
ĠG ener
y pe
Ġhe ard
ic les
Ġm is
Ġus ers
ĠS an
Ġf ather
Ġse arch
The y
v il
Ġprof ess
Ġkn ew
Ġl oss
Ġev ents
6 5
Ġb illion
0 7
0 2
ĠNew s
ĠA M
Ġco ver
w here
ens ion
Ġb ott
Ġare as
en ces
op e
ĠTw itter
a el
Ġget s
ĠGo ogle
Ġs n
i ant
Ġv ote
Ġnear ly
Ġrec ogn
z z
m m
al ed
Ġhappen ed
0 4
Ġh ot
Ġwho se
Ġsu ff
o es
Ġresp ond
Ġh on
Ġfeat ures
ĠApr il
r im
Ġtechn ology
Ġo ption
ag ing
R e
Ġl at
ch ie
is l
u f
Ġtr aining
Ġeffect s
Ġf ast
Ġ201 0
Ġocc ur
Ġem ail
Ġs ens
e ch
Ġo il
Ġcurrent ly
ĠS ch
ĠAd d
Ġgo al
Ġcon v
1 00
em y
Ġdec ided
Ġtra vel
Ġm ention
L L
0 3
Ġe lection
Ġph one
Ġlook s
Ġsit uation
Ġc y
Ġh or
b ed
ĠCour t
av es
Ġqu ality
ĠCom p
w ise
Ġt able
Ġst aff
ĠW ind
et t
Ġtri ed
ide red
Ġadd ition
Ġb ox
Ġl ack
ar ily
Ġw ide
Ġm id
Ġbo ard
Ġant i
h a
Ġd ig
en ing
Ġd ro
C on
6 8
Ġsl ow
b ased
Ġp ath
E x
ak er
Ġwork ed
Ġp en
Ġeng ine
Ġlook ed
ĠSu per
ĠS erv
U n
Ġproper ty
ĠP M
L e
Ġcol or
ĠM ore
Ġ6 0
Ġnet work
Ġd ate
c ul
id ge
Ġext ra
3 1
Ġs le
6 7
Ġreport s
j ust
ĠAust ral
Ġcap ital
Ġen s
Ġcomm and
Ġallow ed
Ġpre p
Ġca pt
h ib
Ġnum bers
ch an
Ġf air
m p
om s
Ġre ach
W ith
t ain
Ġbro ad
Ġcou ple
ly ing
ĠF eb
Ġsc reen
Ġl ives
Ġpri or
ĠCong ress
A r
Ġappro ach
Ġe mer
ar ies
ĠD is
s erv
ĠN e
Ġbu ilt
c ies
Ġre pe
for ce
ĠP al
Ġcons idered
ĠCh ar
ĠI S
Ġb rought
Ġb i
i ers
ĠS im
O P
Ġproduct s
Ġvis it
Ġcon duct
Ġcomplete ly
in ing
ĠCal if
ib ly
Ġwr itten
ĠT V
em ents
Ġd raw
O ne
Ġsec ret
r ain
he t
ĠU p
Ġsex ual
ĠP at
Ġ ess
Ġstand ard
Ġar m
g es
ect ion
Ġf ell
Ġfore ign
an i
ĠFr iday
Ġreg ular
in ary
Ġincre ased
Ġus ually
Ġdem on
Ġd ark
Ġadd itional
ro l
ĠO f
! !
und red
Ġintern ational
id ents
ĠF ree
rou p
Ġr ace
Ġm ach
Ġh uge
A ll
Ġto wn
Ġatt ention
ĠO ff
y ond
ĠThe n
f ield
Ġter ror
ra z
ĠB o
Ġmeet ing
ĠP ark
Ġar rest
Ġf ear
Ġa w
ĠV al
or ing
' ,
Ġext reme
ar r
Ġwork ers
A fter
Ġ3 1
n et
am ent
Ġdirect ly
Ġpop ulation
ub e
ĠOct ober
ĠI N
ĠJan uary
5 9
ĠDav id
Ġc ross
ĠF irst
Ġmess age
ir it
Ġn ation
Ġp oll
is ions
n y
Ġcar ry
ĠRuss ia
Ġhe ar
ro y
in ally
Ġdo g
m itted
Ġtr ade
Ġf ans
Ġs ort
ic ation
ĠW ed
ar a
ve y
Ġt al
Ġnecess ary
Ġdet ails
Ġs en
ĠS und
ĠRe g
ĠR ec
0 6
Ġs il
ress ive
Ġmed ical
un ch
Ġu nd
f ort
oc ks
c raft
7 7
ur t
Ġ ver
ĠH ill
Ġmor ning
Ġb ank
Ġs at
ir th
ĠH igh
Ġdev ice
ĠTH E
ĠCent er
Ġsaf e
Ġp le
Ġsystem s
Ġass ist
Ġb attle
ĠS oc
S he
Ġp aper
Ġgrow th
Ġc ast
S c
Ġpl ans
ll ed
Ġpart s
Ġw all
Ġmove ment
Ġpract ice
Ġdis play
Ġsomet imes
om p
ĠP aul
ĠY es
k ing
5 8
o ly
Ġs on
Ġav oid
ok es
ĠJ ew
Ġto wards
as c
Ġ //
Ġtalk ing
Ġcor rect
Ġsp ent
ic ks
i able
e ared
Ġter m
Ġwant s
om ing
Ġ ut
Ġdou b
Ġfor ces
Ġp lease
6 9
Ġon es
ĠRuss ian
ĠM et
Ġparent s
C H
al y
ĠM od
Ġsh own
Ġcond itions
Ġst uff
Ġre b
ĠY our
ĠS am
m ission
ĠE ven
augh t
ĠRepublic an
Ġdeter min
ĠCount y
( )
Ġdo or
Ġchang ed
ĠH ere
Ġcle an
Ġp an
ĠEurope an
ir ing
Ġcl ub
Ġp aid
ĠN et
Ġattack s
Ġal one
Ġdirect or
d om
Ġ3 5
Ġl oad
Ġfin ally
Ġr ac
Ġcont r
Ġexact ly
res h
p ri
ĠIs lam
Ġn ature
Ġcare er
Ġlat est
Ġcon vers
ĠS l
p ose
ci ent
ĠIn c
iv ity
8 8
ĠA tt
ĠM or
Ġwe ight
k en
Ġnot e
Ġteam s
Ġ \
air s
ĠG reen
Ġh undred
Ġcons ist
ic ated
Ġreg ul
ast ic
Ġt en
ous ly
ĠU K
B I
Ġcost s
ĠA P
Ġnorm al
Ġh om
Ġob vious
Ġst ar
Ġread y
ac her
Ġimp lement
g est
Ġs ong
ĠG et
ĠL ab
Ġinterest ing
us ing
Ġg iving
ĠSund ay
Ġet c
Ġm iddle
Ġrem ember
r ight
os ition
ut ions
Ġm ax
4 6
Ġyour self
Ġdem and
Ġtreat ment
Ġd anger
ĠC ons
Ġgu y
ĠBrit ish
Ġrel ated
Ġrem ain
Ġcould n
Ġref er
b ox
EN T
bo ard
Ġin n
I G
er o
ĠSt reet
ren ch
cher s
Ġst ra
O L
ag er
ĠA N
I A
en ge
in y
Ġcl os
ock ed
Ġus es
ĠC oun
I m
u ild
? ?
m ore
Ġan g
Ġwr ite
5 7
Ġlead er
Ġread ing
< /
Ġaut om
est s
4 3
Ġleg isl
ĠG old
Ġdesign ed
ĠS T
ĠLe g
a res
Ġbe aut
ĠT ex
Ġappear s
ĠR om
Ġ 00
Ġcho ice
Ġparticular ly
ĠF rom
op er
ann ed
Ġallow s
ob ile
âĢ ¢
ĠV iew
Ġal though
Ġrel ative
Ġare n
Ġmy self
Ġim ag
Ġsoc iety
ĠEng lish
Ġpo or
ĠD ay
Ġwrit ing
Ġse ven
Ġstart ing
Ġb ud
Ġpr int
ĠTr ans
n ew
Ġg ives
Ġco ol
a e
i ance
ĠGener al
Ġthink ing
Ġsa ve
Ġlim ited
ĠPart y
Ġmean ing
p en
ow ers
ĠJ ack
E M
Ġn ice
ru pt
Ġg as
Ġe ight
Ġfe et
Ġeff ort
ic it
B l
co in
Ġbr ain
Wh ile
he st
Ġwould n
augh ter
le ments
Ġstud ies
Ġcent er
c ont
or ge
P l
or ks
Ġ200 8
Ġincre asing
Ġst ore
Ġcom ments
Ġb al
m en
Ġdo ll
Ġl iber
Ġw ife
Ġlaw s
Ġmod ern
ĠS k
Ġopportun ity
Ġs al
Ġpower ful
M y
Ġclaim s
ĠEar th
ord s
Ġes c
n ame
N ot
om en
Ġbe yond
Ġse ll
it ute
ear ch
im ent
4 2
ĠAr t
Ġun f
ur g
ĠE ast
Ġcomp ared
Ġopt ions
Ġthrough out
Ġv s
ig r
. [
ac hes
7 8
Ġfil es
F L
E L
ar ian
ĠJ ames
ĠA ir
an ch
Ġdet ail
Ġpie ce
P S
Ġn amed
Ġeduc ation
Ġdri ve
Ġitem s
Ġstud ent
ic ed
: :
ic o
Ġth row
Ġsc ene
Ġcomple x
Ġ200 9
Ġpre c
ĠB re
7 9
Ġcon cept
Ġstat us
am ing
Ġd ied
Ġknow ledge
Ġbegin ning
O D
Ġcertain ly
Ġgu ys
Ġsl ight
in n
ound s
Ġf ine
Ġf at
ic ations
Ġper haps
ĠA nt
Ġinc ome
Ġmajor ity
port s
st on
Ġgreat er
Ġfe ed
ent ially
Ġsaf ety
Ġun ique
Ġg one
Ġshow ed
i us
id a
Ġlead ing
i pe
Ġs end
ĠDon ald
er ve
Ġdef ense
ines e
Ġy es
ĠF ire
ĠMus lim
ra q
os h
Ġprov ides
Ġpr ison
ĠP re
Ġhapp y
Ġtr ust
ag s
ĠG ame
um an
ĠC le
it ation
ĠT imes
Ġsc ience
- >
Ġfig ure
ent y
Ġsoft ware
Ġu lt
Ġoffic ers
N ew
I s
Ġrem ains
ĠInd ia
ri ef
Ġc at
es c
Ġob serv
Ġst age
ĠD ark
Ġent er
ch ange
Ġpass ed
Ġdes pite
ĠO ut
Ġmov ie
r s
m ine
ĠPl ay
Ġto ward
ĠT er
Ġreg ion
Ġval ues
or ters
Ġm ount
Ġoffic er
ĠO ther
b an
w ood
ro om
I V
ĠS un
se e
ĠO ver
ro g
9 0
Ġl ay
ĠT ur
a wn
Ġpress ure
ĠS ub
Ġbook s
ĠS and
A A
ag o
Ġre asons
f ord
Ġactiv ity
U T
N ow
ĠSen ate
ce ll
n ight
Ġcall s
in ter
Ġlet ter
ĠR ob
ĠJ e
Ġcho ose
ĠL aw
G et
B e
Ġro b
Ġtyp es
Ġqu arter
R A
ĠT ime
Ġmay be
ĠC r
9 5
p re
Ġmov ing
Ġl if
Ġgo ld
Ġs om
Ġpat ients
Ġtr uth
ĠK e
ur ance
ant ly
m ar
Ġchar ge
ĠG reat
---------------- ----------------
Ġro ck
ro id
an cy
Ġcred it
a ud
B y
ĠE very
Ġmov ed
ing er
rib ution
Ġn ames
Ġstra ight
ĠHe alth
ĠW ell
Ġfe ature
Ġr ule
Ġsc he
in ated
ĠMich ael
ber g
4 1
il ed
b and
Ġcl ick
ĠAng el
on ents
Â Ń
ĠI raq
Ġa ware
p art
Ġpat tern
O W
ĠL et
Ġgr ad
ign ed
Ġst yle
n o
i ation
a ith
Ġst ories
ur ation
Ġindividual s
ĠâĢ ¦
m iss
ish ing
ab y
Ġsum mer
ĠB en
Ġ3 2
Ġar ch
ut y
ĠTex as
h ol
Ġfull y
Ġm ill
Ġfollow ed
ĠB ill
ĠInd ian
ĠSec ret
ĠB el
Ġjob s
Ġseem ed
i pped
Ġreal ity
Ġl ines
Ġp ark
ĠO ur
I M
Ġbro ther
Ġgrow ing
Ġb an
Ġc ry
ĠO F
ĠWind ows
Ġr ates
ĠO h
Ġpos itive
Ġcult ure
ist ics
ic a
Ġh ar
y a
i pp
Ġm ap
en cies
ĠWill iam
I I
ak ers
5 6
ĠM art
ĠR em
Ġal tern
it ude
Ġco ach
row d
D on
Ġk ids
Ġcor por
Ġwe b
Ġsle ep
Ġcont ain
Ġst o
Ġb ed
iver se
ĠR ich
ĠCh inese
Ġp un
Ġme ant
Ġnot ice
Ġfavor ite
a ven
Ġcond ition
Ġpur pose
) )
Ġorgan ization
ĠA c
Ġcrit ic
un es
Ġm er
vent ion
Ġ8 0
Ġm ist
ĠU s
ĠT or
htt p
ol f
Ġact ions
m l
Ġke pt
Ġa im
, '
c ol
Ġbenef its
if ying
Ġact ual
ĠIntern ational
Ġch ief
Ġeff orts
ĠLe ague
ĠM ost
Ġwa it
Ġad ult
Ġover all
Ġspe ech
Ġhigh ly
Ġfem ale
Ġer ror
Ġeffect ive
5 4
w ell
Ġfail ed
Ġcons erv
Ġprogram s
Ġt rou
Ġa head
5 00
I P
ĠF ound
p ir
Ġ %
Ġcr ime
and er
Ġloc ation
ĠI ran
az ing
Ġr are
Ġem b
Ġca used
Ġsh ip
Ġact ive
Ġg reen
Ġac qu
Ġref lect
ven ue
Ġf irm
Ġb irth
] .
Ġclear ly
Ġag ency
ri age
Ġmem ory
9 8
S A
ĠSe e
ac ing
C C
Ġbig gest
Ġr ap
Ġbas ic
Ġb and
e at
ĠM ac
Ġ9 0
m ark
ist an
Ġsp read
am s
k i
as y
ra v
Ġdemon str
r ated
Ġpl aces
Ġim pl
Ġc ards
Ġdest roy
ve re
Ġapp eared
y an
p oint
Ġbe g
Ġtem per
s pe
ant ed
ear s
Ġbl og
am b
ac c
if ul
Ġsp ot
Ġfor ced
ĠMin ister
Ġqu al
ĠF rench
at ically
Ġgener ally
Ġdr ink
Ġth us
I L
od es
ĠRe ad
Ġwh om
Ġ4 5
Ġens ure
id ers
Ġmin or
ol ic
Ġt ro
ĠWh y
rib ute
m et
Ġprim ary
Ġdevelop ed
Ġpe ace
Ġsk in
st e
av a
Ġbl ue
Ġ ir
Ġapp ly
Ġin form
ĠSm ith
C T
i i
Ġlim it
Ġres ist
........ ........
um n
ud d
ĠT om
Ġl iter
qu e
b on
Ġha ir
Ġevent ually
Ġhelp ed
ĠApp le
Ġf it
ĠS ur
Ġpre m
Ġs ales
Ġsecond s
Ġfeel ing
¿ ½
Ġt our
Ġknow s
o om
ï ¿½
> >
Ġide as
Ġreg ist
so ft
ĠD el
ĠP C
Ġbott om
T H
ĠP lease
v est
it z
ĠIn ter
Ġsc ript
Ġr at
Ġ il
ĠJ er
ĠA re
ok en
ci ence
Ġmod e
Ġag ree
Ġinit ial
Ġrest rict
us ion
## ##
ĠS il
vil le
Ġb urn
t w
as ion
ĠÂ £
Ġn or
u ing
Ġre ached
Ġs un
ig ration
Ġc ook
Ġm ale
Ġcl imate
Ġf ix
U R
all ed
Ġim ages
C ont
ot a
Ġschool s
i os
Ġd rop
Ġst ream
ĠM o
Ġprevious ly
al ing
Ġp et
Ġdou ble
Ġ( @
ann el
Ġdef ault
t ies
Ġr ank
ĠD ec
ĠCoun cil
Ġst ock
ĠSt r
ĠPol ice
f erence
Ġcent ury
Ġon to
Ġexp and
Ġhe ro
ĠS ol
Ġw ild
Ġcustom ers
r ont
d ef
Ġl ik
ĠChrist ian
S P
7 6
Ġle aving
Ġother wise
ĠD ist
Ġbas is
5 2
5 3
ĠB er
Ġfl oor
Ġc rowd
ol es
Ġ7 0
Ġcent ral
ĠE v
Ġd ream
Ġdown load
Ġwind ow
Ġhapp ens
Ġun it
Ġt end
Ġs pl
Ġbec omes
Ġfight ing
Ġpred ict
ĠP ress
ĠP ower
Ġhe avy
ak ed
Ġf an
or ter
ate gy
B A
iz es
Ġsp end
H ere
Ġ200 7
Ġad op
ĠH am
Ġfoot ball
ĠP ort
od ay
5 1
Ġtrans fer
h t
Ġ3 8
ter m
ac ity
Ġb ur
] ,
tern al
r ig
b ut
Ġthere fore
re y
Ġm ission
S ome
Ġnot ed
Ġass um
Ġed it
Ġprog ress
r d
ĠB rown
oc al
Ġadd ing
Ġra ised
ĠAn y
Ġt ick
Ġsee ing
Ġser ver
Ġw at
Ġdeb ate
Ġsupp osed
il ing
Ġsuccess ful
ĠP ri
Ġj ump
Ġown ers
Ġoff ers
Ġshoot ing
se y
Ġha ven
ver se
te red
ĠL ight
im al
ĠB ig
Ġdef end
Ġbe at
Ġrecord s
% )
Ġemploy ees
Ġdev ices
he m
ĠM ex
Ġbenef it
ĠPro f
Ġsur face
ĠAl so
Ġh arm
ing ly
w ide
ĠA lex
Ġsh ut
ĠC ur
Ġl ose
p m
Ġst ation
Ġint elligence
ĠFl or
Ġrequ ires
ĠM al
b um
Ġsp irit
Ġoff ered
ĠComm un
Ġcr is
s pect
Ġend ed
Ġvot ers
land s
i as
i h
on a
Ġsm art
ĠOff ice
ĠL ord
ri al
ĠIntern et
Ġextreme ly
' .
ĠM il
Ġg ain
B S
ĠF in
y p
Ġuse ful
Ġbud get
Ġcom fort
is f
Ġback ground
el ine
Ġen emy
Ġtri al
d ate
ĠC ap
Ġshow ing
ĠUn ion
w ith
Ġpost ed
Ġe at
ri an
Ġr ise
ĠGerman y
il s
Ġsign ed
Ġv ill
Ġgr and
m or
ĠEng land
Ġproject s
um ber
Ġconf erence
z a
ĠAr ab
Ġlearn ed
âĢĶ âĢĶ
i pping
ĠGe orge
O C
Ġreturn ed
ĠAustral ia
Ġb rief
Q u
Ġbr and
ill ing
ab led
Ġtr ain
ĠComm ission
wh ile
Ġn om
cept ion
Ġm ut
ĠBl ue
Ġinc ident
v ant
8 6
ĠI D
Ġn uclear
7 4
ĠL ike
ĠR E
l i
m ail
8 9
Ġad just
ad o
Ġear th
N A
Ġpr ices
P A
Ġd raft
Ġrun s
Ġcandid ate
ens es
ĠPh il
ĠM iss
Ġte ach
g ram
Ġunderstand ing
a it
A dd
ĠE p
Ġinst ance
Ġe th
Ġun less
**** ****
ĠF ore
in ate
Ġoper ations
S p
Ġf aith
g ar
ĠCh urch
ron ic
Ġconf ig
Ġactiv ities
Ġ3 6
Ġmach ine
Ġsur round
Ġp ush
un ction
ĠE U
G B
Ġsp ending
iz ations
Ġthe ory
Ġcall ing
ĠL ast
Ġd er
Ġcomm it
Ġph oto
Ġun c
ist ry
g n
ast e
ack s
Ġdis p
ad y
d o
ĠG ood
Ġ `
Ġw ish
l ig
Ġen force
Ġche m
Ġmil es
Ġinterest ed
Ġsol ution
ic y
in ct
Ġ- >
ĠD et
Ġrem oved
e ah
Ġpl ant
ĠS ince
Ġslight ly
b ing
Ġpl aced
u nder
201 5
ĠM ad
Ġt im
os es
Ġc ru
ĠR ock
Ġmost ly
Ġneg ative
Ġset ting
Ġm ur
Ġconnect ion
ĠM er
Ġdri ver
Ġass ault
Ġb orn
ĠV er
Ġstruct ure
Ġredu ce
Ġdec ades
Ġd ed
u ke
ĠM any
Ġle ague
S e
Ġjo in
Ġd ie
c ks
act ions
Ġass ess
ag n
Ġgo als
our s
I R
Ġsen ior
ill er
m od
ip ment
oc ol
u y
ĠQ ue
Ġpart ies
ir gin
it able
Ġstre et
A pp
Ġsk ills
b re
c ious
ĠFr anc
Ġexist ing
Ġwill ing
l or
Ġ id
ĠSp ace
Ġcrit ical
ĠL a
Ġser ve
Ġc old
Ġspec ies
T S
Ġanim als
ĠB ay
Ġold er
ĠU nder
est ic
ĠT re
Ġte acher
Ġpre fer
v is
Ġth read
ĠM att
ãĥ »
Ġprofess ional
ĠV ol
Ġnot es
The se
ul a
Ġf resh
ent ed
u zz
ed y
ĠR el
Ġdoub t
E O
Ġopen ed
ĠB it
Ġgu ess
ĠU N
Ġse qu
Ġexpl ain
ott en
Ġatt ract
ak s
Ġstr ing
Ġcont ext
oss ible
ĠRepublic ans
Ġsol id
Ġc ities
Ġask ing
u ps
ur ies
ar ant
g l
ĠFlor ida
Ġdep end
ĠSc ott
Ġ3 3
Ġi T
ic on
Ġmention ed
Ġ2 000
Ġclaim ed
ul f
Ġc ore
Ġopen ing
ĠCon st
wh ich
ĠT ra
A G
7 2
ad a
Ġ4 8
ĠSec urity
yr ight
ĠP et
ĠL ou
Ġhold ing
======== ========
Ġ ice
Ġb row
Ġauthor ities
h ost
w ord
Ġsc ore
ĠD iv
Ġcell s
Ġtrans l
Ġrem ove
u ct
Ġdist rict
Ġconcern s
Ġpresident ial
ĠH all
7 3
A Y
Ġ200 6
ĠJ ud
ĠJust ice
ili ar
pr int
igh ter
Ġprotect ion
z en
h ouse
ĠJ es
P R
ĠIn f
Ġb ul
Ġ _
ĠServ ice
ĠP R
Ġstr ategy
Ġgirl s
Ġmiss ing
oy al
ĠTe am
ul ated
Ġd at
Ġpolit ics
ab or
Ġspe ll
T C
A b
Ġlab or
is her
Ġk ick
ĠiT unes
Ġstep s
Ġsmall er
E n
ber t
Ġro ll
Ġcl osed
Ġtrans port
________ ________
Ġas pect
Ġn one
Ġmar riage
9 6
Ġe lements
ĠF re
ĠS al
F C
t op
e qu
Ġhe aring
Ġsupport ed
Ġtest ing
co hol
Ġmass ive
Ġst ick
Ġgu ard
is co
ph one
F rom
How ever
Ġb order
Ġcop y
ograph y
l ist
7 1
Ġown er
cl ass
ru it
r ate
ĠO nce
Ġdig ital
Ġt ask
ER S
t es
+ +
ĠFr ance
ow l
Ġdet ect
Ġpart ners
Ġsh ared
ĠC all
Ġcan cer
ac he
rib e
Ġexpl ained
Ġhe at
{ "
Ġinvest ment
ĠB ook
Ġw ood
Ġtool s
ĠAl though
Ġcris is
Ġg e
ĠM P
Ġoper ation
ty pe
~ ~
g a
Ġcont ains
ant a
Ġexp ress
ĠG roup
k a
Ġam b
ĠUS A
Ġfind ing
Ġfund ing
h ow
Ġdanger ous
ang ing
Ġch urch
Ġc atch
ĠTw o
Ġpres ence
ĠGu ard
U p
Ġauthor ity
ĠPro ject
Ġbut ton
Ġval id
Ġwe ak
Ġstart s
Ġref erence
ĠM em
" )
U N
or age
ĠO pen
Ġcol lection
y m
g ency
Ġbeaut iful
ro s
Ġtell s
Ġwa iting
n el
Ġprov iding
Ġd aughter
Ġm aster
ĠJapan ese
Ġequ al
Ġturn s
Ġdoc uments
Ġwatch ing
R es
Ġr an
201 4
Ġre ject
Ġvictim s
Le vel
Ġ3 4
Ġre form
com ing
Ġc aught
Ġtra ffic
ad ing
Ġmod els
ar io
Ġserv ed
Ġb atter
u ate
ĠSecret ary
ĠR et
Ġun its
ĠRes earch
h and
az ine
ĠM ike
Ġvar iety
Ġam azing
Ġentire ly
Ġe lement
Ġc ash
Ġdeter mine
D e
Ġc ars
ĠW all
â ĸ
Ġview s
Ġdrug s
Ġdep artment
ĠSt ep
u it
Ġ3 9
as ure
ĠCl ass
Ġc overed
ĠB ank
Ġme re
u ana
Ġmult i
Ġm ix
Ġun like
Ġsto pped
Ġs em
ĠG al
ul es
ĠJohn son
l a
Ġsk ill
Ġbec oming
ri e
f e
ell ow
ĠPro t
ul ate
oc ation
Ġweek end
od ies
Ġsit es
Ġanim al
ĠT im
Ġsc ale
Ġinst ruct
ill a
Ġmethod s
Ġc ert
Ġjud ge
ĠH el
Ġdoll ars
Ġstand ing
ĠS qu
Ġdeb t
Ġdri ving
ĠS um
ĠEd ition
Ġal bum
and on
I F
6 3
ad er
es h
Ġdisc overed
Ġout put
ĠHill ary
ĠCar ol
Ġ200 5
Ġab use
anc ing
Ġsw itch
Ġann ual
T w
Ġst ated
ag ement
in ner
Ġres idents
Ġallow ing
Ġfact ors
od d
Ġf uck
em ies
Ġoccur red
ot i
Ġn orth
Ġins urance
C L
oll y
ã Ģ
Ġrepe ated
Ġar ms
ang ed
Ġconst ruction
Ġf le
P U
ic ians
Ġfor ms
ĠMc C
ant ic
Ġm ental
p ire
Ġequ ipment
Ġdiscuss ion
Ġregard ing
k in
ar p
Ġch air
og ue
Ġpro ceed
ĠI d
O ur
Ġmur der
M an
Ġ4 9
as p
Ġsupp ly
Ġin put
Ġwe alth
or ial
ĠSt at
ĠN FL
hen s
ĠInst itute
Ġput ting
ourn ament
et ic
Ġloc ated
Ġk id
er ia
r un
Ġ !
go ing
ĠB et
Ġtell ing
Ġprop osed
i ot
or ry
Ġfund s
g ment
ĠL ife
Ġb aby
ĠB ack
Ġsp oke
Im age
Ġear n
ĠA T
g u
Ġex change
ĠL in
ov ing
Ġp air
M ore
az on
Ġarrest ed
Ġkill ing
c an
ĠC ard
y d
Ġm obile
Ġthan ks
ony m
ĠF orm
Ġhundred s
ĠCh ris
ĠC at
Ġtre nd
h at
ĠA v
om an
Ġelect ric
ĠW il
S E
O f
ot ed
Ġn ine
Ġb omb
Wh y
Â ¯
Ġapp eal
ĠS up
Ġfin ished
Ġfl ow
Ġdel iver
Ġphot os
Ġpie ces
k es
Ġr ough
D o
Ġpart ner
Ġconcern ed
Ġ3 7
ĠG en
C ol
Ġ= >
st ate
Ġsuggest ed
ĠFor ce
C E
Ġher self
ĠPl an
w orks
o oth
Ġcor ner
Ġintern et
ĠA ut
em s
os en
g en
Ġbal ance
6 2
Ġsound s
te xt
ov es
Ġmill ions
Ġrad io
Ġsat isf
ĠD am
M r
G o
S pe
Ġcomb at
r ant
Ġf uel
Ġdist ance
Ġtest s
Ġdec re
ĠE r
Ġman aged
D S
Ġt it
ĠL iber
Ġatt end
as hed
ĠJ ose
ĠN ight
d it
ĠN ov
ĠE nd
out s
Ġgener ation
y th
Ġconvers ation
ĠS ky
act ive
ce l
ri er
ĠFr ank
Ġg ender
Ġcar ried
and a
ĠV irgin
Ġarri ved
ic ide
ad ed
Ġfail ure
Ġmin imum
le ts
Ġkeep ing
Ġint ended
Ġdetermin ed
Ġtri p
Y es
Ġra ise
Ġ ~
Ġfeel s
Ġpack age
ĠJ o
h i
201 6
re al
M e
uck y
ĠK h
ĠEd it
ĠWe b
em ic
ĠCol or
Ġjust ice
I nt
Ġfar m
" >
el ess
Ġredu ced
Ġ5 00
x x
ĠR ad
ĠW ood
Ġcl in
Ġhy p
il er
ur a
k ins
8 5
6 1
ĠThe ir
ĠM ary
Ġs an
Ġno vel
ĠWh o
Ġcap acity
Ġimp ossible
Ġpl ays
Ġmin ister
ic ate
ĠS et
Ġ ing
Ġcommun ities
ĠF BI
it a
Ġb on
Ġstr ateg
Ġinterest s
l ock
g ers
m as
ĠAN D
Ġrequire ments
Ġs ac
Ġoper ating
in i
rel ated
Ġcomm itted
Ġrelative ly
Ġs outh
Ġaff ord
Ġdec isions
Ġacc used
pl ace
o ch
i at
N ame
C om
t ion
ed s
Ġsee k
Ġt ight
ĠIm ages
Ġhum ans
Ġfam iliar
Ġaud ience
Ġintern al
Ġs ides
ĠT O
Ġd im
Ġapp oint
Ġenforce ment
ĠJ im
Ġjo ined
ĠL os
Ġprot est
Ġtw ice
w in
Ġgl ass
ars h
ĠAr my
Ġexp ression
Ġdec ide
Ġplan ning
an ia
Ġhand le
ĠMicro soft
ĠN or
Ġmax imum
ĠRe v
Ġse a
Ġhel ps
re f
Ġb ound
Ġm outh
Ġstand ards
Ġcl im
ĠC amp
ĠF ox
cl es
Ġar my
ĠTe chn
ack ing
x y
S S
Ġ4 2
Ġbu g
ĠM ax
ĠJ ones
ĠSh ow
l o
Ġplan et
Ġ7 5
Ġwin ning
Ġf aster
Ġspe ct
Ġbro ken
T R
Ġdef ined
Ġhealth y
Ġcompet ition
htt ps
ĠIs land
ĠF e
ĠC up
ĠInst ead
Ġcl ient
Ġposs ibly
se ction
l ook
Ġfin ish
Ġcre w
Ġed itor
Ġh ate
Ġs ale
Ġp ages
w ing
Ġopp osition
Ġ200 4
Ġref uge
Ġfl ight
Ġap art
ĠL at
ĠB ur
Ġg ar
ĠSoc ial
Ġsh ape
Ġspe aking
a o
ĠS n
ĠBrit ain
P lease
rou d
Ġd iet
I nd
ĠSec ond
Ġfun ctions
ut s
ĠE ach
ĠJe ff
Ġst ress
Ġaccount s
ĠAn n
ed ia
Ġhon est
Ġt ree
ĠB ush
} ,
Ġs ch
ĠOn ly
ig an
ĠEx p
Ġlegisl ation
ĠW ork
ĠS pr
Ã Ĥ
ĠH uman
Ġ è
Ġsur vey
Ġr ich
ri p
Ġmain tain
Ġleaders hip
st ream
ĠIslam ic
Ġ 01
Ġmag ic
ĠPr ime
Ġfig ures
201 7
ind er
ĠDe ad
Ġabsolute ly
Ġfour th
Ġpresent ed
rib le
Ġal cohol
at o
ĠD E
por ary
Ġgr ab
Ġqu ant
ĠPh oto
Ġpl us
r ick
ar ks
Ġaltern ative
th at
Ġobject s
ĠR o
ĠAnd roid
Ġsignificant ly
ĠR oad
k ay
R ead
av or
ĠH D
ĠS ing
O r
ĠM ont
Ġun s
pro f
ĠAr ch
ik i
ĠJew ish
Ġmot or
Ġappear ance
Ġs itting
Ġstri ke
ĠD own
com p
ĠH ist
Ġf old
ac ement
ĠLou is
Ġbel ong
ĠâĢ ¢
Ġm ort
Ġprep ared
Ġ6 4
ĠM aster
Ġind eed
ĠD en
Ġre nt
T A
ar c
S u
9 7
Ġchang ing
Ġlist ed
is ation
ĠP eter
is hes
Ġl ived
ĠM el
ĠSup reme
Ġ) ;
ruct ure
Ġset s
u ous
ĠN OT
ĠM ount
Ġo dd
D A
Ġ ?
ol ved
Ġp owers
Ġth r
Ġrem aining
ĠW ater
L C
Ġca uses
ãģ ®
Ġman ner
ad s
Ġsuggest s
Ġend s
stand ing
f ig
ĠD un
Ġg ay
Ġter min
ĠAngel es
M S
Ġco al
ap ers
b ar
Ġsy m
ĠR un
th is
P C
igr ants
Ġmin ute
ĠDist rict
cell ent
Ġle aves
Ġcomple ted
am in
Ġmon itor
M A
ĠM ass
ĠGr and
Ġaffect ed
itution al
Ġconst ruct
Ġfollow s
Ġt on
re ens
Ġh omes
ĠE xt
ĠLe vel
r ast
ĠI r
Ġlarge ly
ĠJ oe
Ġvot es
all s
Ġbusiness es
ĠFound ation
ĠCent ral
Ġy ards
Ġmaterial s
Ġgu ide
Ġclos er
um s
Ġsp orts
ed er
J ust
Ġtax es
8 4
ĠO ld
Ġdec ade
ol a
Ġv ir
Ġdro pped
Ġdel ay
it ect
Ġsec ure
ste in
le vel
Ġtre ated
Ġfil ed
ain e
Ġv an
Ġm ir
Ġcol umn
ict ed
e per
Ġro t
Ġcons ult
Ġent ry
ĠD ou
Ġapparent ly
ok ing
Ġincre ases
an o
Ġspecific ally
Ġte le
ens ions
Ġfr ame
ĠN ote
ĠLe e
Ġhelp ing
Ġed ge
Ġorgan izations
Ã ĥ
ĠB oth
hip s
Ġbig ger
Ġbo ost
ĠSt and
Ġro w
ul s
Ġr id
L et
are n
ra ve
P D
Ġv ision
Ġwe aring
Ġa ward
ĠU se
Ġfact or
w ar
ul ations
) (
Ġg od
ast s
8 7
Ġen emies
ĠG ames
F F
Ġacc ident
W ell
ĠMart in
T ER
ĠHe ll
f ree
Ġst ars
Ġexp ensive
ra wn
Ġl ock
Ġform at
Ġsold iers
s m
Ġag ent
or a
ĠS cience
Ġrap id
Ġt ough
ĠJes us
M L
Ġwe ar
le te
Ġcomm ission
ĠB ob
O h
ap ed
Ġwar m
Ġ200 3
ort ion
Ġhas n
ust er
ĠI ll
Ġk ing
olog ies
9 4
ĠT em
ĠM os
Ġpat ient
ĠMex ico
ĠDe ath
ĠSand ers
y ou
ĠC ast
ĠComp any
Ġhappen ing
F P
ĠB attle
Ġb ought
A m
M od
U s
ut ers
ĠC re
ĠTh ose
Ġ4 4
is er
Ġs oul
ĠT op
ĠHar ry
ĠA w
Ġse at
ff ee
Ġrev olution
Ġ( "
ĠD uring
et te
Ġr ing
Ġoff ensive
Ġreturn s
Ġfam ous
en ced
ĠS ign
ĠR iver
Ġ3 00
P M
ĠB us
ĠC H
Ġcandid ates
ard en
Ġpercent age
Ġvis ual
Ġthan k
Ġtrou ble
Ġ200 1
Ġpro ve
ĠL ong
U M
Ġconnect ed
Ġposs ibility
O ver
art s
ĠDirect or
Ġfell ow
9 2
ir ty
Ġd ry
Ġsign s
ĠL ove
Ġqu iet
f oot
Ġp ure
ĠH un
Ġf illed
ĠE lect
ĠEx pl
Ġun able
n s
m o
Ġv ast
ob e
app ing
ĠCarol ina
Ġf ish
raz y
ĠPh ot
Ġb odies
ĠM ur
Ġdevelop ing
ĠA R
ĠBo ard
es ome
Ġdom estic
Ġcomb ined
ĠP ut
Ġchem ical
ĠCh ild
Ġpo ol
ĠC y
Ġe gg
c ons
st ers
Ġh urt
Ġmark ets
Ġconserv ative
Ġsupp orters
Ġag encies
id el
O b
ur b
Ġ4 3
ĠDef ense
y e
ĠA p
du le
Ġtemper ature
Ġconduct ed
ĠCh ief
Ġpull ed
Ġf ol
L ast
ont o
os is
V ER
D es
ĠP an
F irst
ĠJ on
Ġimag ine
Ġhe ll
Ġf ixed
ĠL og
ick en
] :
h ab
Ġc raft
ol t
ĠJ ul
Ġd ial
Ġent ered
Ġlead s
ĠA D
ĠCle an
Ġal t
Ġpay ing
P er
ĠMark et
ĠT ype
ĠH ome
Ġ5 5
rom e
8 3
Ġgreat est
Ġhe ight
ain ts
Ġlist en
as er
ĠS H
Ġcap able
ac le
in ating
Ġoff ering
ry pt
ab in
r c
Ġbr ight
al ty
ar row
ind ing
ack ed
ĠAn other
p g
ĠVirgin ia
ĠL u
Ġpl anned
Ġp it
T ype
ĠD i
Ġtyp ically
ĠFranc isco
Ġpro spect
ĠD an
Ġte en
re es
Ġh ol
Ġsc r
Ġlot s
l ife
Ġfor get
ĠN one
ĠM iddle
ĠR yan
ed d
Ġse vere
Ġsu it
ll er
9 3
Ġcor respond
u ations
Ġfl ag
g ame
r id
ĠD ata
Ġde ploy
ĠEn ter
su it
gh an
ĠM en
Ġthough ts
Ġmat ters
Ġad apt
ĠA ri
Ġf ill
Ġfor th
Ġs am
Ġ4 1
Ġpay ment
ĠH or
Ġsp ring
du c
Ġl osing
Ġbring ing
F O
al a
Ġdist ribution
he red
b our
ĠIsrael i
om a
Ġcomb ination
Ġpl enty
V E
C an
ĠH aw
Ġper man
ĠSpe cial
Ġto w
Ġsee king
Ġexam ples
Ġclass es
c r
Ġbe er
Ġmov es
ĠI P
ĠK n
Ġpan el
E ven
Ġproper ly
Ġpl ug
E very
Ġdef ensive
Ġvol ume
Ġpos itions
Ġl inks
ĠPro gram
ĠWe ek
ag ues
Ġtrans form
k er
ĠC EO
Ġc as
ĠC ode
Ġsh op
Ġf ly
Ġtal ks
Ġb ag
Ph one
Ġa id
Ġpl ants
Ġ6 5
ar ters
qu est
ĠMag ic
Ġbeg ins
Ġenvironment al
Ġst orage
N N
Ġmet al
ell y
Ġord ered
Ġrem ained
Ġl oved
Ġprom pt
Ġwalk ing
Ġan cient
Ġperform ed
AT E
Ġne ither
Ġselect ed
Ġm ine
Ġlab el
ĠServ ices
ribut ed
Tr ump
Ġsy n
ĠU lt
S C
Ġme at
Ġg iant
ĠW ars
ĠO N
Ġad m
Ġeven ing
Ġev il
ĠW ild
Ġ Ã
ĠBit coin
ĠAm azon
D r
ĠIn formation
Ġobvious ly
Ph oto
ol ar
Ġwe ather
Ġso le
Ġpot entially
ost er
m un
3 00
az e
ess ions
Ġde ck
Ġst ood
Ġyou th
ĠB ern
R ep
ĠT est
Ġbas ically
ot ic
ol it
ly n
S ee
Ġair craft
Ġconf irm
E W
Ġmess ages
ĠRich ard
Ġk it
is ters
Ġexist ence
Ġturn ing
ĠS P
Ġdes ire
Ġfl at
Ġm ent
se ason
Ġneighbor hood
ĠL ake
AT ION
Ġpoint ed
b ur
Ġinn ov
uc ks
U L
Ġprofess or
Ġexp ressed
A B
ic ious
Ġ200 2
ĠDe v
Ġs ession
Ġb are
s en
Ġdis s
ĠC ath
ĠP ass
ĠP oint
Ġdo ctor
or row
ail ed
ĠR ub
ĠD C
ĠChar l
p erson
Ġwrit er
Ġob lig
Ġrecord ed
Ġbro ke
Ġord ers
Ġmot ion
in ity
l aw
Ġimm igration
Ġcontr ast
Ġex cellent
Ġtechn ical
am i
Ġt un
Ġcl oud
ĠY ear
ge on
Ġcre ation
Ġstr ange
Ġfor t
b orn
Ġext ent
ĠT oday
ĠCl ub
Ġr ain
Ġs ample
Ġaccept ed
Ġf ired
ĠS on
Ġstand s
Ġb oot
Ġ4 7
Ġstat ements
Ġvers ions
Ġse lling
ound ed
Ġ199 0
Ġwere n
ĠW atch
P ost
Ġret ail
ul ed
In st
ãĥ ¼
Ġdep art
Ġb ond
Ġre action
ĠP ac
app ed
D P
Ġres olution
Ġre act
Ġappro ved
on om
m ond
-- -
Ġrepl ace
Ġt ack
Ġsp ort
Ġch ain
Ġemer gency
r ad
Ġ4 6
Ġautom atically
Ġp al
Ġb anks
ĠPar is
ĠMed ia
ro ad
ic ing
i xt
ist ed
Ġg rew
ĠW here
om in
Ġsub s
ï¿½ ï¿½
ĠÂ ±
Ġcorpor ate
Ġse lection
n oon
ĠRep ort
c s
ord ers
anc he
ĠIt s
Ġslow ly
ĠA cc
iqu es
E X
Ġattempt s
ur l
ĠC ross
Ġfind ings
ĠS C
ĠO R
Ġind ex
ĠW ay
ĠL and
Ġsh ock
d is
Ġc art
m osp
S ince
i est
ĠB oy
Ġst orm
201 3
he w
il it
Ġess ential
O ther
Ġreason able
A ct
ĠP ack
ĠF ort
Ġconsider ing
Ġun iversity
l og
Ġmar ried
Ġill ust
ĠTr ue
£ ı
Ġserious ly
Ġrefer red
u a
Ġconsist ent
on na
ĠRe al
Ġfact s
9 1
ot es
er g
The n
N ote
Ġre venue
Ġpass ing
Ġm al
e en
ĠY et
Ġg ather
P e
Ġopt im
Ġr ub
Ġè £ı
Ġun known
st one
Ġun ion
ol ve
Ġopportun ities
Ġbrow ser
ĠW al
ĠC ost
Ġreport ing
st s
p et
Ġs and
Ġsudden ly
ĠV R
ĠB as
ult ure
iz z
ĠC D
ĠF ull
ES T
Ġj oint
Ġcult ural
Ġa st
8 2
ce ived
ĠC ru
Ġb ull
am m
Ġfac ing
p ower
Ġb oss
ĠH ol
Ġincreasing ly
Ġsh ift
Ġstre ets
ĠWilliam s
ab b
Ġl ie
Ġl augh
ĠC a
P L
Ġadult s
Ġcustom er
Ġsupport ing
ht ml
f ire
Ġdetail ed
Ġpick ed
ĠR ight
ld er
E E
st ood
ĠK im
Ġw ire
Ġs ight
Ġdevelop ers
Ġs ad
Ġc up
Ġwar ning
Ġboy s
l ong
Ġb ird
f o
Ġw al
Ġobserv ed
Ġz one
iven ess
Ġch annel
c ript
Ġref used
ĠAg ain
Ġsu c
ĠRe f
r ite
ãĥ ³
ĠS her
Ġact s
ĠN ame
Ġstrugg le
ar ry
H T
Ġreal ize
Ġemploy ee
ĠAf ghan
en ger
Ġgun s
ĠSte ve
ĠM ot
ĠO l
ok ed
Ġth ick
Ġfair ly
ill y
ĠM at
we ight
â Ķ
Ġtro ops
Ġag ents
Ġbatter y
Ġmot iv
Ã ¡
S ec
d en
o very
L S
Ġfl u
Ġconf ident
Ġp hen
Ġse ctor
Ġexc ited
Ġrem ote
ap h
o en
Ġdestroy ed
Ġmor al
ĠH P
ĠR on
Ġd ress
ĠB at
Ġl it
ĠM S
Ġa f
H L
r um
is ms
Ġshould n
ĠTor onto
het ic
Ġcar bon
Ġinstall ed
Ġsol ar
j a
Ġpract ices
Ġr ide
ĠP enn
Ġaud io
ĠP S
Ġe ating
D ata
ĠRe view
p ass
cl aim
u ated
ang ers
c hen
Ġproper ties
Ġany where
An other
Ġbl ow
ĠJack son
Ġp roud
Ġplan e
l ines
Ġsqu are
Ġpro of
Ġtalk ed
m akers
Ġs ister
Ġhold s
Ġres ident
Ġ= =
Ġresist ance
Ġspl it
Ġconf idence
Ġcut s
Ġexcept ion
Ġz ero
Get ty
Ġcop yright
Ġtot ally
ific ations
ĠAustral ian
Ġs ick
Ġ1 50
Ġhouse hold
Ġfe es
Ġdri vers
og en
ĠN Y
Ġnecess arily
Ġregul ations
ear ing
s l
c are
H is
Ġesc ape
ĠV an
Ġv ac
8 1
ĠTh us
ĠI ce
Ġhead s
Ġca using
b el
ĠM a
Ġafter noon
Ġadd s
ĠMay be
ĠF our
ess ed
Ġus ual
ch o
ing u
O O
Ġart icles
Ġman age
Ġexpl ains
R ec
at ures
Ġlink ed
Ġdiscuss ed
Ġocc asion
ath an
Ġfac es
Ġden ied
ĠK night
Ġn ut
onym ous
ĠB est
ĠL o
ĠH y
ĠA ff
Ġvot ing
ĠII I
ag ram
Ġdr ag
Ġnear by
Ġcon ver
P re
s hip
Ġre ward
ĠS S
u gh
Ġapp s
Ġu pper
Ġs now
F r
ĠD ie
amp ion
Ġdis miss
Ġc ere
Ġsign al
f rom
Ġ ).
Ġ5 2
Ġcr imes
it ors
est ival
use um
M ay
ĠG un
ic ian
et her
ĠH en
so le
ĠF ar
ĠT urn
Ġp in
Ġsuc ceed
m at
ly mp
ĠO k
Ġc ro
al le
Ġsk y
T e
Ġwide ly
Ġw ave
ĠJew s
Ġcy cle
Ġbr ings
Ġal ive
Ġint ention
ĠCont rol
l v
Ġpriv acy
g ent
ren ce
ĠQu est
ĠChrist mas
Ġr ail
Ġco oper
Ġtest ed
ĠC apt
Ġcomfort able
sc ape
Ġdep th
ĠG OP
Ġwrit es
Ġass ets
Ġsa v
im ents
Ġtrans ition
Ġart ist
ĠL ook
Ġl ob
Ġcomp onents
ar ity
Ġwalk ed
Ġro ot
Ġparticip ants
Ġnot iced
Ġres c
d a
ut ral
pl ate
Ġimport ance
Ġass ert
ious ly
ĠChe ck
Ġregist ered
Ġint ent
Ġmiss ed
ograph ic
Ġsent ence
Ġassist ance
ev in
Ġbuild ings
Ġclass ic
Ġth inks
ĠOh io
P r
ug g
Ġfe e
p an
Ġeffect ively
Ġfac ility
Ġbe ar
Ġdog s
Ġl atter
Ġad mitted
T V
ĠGe org
Ġpost s
\ \
Ġm and
ĠW alk
ĠAnd rew
Ġmen u
am ental
Ġprotect ed
v a
or al
Ġre in
ĠS ar
Ġamount s
Ġn ative
ĠM oon
Ġab andon
Ġcarry ing
Ġt ank
m ary
Ġdecl ared
T ube
Ġh at
Ġpun ish
m es
Ġun iverse
ĠR od
ph y
Ġ5 1
Ġopp osed
c a
ĠM ake
Ġhard ware
Ġco ffee
R el
b al
w orld
ĠS af
ĠSe a
in als
Ġown ed
Ġh all
ĠP ot
Ġport ion
Ġgovern ments
Ġdep ending
Ġoff ense
Ġtr ick
aw a
ĠL ine
ĠV is
ĠH ard
ĠOr ig
ĠCl ick
Ġdes k
ĠVal ley
Ġmov ies
Ġrem ark
Ġm ail
Ġcons cious
ĠR ights
he nt
ĠW omen
> <
Ġrepl aced
ĠTh anks
Ġre new
ĠB all
if orm
Ġsh ots
C omm
Ġar med
Ġconst ant
Ġt aste
Ġreal ized
Ġbu ff
Ġm o
M ost
or ation
if ies
Ġcommun ication
Ġfl ood
Ġany way
ig g
ĠG M
ĠTh ank
Ġ iron
Ġev olution
ĠC op
tw itter
Ġ9 5
Ġrelationship s
ad el
ĠYou ng
ay ers
ĠH ot
OR E
c os
P G
ax y
Ġknow ing
Ġsupport s
ow ed
Ġcontrol s
Ġmere ly
um er
p ath
Ġg ift
Ġer a
AN D
Ġkind s
ul ous
Ġess entially
n ic
Ġsuff ered
Ġh ur
Ġprom ise
Ġex cess
Ġpr ime
er ry
ĠM s
R S
201 2
Ġst ores
ĠO lymp
Al though
S ub
Ġrequest s
Ġconsum ers
Ġt iny
ĠF air
b a
ĠY OU
Ġcr ash
ce ler
Ġgood s
Ġelect ed
Ġmod er
ĠLin ux
Ġbl ocks
Ġis land
ĠSoc iety
Ġelect ions
Ġbroad cast
Ġche ap
Ġn ations
Ġse asons
4 00
Ġwas te
ĠS at
Ġfield s
em ploy
Ġprof ile
AL L
ĠG ra
w est
ĠT y
Ġdeath s
Ġfor med
Ġd u
Ġon going
ĠMuslim s
el f
ig ure
Ġass ume
w ater
Ġco ast
Ġvot ed
g or
ĠA S
ĠMich igan
az a
ĠAr m
i ro
Ġf lex
as ters
' '
ar l
Ġloc ations
ig ation
ĠF il
Ġbu ying
Ġarch itect
Ġhard er
ĠC ub
Ġinter face
Ġex ceed
Ġfav our
ger y
Ġd uty
Ġp itch
ad or
ĠM ach
b oy
Ġrespond ed
Ġext ended
her s
M any
ra id
if er
ĠIn s
S er
Ġmed ium
s he
ĠS ports
Ġmag azine
ut ation
Ġlim its
ĠG all
Ġex ternal
Ġyoung er
t le
Ġrem ind
ĠC ON
Ġsim pl
Ġph ase
d r
Ġpl ot
R I
v in
ĠAc ad
ĠEng ine
ĠP ay
Y our
ĠE ll
ĠHe ad
Ġmarket ing
ĠA C
k et
Ġh its
Ġg ro
ĠA ge
ĠSc ot
] [
Ġi Phone
Ī Ĵ
Ġn arrow
ĠGet ty
ĠTur key
Ġperfect ly
Ġen able
ut ch
Ġprec ise
Ġreg ime
g un
d iv
Ġch osen
ĠK en
An y
Ġtre es
ĠR en
u able
F ollow
E G
ĠH and
ĠK enn
Ġarg uments
Ġex ists
Ġb ike
Ġbre aking
ĠG ar
Ġc razy
Ġ19 80
Ġper mission
ĠSer ies
Ġconsum er
Ġclose ly
c alled
Ġ5 4
Ġhop es
Ġar ray
ĠW in
ĠLab our
Ġread ers
Ġemploy ment
Ġresult ing
Ġmom ents
Ġarg ued
Ġp ed
D uring
Ġ5 3
ĠT al
Ġs ought
Ġsuff ering
Ġ icon
le e
Ġ( $
Â °
Ġp ra
Ġbon us
( "
k o
Ġact ing
D E
f all
Ġsm ooth
u pp
ĠJose ph
ep ing
ĠT ake
ĠM id
Ġs ending
f ast
ĠF all
Ġdeal ing
us er
ĠOr gan
C o
Ġatt ached
Ġse es
% .
Ġtyp ical
AR T
Ġfind s
ĠAs ia
um in
ĠC ore
ĠE nt
in ent
u ce
ĠBl ood
ĠN ever
Ġem ails
Ġhigh light
Ġconf ront
at us
ut ed
Ġtop ic
ĠAd am
Ġb le
at i
Ġunder stood
S et
st ruct
T P
Ġm ob
a a
ĠSt art
pect ed
se ll
Ġded icated
ĠC A
u an
Ġsong s
Ġte ch
Ġr ape
Ġas ide
Ġgr ant
Ġ5 6
s ub
Ġarg ue
Ġcont aining
Ġsche dule
Ġliber al
Ġpublic ly
ĠU t
in er
ĠS ection
ĠC are
we et
l s
D is
âĶ Ģ
ĠF ollow
B ack
ĠI T
Ġb es
j i
ĠH it
est ed
Ġevery body
Ġcon ven
C omp
ĠO S
c ore
Ġan x
Ġdiv ision
ĠC am
ĠSt an
m ates
Ġexpl ore
Ġsh ares
an es
Ġide al
et ers
ĠB ase
Ġpl astic
Ġdist inct
ĠNet work
ĠSe attle
Ġinit ially
ĠF ood
ĠBus iness
act er
Ġrough ly
Ġw ww
ĠCon f
Ġconsum ption
Ġfil ms
ag an
Ġob tain
Ġt all
Ġt or
Ġg rown
al o
K E
Ġ4 00
end ers
U G
Ġsu icide
Ġwat ched
ĠL ist
al i
Ġsurround ing
Ġp ip
Ġf lying
ĠJ ava
Ġserv ing
in ations
p ost
Ġsh o
A v
Ġj ail
z y
Ġ199 9
Ġ< /
Ġliter ally
ĠS ir
Ġexp osed
Ġl ies
st ar
Ġb at
Ġear ned
ĠD ig
Ġspec ified
ĠSe ason
Don ald
Ġcent re
Ġsh aring
Ġwin ter
ĠC O
C he
Ġ Î
M P
Ġun w
Ġfew er
ĠM ir
ĠK ey
Ġattack ed
ĠK ir
Ġdom ain
Ġstrong er
Ġ9 9
Ġpen alty
I d
Sc ript
Ġdecl ined
Ġne ck
Ġr ising
R C
âĢ¦ âĢ¦
H z
Ġt ab
Ġtal ent
n am
ĠN BA
Ġvill age
Ġleg s
ĠN ext
E d
Ġac id
Ġhy d
8 00
ĠIm age
ĠBe fore
F l
Ġterror ist
Ġsu p
Ġw est
Ġr u
b urg
Ġvis ible
r ison
Ġaw esome
Ġd rawn
ĠG irl
ĠR am
Ġthreat s
Ġdef eat
Ġv ent
end a
ĠH oly
Ġr um
% ,
c ase
ĠHist ory
ĠYou Tube
Ġsit uations
ĠD NA
S te
Ġsa ved
It em
Ġrec ip
olog ist
Ġfac ed
O nce
ĠL i
u h
Ġmist ake
ĠDiv ision
ĠB ell
Â ®
Ġdom in
Ġfall ing
Ġend ing
as hes
Ġmat ches
ĠOn line
D ef
Ġany more
ĠF OR
us hed
Ġlet ters
ĠO K
Ġreported ly
: \
Ġpl ate
Ġsubject s
Ġattempt ed
if ier
ian a
Ġunlike ly
ĠTh ough
um a
ĠPr in
ic an
ĠD ar
ĠColor ado
au g
a os
ri a
Ġmark ed
Ġ( )
Ġsp r
p o
ĠL ink
ĠJ r
Ġthem e
Ġpass ion
ĠP en
Ġinf o
iz er
Ġsh it
ap se
c re
Ġpo ly
ĠChar les
ĠPro v
Ġgr anted
Ġpain t
Ġhon or
Ġsm oke
Ġpay ments
Ġprim arily
ĠKing dom
r ich
ate ll
Ġde als
Ġfund amental
Ġcl ients
ĠD ate
h us
Ġfeed back
Ġc ock
Ġhot el
ĠQue en
Ġsu gar
Ġj u
Ġmil k
Ġappro val
ĠL ive
ef ully
Ġins ert
Ġext ension
d ri
J ohn
S m
ĠF und
Ġconst antly
Ġ` `
Ġgener ated
ĠA ction
ĠT ri
Ġrecogn ize
Ġv ary
ph a
ĠR a
d f
et ch
Tw o
Ġpattern s
Ġprof ession
an ing
T ime
ĠL im
Ġcol ors
ĠA z
ĠT R
Ġinf ect
Ġshe ll
Al so
Ġput s
Ġbro wn
Ġprocess ing
Ġlight s
ĠBro ok
ĠA ud
l ation
L ike
rou s
ES S
ĠL uc
Ġsome how
Ġ8 5
Ġpolit icians
Ġh ole
Ġtechn iques
Ġcompet itive
Ġv o
ist ent
ĠD ream
Ġcamp us
Ġaspect s
Ġhelp ful
Ġsh ield
or se
m al
Ġ5 8
Ġt ort
Ġperson ally
Ġt ag
Ġkeep s
ĠV ideo
Ġben ch
Ġg ap
a ire
Ġe ast
Ġrec overy
per ial
Ġprof it
ĠM ic
Ġ5 7
Ġcol on
Ġstrong ly
st yle
h an
Ġrep orters
j o
r ine
and al
Ġ0 3
Ġfl ash
tr ans
Ġstr ict
Ġpark ing
Ġl i
Ġwe ird
ĠE ric
Ġreg ions
ĠJ un
ĠW H
od ing
rib utes
up id
ĠT it
Ġf inger
or ia
Ġe lev
ĠF ield
; ;
Ġfeel ings
Ġext ensive
Ġm ixed
Ġne uro
v y
Ġhar ass
ĠC irc
ou ch
Ġsuccess fully
M ar
Ġl ayer
V iew
Ġall ies
ĠTh ree
Ġb unch
Ġnorm ally
Ġnet works
Ġsac r
ĠC IA
b les
Ġch ose
Ġopp onents
Ġregard less
Ġpre f
ĠP o
Ġbr idge
ann a
ĠSil ver
Ġw age
p age
Ġrad ical
ĠL ittle
Ġman ip
Ġsecret ary
Ġg ang
D R
F A
Ġdec ent
ĠSp irit
Ġun cle
ĠDevelop ment
Ġinvest ors
Ġwall s
Ġpub lish
Ġgener ate
c ar
Ġprom ote
Ġcut ting
Ġche st
Ġdrink ing
Ġcollect ed
Ġ7 2
Ġhop ing
Ġwar ned
Ġinstruct ions
O G
ĠD id
ĠAg ency
Ġg ear
Ġcritic ism
Ġut il
ann y
R ed
ĠAs ian
Ġredu ction
p ool
Ġteach ing
Ġdeep ly
i y
Ġcho ices
Ġperman ent
in em
ke l
Ġf asc
p se
f ile
ĠL ow
ĠP erson
Ġt ournament
Ġm el
U ST
ĠR ay
az i
V al
Ġcont ained
ĠH olly
Ġw ake
Ġprocess es
ĠIS IS
Ġ0 9
Ġbl ind
Ġste el
ĠB ad
Ġcare fully
app y
ro it
Ġg aming
ĠC oll
Ġtr uck
er m
Ġsc ored
ret urn
b ound
v ar
Ġsh arp
Ġaf raid
ĠE X
am ber
Ġsche me
N C
ĠPol it
Ġdecl ine
Ġ199 8
Ġposs ession
Ġteacher s
Ġy ield
H A
ĠDav is
it led
#### ####
Ġr ig
ac on
Ġh ide
ut en
Ġl oud
Ġs in
ĠDem on
Ġst one
Ġ0 2
Ġt aught
Ġter rible
Ġst uck
ĠPol icy
te en
Ġimplement ation
ĠB BC
ĠAP I
all as
play er
Ġrepeated ly
ĠSt ill
Ġlik es
ast y
es ter
ĠCath olic
R L
Ġb ath
Ġno ise
P art
Ġmag n
ĠAs h
Ġtick et
Ġalong side
ĠMus ic
Ġr iver
ĠSte el
ĠC L
ĠPl ayer
ĠM ult
ow ing
re p
s ize
Ġt ur
ĠGeorg ia
ra ction
Ġc able
Ġ5 9
Ġw ins
Ġup coming
Ġstat istics
ĠF oot
Ġy ellow
ĠP age
. -
ĠH as
Ġur ban
Ġa x
\ "
Ġquarter back
Ġreg ister
ĠLab or
Ġvar iable
ĠPr ice
Ġth in
ĠE qu
d ata
Ġg otten
Ġas ks
Ġt ail
Ġexc iting
ins on
ĠA h
Ġcommit ment
C S
Ġr ally
Ġ: :
Ġsubs id
Ġsp in
Ġcapt ured
201 8
Ġinn oc
Ġalleged ly
ĠC ome
Ġart ists
ĠN umber
Ġelect ronic
Ġreg ional
ap es
Ġmy th
pr ise
ĠM iller
b ell
Ġdirect ed
Ġext ract
Ġs orry
Ġv ice
ag ger
Ġ6 6
ĠI ron
Ġwonder ful
Ġg ra
N et
ion e
E ng
Ġsh ips
ik es
ĠK evin
it ar
Ġactiv ists
tr ue
ent h
ĠDes pite
ĠS E
Ġha bit
ern el
Ġin qu
Ġab ortion
Ġv oid
Ġexpl icit
Ġeng aged
Ġang ry
Ġr ating
Ġfr ag
b ro
ick ing
d ev
Ġap artment
ĠG T
Ġest ate
ĠConst itution
em on
ĠS now
Ġcount y
ĠStep hen
Ġimm igrants
w ind
ĠN ations
Ġfol ks
O ut
Ġg all
Ġtarget ed
ĠB on
ĠL ib
Ġinform ed
Ġ12 0
ch ain
or ough
Ġdri ven
Ġregular ly
Ġbas ket
Ġst un
ĠRom an
ĠAb out
Ġal ert
Ġrepresent ed
H S
c ers
Ar t
p ack
re ts
ĠN O
Ġcapt ure
Ħ ¢
Ġannounce ment
Ġh ook
ĠS uch
Ġrefuge es
ĠV e
P ol
Ġrecogn ized
l ib
Ġhad n
A ss
us hing
Ġreturn ing
Ġtra il
ĠSt one
Ġcour ts
Ġfriend ly
ĠIt aly
Ġstud io
N S
Ġimp ressive
ĠAfghan istan
ink ing
ĠR og
i ary
col or
se x
ar on
Ġf ault
ĠN ick
D own
ĠR ose
X X
is odes
L ist
6 00
Ġout come
er r
Ġelse where
Ġret ire
Ġp ounds
Ġcommun ications
Ġlo an
Ġrat io
ĠEm pire
Ġg onna
Ġinv ent
D F
Ġ19 70
ĠComm on
p at
Ġprom ised
Ġd inner
ĠH om
Ġoper ate
et ime
R eg
im a
Ġwar rant
Ġm m
A tt
Ġlaw suit
Ġreview s
l ights
ĠF ord
Ġ6 3
g roup
st ore
Ġfeat ured
Ġfore ver
ĠP op
ĠC NN
az z
ach ing
Ġl aid
ĠSu pp
Ġfil ter
en a
ĠCommun ity
u ction
ĠR oyal
ĠCon nect
ĠBr ad
âĸ Ī
l ers
the re
ĠG i
Ġval uable
AC K
ĠCar l
ĠF inal
ag a
ĠWil son
ak a
r ance
! )
R ef
s k
Ġsol utions
Ġbl ame
um es
C A
um ps
r ical
ĠPut in
or ic
ĠP A
Ġrespect ively
w an
â Ħ¢
ĠC ry
Ġgovern or
Ġh ack
Ġint ense
ob s
Ġdef ine
Ġcare ful
** *
Ġshould er
Cl ick
Ġt ied
Ġdest ruction
ou red
Ġno body
Ġh o
Ġt ip
" ;
Ġtechn ique
Ġj ur
b ow
Ġleg end
Ġacc ord
Ġbus y
ĠInt el
Ġh ang
ak i
. ]
âĢĶâĢĶ âĢĶâĢĶ
Ġsur gery
Ġrep rodu
Ġun iform
c ode
Ġ6 2
ĠH ave
Ġcry pt
Ġrec on
Ġsc ream
Ġadop ted
Ġsc ores
N e
B O
Ġent ertain
G u
T ext
i el
Ġtw enty
Ġeng age
[...]
