{"version":"1.0","truncation":null,"padding":null,"added_tokens":[{"id":50256,"special":true,"content":"<|endoftext|>","single_word":false,"lstrip":false,"rstrip":false,"normalized":true}],"normalizer":null,"pre_tokenizer":{"type":"ByteLevel","add_prefix_space":false,"trim_offsets":true},"post_processor":{"type":"ByteLevel","add_prefix_space":true,"trim_offsets":false},"decoder":{"type":"ByteLevel","add_prefix_space":true,"trim_offsets":true},"model":{"dropout":null,"unk_token":null,"continuing_subword_prefix":"","end_of_word_suffix":"","fuse_unk":false,"vocab":{"!":0,"\"":1,"#":2,"$":3,"%":4,"&":5,"'":6,"(":7,")":8,"*":9,"+":10,",":11,"-":12,".":13,"/":14,"0":15,"1":16,"2":17,"3":18,"4":19,"5":20,"6":21,"7":22,"8":23,"9":24,":":25,";":26,"<":27,"=":28,">":29,"?":30,"@":31,"A":32,"B":33,"C":34,"D":35,"E":36,"F":37,"G":38,"H":39,"I":40,"J":41,"K":42,"L":43,"M":44,"N":45,"O":46,"P":47,"Q":48,"R":49,"S":50,"T":51,"U":52,"V":53,"W":54,"X":55,"Y":56,"Z":57,"[":58,"\\":59,"]":60,"^":61,"_":62,"`":63,"a":64,"b":65,"c":66,"d":67,"e":68,"f":69,"g":70,"h":71,"i":72,"j":73,"k":74,"l":75,"m":76,"n":77,"o":78,"p":79,"q":80,"r":81,"s":82,"t":83,"u":84,"v":85,"w":86,"x":87,"y":88,"z":89,"{":90,"|":91,"}":92,"~":93,"¡":94,"¢":95,"£":96,"¤":97,"¥":98,"¦":99,"§":100,"¨":101,"©":102,"ª":103,"«":104,"¬":105,"®":106,"¯":107,"°":108,"±":109,"²":110,"³":111,"´":112,"µ":113,"¶":114,"·":115,"¸":116,"¹":117,"º":118,"»":119,"¼":120,"½":121,"¾":122,"¿":123,"À":124,"Á":125,"Â":126,"Ã":127,"Ä":128,"Å":129,"Æ":130,"Ç":131,"È":132,"É":133,"Ê":134,"Ë":135,"Ì":136,"Í":137,"Î":138,"Ï":139,"Ð":140,"Ñ":141,"Ò":142,"Ó":143,"Ô":144,"Õ":145,"Ö":146,"×":147,"Ø":148,"Ù":149,"Ú":150,"Û":151,"Ü":152,"Ý":153,"Þ":154,"ß":155,"à":156,"á":157,"â":158,"ã":159,"ä":160,"å":161,"æ":162,"ç":163,"è":164,"é":165,"ê":166,"ë":167,"ì":168,"í":169,"î":170,"ï":171,"ð":172,"ñ":173,"ò":174,"ó":175,"ô":176,"õ":177,"ö":178,"÷":179,"ø":180,"ù":181,"ú":182,"û":183,"ü":184,"ý":185,"þ":186,"ÿ":187,"Ā":188,"ā":189,"Ă":190,"ă":191,"Ą":192,"ą":193,"Ć":194,"ć":195,"Ĉ":196,"ĉ":197,"Ċ":198,"ċ":199,"Č":200,"č":201,"Ď":202,"ď":203,"Đ":204,"đ":205,"Ē":206,"ē":207,"Ĕ":208,"ĕ":209,"Ė":210,"ė":211,"Ę":212,"ę":213,"Ě":214,"ě":215,"Ĝ":216,"ĝ":217,"Ğ":218,"ğ":219,"Ġ":220,"ġ":221,"Ģ":222,"ģ":223,"Ĥ":224,"ĥ":225,"Ħ":226,"ħ":227,"Ĩ":228,"ĩ":229,"Ī":230,"ī":231,"Ĭ":232,"ĭ":233,"Į":234,"į":235,"İ":236,"ı":237,"Ĳ":238,"ĳ":239,"Ĵ":240,"ĵ":241,"Ķ":242,"ķ":243,"ĸ":244,"Ĺ":245,"ĺ":246,"Ļ":247,"ļ":248,"Ľ":249,"ľ":250,"Ŀ":251,"ŀ":252,"Ł":253,"ł":254,"Ń":255,"Ġt":256,"Ġa":257,"he":258,"in":259,"re":260,"on":261,"Ġthe":262,"er":263,"Ġs":264,"at":265,"Ġw":266,"Ġo":267,"en":268,"Ġc":269,"it":270,"is":271,"an":272,"or":273,"es":274,"Ġb":275,"ed":276,"Ġf":277,"ing":278,"Ġp":279,"ou":280,"Ġan":281,"al":282,"ar":283,"Ġto":284,"Ġm":285,"Ġof":286,"Ġin":287,"Ġd":288,"Ġh":289,"Ġand":290,"ic":291,"as":292,"le":293,"Ġth":294,"ion":295,"om":296,"ll":297,"ent":298,"Ġn":299,"Ġl":300,"st":301,"Ġre":302,"ve":303,"Ġe":304,"ro":305,"ly":306,"Ġbe":307,"Ġg":308,"ĠT":309,"ct":310,"ĠS":311,"id":312,"ot":313,"ĠI":314,"ut":315,"et":316,"ĠA":317,"Ġis":318,"Ġon":319,"im":320,"am":321,"ow":322,"ay":323,"ad":324,"se":325,"Ġthat":326,"ĠC":327,"ig":328,"Ġfor":329,"ac":330,"Ġy":331,"ver":332,"ur":333,"Ġu":334,"ld":335,"Ġst":336,"ĠM":337,"'s":338,"Ġhe":339,"Ġit":340,"ation":341,"ith":342,"ir":343,"ce":344,"Ġyou":345,"il":346,"ĠB":347,"Ġwh":348,"ol":349,"ĠP":350,"Ġwith":351,"Ġ1":352,"ter":353,"ch":354,"Ġas":355,"Ġwe":356,"Ġ(":357,"nd":358,"ill":359,"ĠD":360,"if":361,"Ġ2":362,"ag":363,"ers":364,"ke":365,"Ġ\"":366,"ĠH":367,"em":368,"Ġcon":369,"ĠW":370,"ĠR":371,"her":372,"Ġwas":373,"Ġr":374,"od":375,"ĠF":376,"ul":377,"ate":378,"Ġat":379,"ri":380,"pp":381,"ore":382,"ĠThe":383,"Ġse":384,"us":385,"Ġpro":386,"Ġha":387,"um":388,"Ġare":389,"Ġde":390,"ain":391,"and":392,"Ġor":393,"igh":394,"est":395,"ist":396,"ab":397,"rom":398,"ĠN":399,"th":400,"Ġcom":401,"ĠG":402,"un":403,"op":404,"00":405,"ĠL":406,"Ġnot":407,"ess":408,"Ġex":409,"Ġv":410,"res":411,"ĠE":412,"ew":413,"ity":414,"ant":415,"Ġby":416,"el":417,"os":418,"ort":419,"oc":420,"qu":421,"Ġfrom":422,"Ġhave":423,"Ġsu":424,"ive":425,"ould":426,"Ġsh":427,"Ġthis":428,"nt":429,"ra":430,"pe":431,"ight":432,"art":433,"ment":434,"Ġal":435,"ust":436,"end":437,"--":438,"all":439,"ĠO":440,"ack":441,"Ġch":442,"Ġle":443,"ies":444,"red":445,"ard":446,"âĢ":447,"out":448,"ĠJ":449,"Ġab":450,"ear":451,"iv":452,"ally":453,"our":454,"ost":455,"gh":456,"pt":457,"Ġpl":458,"ast":459,"Ġcan":460,"ak":461,"ome":462,"ud":463,"The":464,"Ġhis":465,"Ġdo":466,"Ġgo":467,"Ġhas":468,"ge":469,"'t":470,"ĠU":471,"rou":472,"Ġsa":473,"Ġj":474,"Ġbut":475,"Ġall":477,"ect":478,"Ġk":479,"ame":480,"Ġwill":481,"ok":482,"Ġthey":484,"ide":485,"01":486,"ff":487,"ich":488,"pl":489,"ther":490,"Ġtr":491,"..":492,"Ġint":493,"ie":494,"ure":495,"age":496,"Ġne":497,"ial":498,"ap":499,"ine":500,"ice":501,"Ġme":502,"Ġout":503,"ans":504,"one":505,"ong":506,"ions":507,"Ġwho":508,"ĠK":509,"Ġup":510,"Ġtheir":511,"Ġad":512,"Ġ3":513,"Ġus":514,"ated":515,"ous":516,"Ġmore":517,"ue":518,"og":519,"ĠSt":520,"ind":521,"ike":522,"Ġso":523,"ime":524,"per":525,".\"":526,"ber":527,"iz":528,"act":529,"Ġone":530,"Ġsaid":531,"Ġ-":532,"are":533,"Ġyour":534,"cc":535,"ĠTh":536,"Ġcl":537,"ep":538,"ake":539,"able":540,"ip":541,"Ġcont":542,"Ġwhich":543,"ia":544,"Ġim":545,"Ġabout":546,"Ġwere":547,"very":548,"ub":549,"Ġhad":550,"Ġen":551,"Ġcomp":552,",\"":553,"ĠIn":554,"Ġun":555,"Ġag":556,"ire":557,"ace":558,"au":559,"ary":560,"Ġwould":561,"ass":562,"ry":563,"ĠâĢ":564,"cl":565,"ook":566,"ere":567,"so":568,"ĠV":569,"ign":570,"ib":571,"Ġoff":572,"Ġte":573,"ven":574,"ĠY":575,"ile":576,"ose":577,"ite":578,"orm":579,"Ġ201":580,"Ġres":581,"Ġman":582,"Ġper":583,"Ġother":584,"ord":585,"ult":586,"Ġbeen":587,"Ġlike":588,"ase":589,"ance":590,"ks":591,"ays":592,"own":593,"ence":594,"Ġdis":595,"ction":596,"Ġany":597,"Ġapp":598,"Ġsp":599,"int":600,"ress":601,"ations":602,"ail":603,"Ġ4":604,"ical":605,"Ġthem":606,"Ġher":607,"ount":608,"ĠCh":609,"Ġar":610,"Ġif":611,"Ġthere":612,"Ġpe":613,"Ġyear":614,"av":615,"Ġmy":616,"Ġsome":617,"Ġwhen":618,"ough":619,"ach":620,"Ġthan":621,"ru":622,"ond":623,"ick":624,"Ġover":625,"vel":626,"Ġqu":627,"ĊĊ":628,"Ġsc":629,"reat":630,"ree":631,"ĠIt":632,"ound":633,"port":634,"Ġalso":635,"Ġpart":636,"fter":637,"Ġkn":638,"Ġbec":639,"Ġtime":640,"ens":641,"Ġ5":642,"Ġwhat":644,"Ġno":645,"du":646,"mer":647,"ang":648,"Ġnew":649,"----":650,"Ġget":651,"ory":652,"ition":653,"ings":654,"Ġjust":655,"Ġinto":656,"Ġ0":657,"ents":658,"ove":659,"te":660,"Ġpeople":661,"Ġpre":662,"Ġits":663,"Ġrec":664,"Ġtw":665,"ian":666,"irst":667,"ark":668,"ors":669,"Ġwork":670,"ade":671,"ob":672,"Ġshe":673,"Ġour":674,"wn":675,"ink":676,"lic":677,"Ġ19":678,"ĠHe":679,"ish":680,"nder":681,"ause":682,"Ġhim":683,"ons":684,"Ġ[":685,"Ġro":686,"form":687,"ild":688,"ates":689,"vers":690,"Ġonly":691,"oll":692,"Ġspe":693,"ck":694,"ell":695,"amp":696,"Ġacc":697,"Ġbl":698,"ious":699,"urn":700,"ft":701,"ood":702,"Ġhow":703,"hed":704,"Ġ'":705,"Ġafter":706,"aw":707,"Ġatt":708,"ov":709,"ne":710,"Ġplay":711,"erv":712,"ict":713,"Ġcould":714,"itt":715,"Ġam":716,"Ġfirst":717,"Ġ6":718,"Ġact":719,"Ġ$":720,"ec":721,"hing":722,"ual":723,"ull":724,"Ġcomm":725,"oy":726,"old":727,"ces":728,"ater":729,"Ġfe":730,"Ġbet":731,"we":732,"iff":733,"Ġtwo":734,"ock":735,"Ġback":736,").":737,"ident":738,"Ġunder":739,"rough":740,"sel":741,"xt":742,"Ġmay":743,"round":744,"Ġpo":745,"ph":746,"iss":747,"Ġdes":748,"Ġmost":749,"Ġdid":750,"Ġadd":751,"ject":752,"Ġinc":753,"fore":754,"Ġpol":755,"ont":756,"Ġagain":757,"tern":759,"Ġknow":760,"Ġneed":761,"Ġcons":762,"Ġco":763,"Ġ.":764,"Ġwant":765,"Ġsee":766,"Ġ7":767,"ning":768,"iew":769,"ĠThis":770,"ced":771,"Ġeven":772,"Ġind":773,"ty":774,"ĠWe":775,"ath":776,"Ġthese":777,"Ġpr":778,"Ġuse":779,"Ġbecause":780,"Ġfl":781,"ng":782,"Ġnow":783,"ĠâĢĵ":784,"com":785,"ise":786,"Ġmake":787,"Ġthen":788,"ower":789,"Ġevery":790,"ĠUn":791,"Ġsec":792,"oss":793,"uch":794,"Ġem":795,"Ġ=":796,"ĠRe":797,"ied":798,"rit":799,"Ġinv":800,"lect":801,"Ġsupp":802,"ating":803,"Ġlook":804,"man":805,"pect":806,"Ġ8":807,"row":808,"Ġbu":809,"Ġwhere":810,"ific":811,"Ġyears":812,"ily":813,"Ġdiff":814,"Ġshould":815,"Ġrem":816,"Th":817,"In":818,"Ġev":819,"day":820,"'re":821,"rib":822,"Ġrel":823,"ss":824,"Ġdef":825,"Ġright":826,"Ġsy":827,"),":828,"les":829,"000":830,"hen":831,"Ġthrough":832,"ĠTr":833,"__":834,"Ġway":835,"Ġdon":836,"Ġ,":837,"Ġ10":838,"ased":839,"Ġass":840,"Ġreg":842,"ĠAnd":843,"ix":844,"Ġvery":845,"other":847,"Ġimp":848,"oth":849,"Ġsub":850,"ĠâĢĶ":851,"Ġbeing":852,"arg":853,"ĠWh":854,"==":855,"ible":856,"Ġdoes":857,"ange":858,"ram":859,"Ġ9":860,"ert":861,"ps":862,"ited":863,"ational":864,"Ġbr":865,"Ġdown":866,"Ġmany":867,"aking":868,"Ġcall":869,"uring":870,"ities":871,"Ġph":872,"ics":873,"als":874,"Ġdec":875,"ative":876,"ener":877,"Ġbefore":878,"ility":879,"Ġwell":880,"Ġmuch":881,"erson":882,"Ġthose":883,"Ġsuch":884,"Ġke":885,"Ġend":886,"ĠBut":887,"ason":888,"ting":889,"Ġlong":890,"ef":891,"Ġthink":892,"ys":893,"Ġbel":894,"Ġsm":895,"its":896,"ax":897,"Ġown":898,"Ġprov":899,"Ġset":900,"ife":901,"ments":902,"ble":903,"ward":904,"Ġshow":905,"Ġpres":906,"ms":907,"omet":908,"Ġob":909,"Ġsay":910,"ĠSh":911,"ts":912,"ful":913,"Ġeff":914,"Ġgu":915,"Ġinst":916,"und":917,"ren":918,"cess":919,"Ġent":920,"ĠYou":921,"Ġgood":922,"Ġstart":923,"ince":924,"Ġmade":925,"tt":926,"olog":928,"up":929,"Ġ|":930,"ump":931,"Ġhel":932,"vern":933,"ular":934,"ually":935,"Ġac":936,"Ġmon":937,"Ġlast":938,"Ġ200":939,"10":940,"Ġstud":941,"ures":942,"ĠAr":943,"self":944,"ars":945,"meric":946,"ues":947,"cy":948,"Ġmin":949,"ollow":950,"Ġcol":951,"io":952,"Ġmod":953,"Ġcount":954,"ĠCom":955,"hes":956,"Ġfin":957,"air":958,"ier":959,"âĢĶ":960,"read":961,"ank":962,"atch":963,"ever":964,"Ġstr":965,"Ġpoint":966,"ork":967,"ĠNew":968,"Ġsur":969,"ool":970,"alk":971,"ement":972,"Ġused":973,"ract":974,"Ġsame":976,"oun":977,"ĠAl":978,"ci":979,"Ġwhile":981,"--------":982,"Ġgame":983,"cept":984,"Ġsim":985,"...":986,"Ġinter":987,"ek":988,"Ġreport":989,"Ġstill":991,"led":992,"ah":993,"Ġhere":994,"Ġworld":995,"Ġthough":996,"Ġnum":997,"arch":998,"imes":999,"ale":1000,"ĠSe":1001,"ĠIf":1002,"//":1003,"ĠLe":1004,"Ġret":1005,"Ġref":1006,"Ġtrans":1007,"ner":1008,"ution":1009,"ters":1010,"Ġtake":1011,"ĠCl":1012,"Ġconf":1013,"way":1014,"ave":1015,"Ġgoing":1016,"Ġsl":1017,"ug":1018,"Ġspec":1020,"Ġhand":1021,"Ġbetween":1022,"ists":1023,"ĠDe":1024,"oot":1025,"It":1026,"Ġear":1027,"Ġagainst":1028,"Ġhigh":1029,"gan":1030,"az":1031,"ather":1032,"Ġexp":1033,"Ġop":1034,"Ġins":1035,"Ġgr":1036,"Ġhelp":1037,"Ġrequ":1038,"ets":1039,"ins":1040,"ĠPro":1041,"ism":1042,"Ġfound":1043,"land":1044,"ata":1045,"uss":1046,"ames":1047,"Ġperson":1048,"Ġgreat":1049,"pr":1050,"Ġsign":1051,"ĠAn":1052,"'ve":1053,"Ġsomet":1054,"Ġser":1055,"hip":1056,"Ġrun":1057,"Ġ:":1058,"Ġter":1059,"Ġfollow":1061,"Ġdet":1062,"ices":1063,"Ġfind":1064,"12":1065,"Ġmem":1066,"Ġcr":1067,"ered":1068,"ex":1069,"Ġext":1070,"uth":1071,"ense":1072,"co":1073,"Ġteam":1074,"ving":1075,"ouse":1076,"ash":1077,"att":1078,"ved":1079,"Ġsystem":1080,"ĠAs":1081,"der":1082,"ives":1083,"min":1084,"Ġlead":1085,"ĠBl":1086,"cent":1087,"Ġaround":1088,"Ġgovern":1089,"Ġcur":1090,"any":1092,"Ġcour":1093,"alth":1094,"ages":1095,"ize":1096,"Ġcar":1097,"ode":1098,"Ġlaw":1099,"Ġread":1100,"'m":1101,"con":1102,"Ġreal":1103,"Ġsupport":1104,"Ġ12":1105,"....":1106,"Ġreally":1107,"ness":1108,"Ġfact":1109,"Ġday":1110,"Ġboth":1111,"ying":1112,"Ġserv":1113,"ĠFor":1114,"Ġthree":1115,"Ġmed":1117,"ody":1118,"ĠThey":1119,"50":1120,"ton":1122,"Ġeach":1123,"akes":1124,"Ġche":1125,"Ġcre":1126,"ines":1127,"Ġrep":1128,"19":1129,"gg":1130,"illion":1131,"ute":1133,"ik":1134,"We":1135,"get":1136,"ER":1137,"Ġmet":1138,"Ġsays":1139,"ox":1140,"Ġduring":1141,"ern":1142,"ized":1143,"ared":1144,"Ġfam":1145,"ically":1146,"Ġhapp":1147,"ĠIs":1148,"Ġchar":1149,"med":1150,"vent":1151,"Ġgener":1152,"ient":1153,"ple":1154,"iet":1155,"rent":1156,"11":1157,"ves":1158,"ption":1159,"Ġ20":1160,"formation":1161,"Ġcor":1162,"Ġoffic":1163,"ield":1164,"Ġtoo":1165,"ision":1166,"Ġinf":1167,"ĠZ":1168,"the":1169,"oad":1170,"Ġpublic":1171,"Ġprog":1172,"ric":1173,"**":1174,"Ġwar":1175,"Ġpower":1176,"view":1177,"Ġfew":1178,"Ġloc":1179,"Ġdifferent":1180,"Ġstate":1181,"Ġhead":1182,"'ll":1183,"Ġposs":1184,"Ġstat":1185,"ret":1186,"ants":1187,"Ġval":1188,"Ġcle":1190,"ivers":1191,"anc":1192,"Ġexpl":1193,"Ġanother":1194,"ĠQ":1195,"Ġav":1196,"thing":1197,"nce":1198,"Wh":1199,"Ġchild":1200,"Ġsince":1201,"ired":1202,"less":1203,"Ġlife":1204,"Ġdevelop":1205,"ittle":1206,"Ġdep":1207,"Ġpass":1208,"ãĥ":1209,"Ġturn":1210,"orn":1211,"This":1212,"bers":1213,"ross":1214,"ĠAd":1215,"Ġfr":1216,"Ġresp":1217,"Ġsecond":1218,"oh":1219,"Ġ/":1220,"Ġdisc":1221,"Ġ&":1222,"Ġsomething":1223,"Ġcomple":1224,"Ġed":1225,"Ġfil":1226,"Ġmonth":1227,"aj":1228,"uc":1229,"Ġgovernment":1230,"Ġwithout":1231,"Ġleg":1232,"Ġdist":1233,"Ġput":1234,"Ġquest":1235,"ann":1236,"Ġprot":1237,"20":1238,"Ġnever":1239,"ience":1240,"Ġlevel":1241,"Ġart":1242,"Ġthings":1243,"Ġmight":1244,"Ġeffect":1245,"Ġcent":1247,"Ġ18":1248,"Ġallow":1249,"ott":1252,"Ġincre":1253,"Ġfeel":1254,"Ġresult":1255,"Ġlot":1256,"Ġfun":1257,"ote":1258,"Ġty":1259,"Ġusing":1262,"Ġbig":1263,"201":1264,"Ġask":1265,"Ġbest":1266,"Ġ)":1267,"IN":1268,"Ġopp":1269,"30":1270,"Ġnumber":1271,"iness":1272,"St":1273,"lease":1274,"Ġca":1275,"Ġmust":1276,"Ġdirect":1277,"Ġgl":1278,"Ġ<":1279,"Ġopen":1280,"Ġpost":1281,"Ġcome":1282,"Ġseem":1283,"ording":1284,"Ġweek":1285,"ately":1286,"ital":1287,"Ġel":1288,"Ġfar":1290,"Ġtra":1291,"inal":1292,"Ġpri":1293,"ĠUS":1294,"Ġplace":1295,"Ġform":1296,"Ġtold":1297,"\":":1298,"ains":1299,"ature":1300,"ĠTrump":1301,"Ġstand":1302,"Ġ#":1303,"ider":1304,"ĠFr":1305,"Ġnext":1306,"Ġsoc":1307,"Ġpur":1308,"Ġlet":1309,"Ġlittle":1310,"Ġhum":1311,"Ġi":1312,"ron":1313,"15":1314,"Ġ15":1315,"Ġcommun":1316,"Ġmark":1317,"ĠThere":1318,"Ġwr":1319,"ĠThat":1320,"Ġinformation":1321,"ways":1322,"Ġbus":1323,"app":1324,"Ġinvest":1325,"me":1326,"Ġhard":1327,"ained":1328,"ead":1329,"Ġimport":1330,"Ġappro":1331,"Ġtest":1332,"Ġtri":1333,"Ġrest":1334,"osed":1335,"Ġfull":1336,"Ġcare":1337,"ĠSp":1338,"Ġcase":1339,"ON":1340,"Ġsk":1341,"Ġless":1342,"Ġ+":1343,"ĠPl":1345,"ably":1346,"uck":1347,"ished":1348,"chn":1349,"be":1350,"Ġlist":1351,"ator":1352,"Ġtop":1353,"ĠBe":1355,"ruct":1356,"Ġdem":1357,"ration":1358,"ling":1359,"gy":1360,"reen":1361,"ger":1362,"Ġhome":1363,"Ġleft":1364,"Ġbetter":1365,"Ġdata":1366,"Ġ11":1367,"Ġattack":1368,"line":1370,"ards":1371,"ral":1373,"ĠHow":1374,"ĠShe":1375,"arge":1376,"Ġ--":1377,"://":1378,"Ġbro":1379,"ĠPh":1380,"ats":1381,"Ġbuild":1382,"ww":1383,"ided":1384,"aim":1385,"ases":1386,"ency":1387,"Ġmain":1388,"ined":1389,"Ġincluding":1390,"Ġ{":1391,"Ġgot":1392,"Ġinterest":1393,"Ġkeep":1394,"ĠX":1395,"aining":1397,"Ġclass":1398,"âĢ¦":1399,"ĠNo":1400,"Ġvar":1401,"Ġsmall":1402,"ample":1403,"AT":1404,"Ġide":1405,"ĠSo":1406,"Ġpolit":1408,"Ġmov":1409,"Ġplan":1410,"Ġpercent":1411,"iving":1412,"Ġcamp":1413,"Ġpay":1414,"14":1415,"sc":1416,"ised":1417,"Ġunt":1418,"oney":1419,"ploy":1420,"====":1421,"Ġdidn":1422,"ĠInd":1423,"els":1424,"ertain":1425,"Ġpos":1426,"____":1427,"iver":1428,"Ġprocess":1429,"Ġprogram":1430,"ified":1431,"ĠRep":1432,"16":1433,"uro":1434,"ology":1435,"atter":1436,"ina":1437,"Ġname":1438,"ĠAll":1439,"Ġfour":1440,"Ġreturn":1441,"vious":1442,"bs":1443,"Ġcalled":1444,"Ġmove":1445,"ĠSc":1446,"ird":1447,"Ġgroup":1448,"Ġbre":1449,"Ġmen":1450,"Ġcap":1451,"ten":1452,"ee":1453,"Ġdri":1454,"leg":1455,"here":1456,"Ġpat":1458,"Ġcurrent":1459,"ides":1460,"Ġpop":1461,"to":1462,"ention":1463,"Ġalways":1464,"Ġmil":1465,"Ġwomen":1466,"Ġ16":1467,"Ġold":1468,"iven":1469,"ĠOr":1471,"ror":1472,"ently":1473,"Ġnear":1474,"ĠEx":1475,"ream":1476,"sh":1477,"Ġ14":1478,"Ġfree":1479,"ission":1480,"stand":1481,"ĠCon":1482,"ality":1483,"used":1484,"13":1485,"Ġdesign":1486,"Ġchange":1487,"Ġchang":1488,"Ġbo":1489,"Ġvis":1490,"ember":1491,"Ġbook":1492,"ready":1493,"Ġkill":1494,"25":1495,"pped":1496,"Ġaway":1497,"Ġable":1498,"Ġcountry":1499,"Ġconst":1500,"arn":1501,"Ġorder":1502,"AR":1503,"ior":1504,"ium":1505,"orth":1506,"18":1507,"Ġsw":1509,"Ġmillion":1510,"Ġ13":1511,"atic":1512,"ted":1513,"ĠGo":1514,"Ġoper":1515,"eng":1516,"Ġthing":1517,"ĠComm":1520,"Ġwhy":1521,"ured":1522,"ural":1523,"Ġschool":1524,"by":1525,"ĠMar":1526,"Ġaff":1527,"Ġdays":1528,"Ġann":1529,"ush":1530,"ane":1531,"If":1532,"eg":1533,"Ġprof":1534,"Ġhealth":1535,"outh":1536,"But":1537,"ional":1538,".,":1539,"Ġsol":1540,"Ġalready":1541,"Ġ30":1542,"He":1544,"Ġfriend":1545,"ES":1546,"ians":1547,"icle":1548,"'d":1549,"ĠOn":1550,"Ġleast":1551,"Ġprom":1552,"Ġdr":1553,"Ġhist":1554,"ither":1555,"Ġest":1556,"iqu":1557,"17":1558,"son":1559,"Ġtell":1560,"Ġtalk":1561,"ohn":1562,"oint":1563,"lection":1564,"AN":1565,"Ġuntil":1566,"augh":1567,"Ġlater":1568,"Ġve":1569,"Ġview":1570,"ending":1571,"ived":1572,"Ġword":1573,"ware":1574,"Ġcost":1575,"Ġenough":1576,"Ġgive":1577,"ĠUnited":1578,"Ġtechn":1579,"OR":1581,"Ġpar":1582,"ĠDr":1583,"Ġ2016":1584,"rist":1585,"ering":1586,"ĠÂ":1587,"Ġlarge":1588,"side":1589,"acy":1590,"Ġwin":1592,"Ġimportant":1593,"Ġ199":1594,"Ġdoesn":1595,"Ġ17":1596,"Ġbusiness":1597,"Ġclear":1598,"\",":1600,"ury":1601,"Ġequ":1602,"aster":1603,"alf":1604,"ĠAmerican":1605,"nect":1606,"Ġexpect":1607,"iversity":1608,"Ġocc":1609,"ĠFl":1610,"Ġkind":1611,"Ġmean":1612,"Ġpast":1613,"Ġdev":1614,"Ġbas":1615,"let":1616,"raft":1617,"Ġorgan":1618,"Ġdel":1619,"Ġperform":1620,"Ġstory":1621,"Ġseason":1622,"ĠCol":1623,"Ġclaim":1624,"Ġcame":1625,"Ġwithin":1626,"Ġline":1627,"Ġproject":1628,"ĠAt":1629,"Ġcontrol":1630,"ended":1631,"ĠSy":1632,"Ġair":1633,"ization":1634,"Ġ*":1635,"ley":1636,"Ġmoney":1637,"idd":1638,"You":1639,"for":1640,"Ġfamily":1641,"Ġmaking":1642,"Ġbit":1643,"Ġpolice":1644,"Ġhappen":1645,"Ġvers":1646,"ony":1647,"uff":1648,"ĠWhen":1649,"Ġsit":1650,"ideo":1651,"lf":1652,"ison":1653,"Ġsure":1654,"gin":1655,"Ġappear":1656,"Ġlight":1657,"Ġes":1658,"of":1659,"Ġwater":1660,"Ġtimes":1661,"not":1662,"Ġgrow":1663,"Ġcompany":1664,"ĠTe":1665,"ows":1666,"Ġmar":1667,"iol":1669,"arm":1670,"br":1671,"Ġexample":1672,"Ġconc":1673,"Ġfore":1674,"ĠTo":1675,"pro":1676,"EN":1677,"ries":1678,"Ġ25":1679,"ĠCan":1680,"ney":1681,"Ġactually":1682,"Ġever":1683,"urity":1684,"aken":1685,"aps":1686,"Ġtax":1687,"Ġmajor":1688,"ama":1689,"Ġoften":1690,"eral":1691,"Ġhuman":1692,"Ġjob":1693,"ister":1694,"Ġavailable":1695,"ocr":1696,"enn":1697,"aid":1698,"ivid":1699,"Ġrecord":1700,"?\"":1701,"Ġsing":1702,"ĠAm":1703,"idence":1704,"Ġnews":1705,"ster":1706,"Ġfollowing":1708,"ĠBr":1709,"ising":1710,"Ġhour":1711,"most":1712,"Ġsex":1714,"Ġbecome":1716,"ĠEd":1717,"Ġtook":1718,"Ġhaving":1719,"Ġproduct":1720,"ault":1721,"As":1722,"aring":1723,"Ġmeans":1724,"Ġhop":1725,"une":1726,"Ġcho":1727,"Ġcertain":1728,"Ġnon":1729,"Ġdeal":1730,"24":1731,"lement":1732,"oci":1733,"ene":1734,"Ġside":1735,"ĠPr":1736,"ĠMay":1737,"Ġreason":1738,"ued":1739,"ched":1740,"ulation":1741,"Ġelect":1742,"Ġofficial":1743,"Ġpossible":1744,"Ġhold":1745,"ands":1746,"ots":1747,"Ġcity":1748,"ories":1749,"Ġsever":1750,"Ġchildren":1751,"Ġonce":1752,"Ġactiv":1753,"ler":1754,"Ġnight":1755,"itions":1756,"ĠJohn":1757,"ape":1758,"play":1759,"Ġdone":1760,"Ġlim":1761,"Ġworking":1762,"ĠPres":1763,"orld":1764,"eb":1765,"ĠCo":1766,"Ġbody":1767,"ails":1768,"utes":1769,"ĠMr":1770,"Ġwhether":1771,"Ġauthor":1772,"rop":1773,"Ġproper":1774,"Ġseen":1775,");":1776,"Ġfac":1777,"ĠSu":1778,"Ġcond":1779,"iting":1780,"Ġcourse":1781,"Ġ}":1782,"----------------":1783,"Ġevent":1785,"Ġeng":1786,"Ġpot":1787,"Ġintern":1788,"iam":1789,"Ġshort":1790,"empt":1791,"ãĤ":1792,"ĠGod":1793,"ilar":1794,"80":1795,"IS":1797,"ourn":1798,"ability":1799,"itive":1800,"Ġdam":1801,"Ġ100":1802,"Ġpress":1803,"Ġdoing":1804,"Ġprotect":1805,"ring":1806,"Ġthought":1807,"Ġquestion":1808,"rew":1809,"ĠWar":1810,"Ġseveral":1811,"ĠState":1812,"Ġgiven":1813,"Ġfund":1814,"ĠTw":1815,"Ġwent":1816,"ances":1817,"work":1818,"por":1819,"my":1820,"40":1821,"Ġarg":1822,"artment":1823,"Ġmeet":1826,"22":1828,"ĠStates":1829,"Ġgames":1830,"raw":1831,"Ġunderstand":1833,"urs":1834,"ĠOb":1835,"lish":1836,"sy":1837,"Ġmakes":1838,"Ġwon":1839,"agon":1840,"Ġlove":1842,"ential":1843,"Ġcomplete":1844,"par":1845,"ĠIm":1846,"AL":1847,"Ġaccount":1848,"Âł":1849,"ored":1850,"vert":1851,"Ġ2015":1853,"Ġothers":1854,"ĠMin":1855,"iber":1856,"There":1858,"itional":1859,"dd":1860,"Ġprob":1861,"Ġyoung":1862,"Ġalong":1863,"Ġaccording":1864,"Ġyet":1865,"Ġmembers":1866,"ĠWhat":1867,"oid":1868,"ĠMan":1869,"And":1870,"Ġamong":1871,"ai":1872,"Ġemploy":1873,"ĠRes":1874,"Ġ>":1875,"Ġlow":1877,"af":1878,"ĠCar":1879,"ĠOne":1881,"ĠSec":1882,"ination":1883,"Ġlikely":1884,"Ġant":1885,"aged":1886,"ĠRuss":1887,"Ġben":1888,"For":1890,"back":1891,"ĠNot":1892,"Ġpresident":1893,"ball":1894,"Ġaccess":1895,"ĠDem":1897,"ĠEuro":1898,"60":1899,"Ġknown":1900,"irl":1901,"ĠGr":1902,"Ġearly":1903,"use":1904,"iety":1905,"âĢĵ":1906,"Ġfight":1907,"Ġsent":1908,"Ġtoday":1909,"Ġmarket":1910,"\".":1911,"Ġbased":1912,"Ġstrong":1913,"Ġdeb":1915,"mber":1916,"Ġproblem":1917,"Ġdeath":1918,"Ġsocial":1919,"imate":1920,"AS":1921,"ortun":1922,"Ġcampaign":1923,"ery":1924,"Ch":1925,"ially":1927,"Ġmus":1928,"wh":1929,"pos":1930,"Ġer":1931,"Ġsaf":1932,"Ġmonths":1933,"iron":1934,"Ġfive":1936,"Ġstre":1937,"Ġplayers":1938,"inc":1939,"ald":1940,"year":1941,"aun":1942,"Ġsuccess":1943,"Ġpresent":1944,"erence":1945,"Ġ2014":1946,"Ġparticular":1948,"Ġtry":1949,"Ġsuggest":1950,"ĠChrist":1951,"ones":1952,"Ġpriv":1953,"23":1954,"Ġcrit":1955,"Ġland":1956,"Ġlocal":1957,"ify":1958,"29":1959,"Ġaut":1960,"ED":1961,"ĠGu":1962,"Ġmult":1963,"Ġpolitical":1964,"Ġasked":1965,"Ġformer":1966,"itter":1967,"ript":1968,"Ġclose":1969,"Ġpract":1970,"ĠYork":1971,"Ġgetting":1972,"Ġacross":1973,"Ġcomb":1974,"Ġbelieve":1975,"Ġz":1976,"Ġtogether":1978,"ĠCent":1979,"irc":1980,"Ġindividual":1981,"ĠMc":1982,"27":1983,"isk":1984,"ĠEng":1985,"Ġface":1986,"Ġ24":1987,"Ġvalue":1988,"Ġarea":1989,"ev":1990,"Ġwrit":1991,"ĠPresident":1992,"Ġvot":1993,"Ġkey":1994,"Ġmom":1995,"put":1996,"Ġanything":1997,"Ġexperience":1998,"attle":1999,"Ġmind":2000,"aff":2001,"omm":2002,"Ġfuture":2003,"ged":2004,"Ġcut":2005,"Ġtot":2006,"itch":2007,"Ġvideo":2008,"Ġnet":2010,"ĠMy":2011,"rict":2012,"ien":2013,".)":2014,"though":2016,"wards":2017,"Ġconnect":2018,"ĠMed":2019,"ensive":2021,"mb":2022,"ober":2023,"ators":2024,"An":2025,"Ġ50":2026,"Ġredu":2027,"Ġabove":2029,"Ġfre":2030,"ĠEurope":2031,"sw":2032,"Ġamount":2033,"ĠApp":2034,"Ġeither":2035,"Ġmilit":2036,"Ġfail":2038,"ĠEn":2039,"ales":2040,"Ġspecial":2041,"Ġblack":2042,"IT":2043,"cher":2044,"Ġlooking":2045,"Ġfire":2046,"yn":2047,"Ġalmost":2048,"oon":2049,"Ġstudy":2050,"Ġmiss":2051,"ches":2052,"rown":2053,"Ġtre":2054,"Ġcommunity":2055,"Ġmedia":2056,"Ġfood":2057,"Ġcomes":2058,"ĠUniversity":2059,"Ġsingle":2060,"What":2061,"Ġhalf":2063,"ague":2064,"hod":2065,"ĠRepublic":2066,"Ġstarted":2067,"Ġquick":2068,"oto":2069,"book":2070,"Ġissue":2071,"itor":2072,"Ġelse":2073,"Ġconsider":2074,"26":2075,"rodu":2076,"Ġtaken":2077,"28":2078,"99":2079,"ĠWith":2080,"Ġtrue":2081,"Ġwa":2082,"Ġago":2084,"Ġmess":2085,"ief":2086,"Ġadded":2087,"oke":2088,"Ġbad":2089,"Ġfav":2090,"33":2091,"Ġsimilar":2092,"ask":2093,"ĠDon":2094,"Ġcharacter":2095,"orts":2096,"ĠHouse":2097,"Ġreported":2098,"Ġtype":2099,"val":2100,"iod":2101,"ĠHowever":2102,"Ġentire":2104,"pping":2105,"Ġhistory":2106,"Ġlive":2107,"ffic":2108,"........":2109,"Ġtrying":2111,"Ġdiscuss":2112,"ĠHar":2113,"aces":2114,"Ġself":2116,"osp":2117,"rest":2118,"Ġroom":2119,"elt":2120,"Ġfall":2121,"olution":2122,"Ġet":2123,"Ġx":2124,"Ġisn":2125,"Ġidea":2126,"bo":2127,"Ġsound":2128,"ĠDep":2129,"Ġsomeone":2130,"cially":2131,"ully":2132,"Ġobject":2134,"ift":2135,"aper":2136,"Ġplayer":2137,"Ġrather":2138,"Ġservice":2139,"ashing":2140,"ĠDo":2141,"ĠPart":2142,"rug":2143,"mon":2144,"ply":2145,"Ġmor":2146,"Ġnothing":2147,"Ġprovide":2148,"IC":2149,"ung":2150,"Ġparty":2151,"Ġexist":2152,"Ġmag":2153,"70":2154,"Ġhouse":2156,"Ġbehind":2157,"Ġhowever":2158,"ĠWorld":2159,"Ġsum":2160,"Ġ;":2162,"Ġfunction":2163,"gr":2164,"ĠPol":2165,"Ġfront":2166,"200":2167,"Ġseries":2168,"Ġtem":2169,"Ġtyp":2170,"ills":2171,"Ġopt":2172,"Ġpoints":2173,"Ġbelow":2174,"itted":2175,"Ġspecific":2176,"Ġ2017":2177,"umb":2178,"Ġra":2179,"Ġprevious":2180,"Ġpret":2181,"reme":2182,"Ġcustom":2183,"Ġcourt":2184,"ĠMe":2185,"Ġrepl":2186,"Ġwhole":2187,"go":2188,"cer":2189,"Ġtreat":2190,"ĠAct":2191,"Ġprobably":2192,"Ġlearn":2193,"ender":2194,"ĠAss":2195,"Ġversion":2196,"now":2197,"Ġcheck":2198,"ĠCal":2199,"RE":2200,"On":2202,"Ġbenef":2204,"Ġdoc":2205,"Ġdeter":2206,"Ġenc":2207,"Ġsuper":2208,"Ġaddress":2209,"Ġ2013":2211,"tr":2213,"Ġfield":2214,"When":2215,"uge":2217,"Ġfeat":2218,"Ġcommon":2219,"load":2220,"Ġbegin":2221,"Ġbring":2222,"Ġaction":2223,"erman":2224,"Ġwanted":2227,"ried":2228,"ming":2229,"Ġattempt":2230,"45":2231,"fer":2232,"Ġdue":2233,"ression":2234,"##":2235,"Ġshall":2236,"Ġsix":2237,"oo":2238,"Ġstep":2239,"Ġpub":2240,"Ġhimself":2241,"Ġ23":2242,"Ġcop":2243,"Ġdest":2244,"Ġstop":2245,"AC":2246,"ibility":2247,"Ġlab":2248,"icult":2249,"Ġhours":2250,"Ġcreate":2251,"Ġfurther":2252,"ĠAmerica":2253,"ĠCity":2254,"Ġdou":2255,"head":2256,"ST":2257,"ĠNorth":2258,"cing":2259,"Ġnational":2260,"ule":2261,"ĠInst":2262,"Ġtaking":2263,"ĠQu":2264,"irt":2265,"Ġred":2266,"Ġresearch":2267,"ĠGe":2269,"Ġbreak":2270,"ana":2271,"Ġspace":2272,"aterial":2273,"Ġrecent":2274,"ĠAb":2275,"Ġgeneral":2276,"Ġhit":2277,"Ġperiod":2278,"Ġeverything":2279,"ively":2280,"Ġsaying":2282,"anks":2283,"Ġcou":2284,"Ġcult":2285,"aced":2286,"eal":2287,"uation":2288,"lu":2290,"Ġinclude":2291,"Ġposition":2292,"ĠAfter":2293,"ĠEm":2295,"Ġimm":2296,"ĠRed":2297,"Ġpick":2298,"Ġcompl":2299,"Ġmatter":2300,"reg":2301,"ext":2302,"angu":2303,"isc":2304,"ole":2305,"aut":2306,"Ġcompet":2307,"eed":2308,"fect":2309,"Ġ21":2310,"ĠSen":2311,"ĠThese":2312,"asing":2313,"Ġcannot":2314,"Ġinit":2315,"Ġrelations":2316,"ached":2317,"Ġbar":2318,"Ġ40":2319,"ĠTH":2320,"Ġ2012":2321,"Ġvol":2322,"Ġground":2323,"Ġsecurity":2324,"ilt":2326,"35":2327,"Ġconcern":2328,"ĠJust":2329,"Ġwhite":2330,"Ġseems":2331,"ĠHer":2332,"ients":2334,"Ġfig":2336,"ights":2337,"Ġstri":2338,"like":2339,"ids":2340,"Ġwatch":2342,"Ġâ":2343,"Ġwind":2344,"ĠCont":2345,"Ġitself":2346,"Ġmass":2347,"Al":2348,"yle":2349,"ique":2350,"ĠNational":2351,"Ġabs":2352,"Ġpack":2353,"Ġoutside":2354,"Ġanim":2355,"Ġpain":2356,"eter":2357,"duct":2359,"ogn":2360,"Ġ]":2361,"ĠSept":2362,"sec":2363,"off":2364,"ĠJan":2365,"Ġfoot":2366,"ades":2367,"Ġthird":2368,"Ġmot":2369,"Ġevidence":2370,"inton":2371,"Ġthreat":2372,"apt":2373,"ples":2374,"cle":2375,"Ġlo":2376,"Ġdecl":2377,"Ġitem":2378,"medi":2379,"Ġrepresent":2380,"omb":2381,"amer":2382,"Ġsignificant":2383,"ograph":2384,"su":2385,"Ġcal":2386,"ires":2387,"0000":2388,"ID":2389,"AM":2390,"Ġsimply":2391,"Ġlonger":2392,"Ġfile":2393,"OT":2394,"che":2395,"So":2396,"ateg":2397,"org":2398,"ĠHis":2399,"Ġdom":2401,"Ġupon":2402,"ili":2403,"\":\"":2404,"Ġthemselves":2405,"Ġcoming":2406,"Ġquite":2407,"Ġdifficult":2408,"ĠBar":2409,"rel":2411,"ends":2412,"cial":2413,"64":2414,"Ġwoman":2415,"rap":2416,"yr":2417,"Ġnecess":2418,"ips":2419,"Ġtext":2420,"Ġrequire":2421,"Ġmilitary":2422,"Ġreview":2423,"75":2425,"Ġsubject":2426,"Ġinstead":2427,"Ġissues":2428,"Ġgen":2429,"\",\"":2430,"Ġminutes":2431,"ray":2433,"amed":2434,"time":2435,"bl":2436,"How":2437,"Ġcode":2438,"ĠSm":2439,"Ġhigher":2440,"ĠSte":2441,"ris":2442,"Ġpage":2443,"Ġstudents":2444,"ĠIntern":2445,"Ġmethod":2446,"ĠAug":2447,"ĠPer":2448,"ĠAg":2449,"Ġpolicy":2450,"ĠSw":2451,"Ġexec":2452,"Ġaccept":2453,"ume":2454,"ribut":2455,"Ġwords":2456,"Ġfinal":2457,"Ġchanges":2458,"Ġfriends":2460,"Ġrespect":2461,"Ġep":2462,"Ġcompan":2463,"Ġdamage":2465,"****":2466,"ogle":2467,"Ġneg":2469,"ental":2470,"Ġap":2471,"Ġtotal":2472,"ival":2473,"!\"":2474,"lim":2475,"Ġneeds":2476,"Ġdevelopment":2478,"Ġage":2479,"21":2481,"Ġresults":2482,"ĠAf":2483,"Sh":2484,"Ġgun":2485,"ĠObama":2486,"roll":2487,"Ġ@":2488,"Ġrights":2489,"ĠBrit":2490,"Ġrunning":2491,"Ġwasn":2492,"Ġport":2493,"Ġrate":2494,"Ġpretty":2495,"Ġtarget":2496,"Ġsaw":2497,"Ġworks":2499,"alt":2501,"over":2502,"www":2503,"That":2504,"lier":2505,"Ġeveryone":2506,"ude":2507,"Ġpie":2508,"iddle":2509,"rael":2510,"Ġrad":2511,"Ġblock":2512,"Ġwalk":2513,"To":2514,"ãģ":2515,"nes":2516,"ĠAust":2517,"aul":2518,"rote":2519,"ĠSouth":2520,"ession":2521,"oph":2522,"Ġshows":2523,"Ġsite":2524,"Ġjo":2525,"Ġrisk":2526,"lt":2528,"iding":2530,"ĠSpe":2531,"irm":2533,"Ġ22":2534,"itting":2535,"str":2536,"Ġhy":2537,"LE":2538,"key":2539,"Ġbegan":2540,"atur":2541,"lam":2543,"ĠDav":2544,"bit":2545,"Ġsize":2546,"ĠPar":2547,"38":2548,"face":2550,"Ġdecision":2551,"Ġjud":2553,"rect":2554,"Ġcontinue":2555,"ĠOct":2556,"overed":2557,"ĠInt":2558,"========":2559,"Ġparent":2560,"ĠWill":2561,"Ġeasy":2562,"Ġdrug":2563,"anger":2564,"Ġsense":2565,"Ġdi":2566,"iday":2567,"Ġenergy":2568,"istic":2569,"arter":2571,"eks":2573,"ĠEl":2574,"urch":2575,"Ġgirl":2576,"oe":2577,"Ġ28":2579,"ĠChe":2580,"Ġrequest":2581,"Ġsoon":2582,"Ġhost":2583,"ky":2584,"Ġstates":2585,"omes":2586,"Ġmaterial":2587,"lex":2588,"Ġmoment":2589,"onse":2591,"Ġespecially":2592,"Ġnorm":2593,"Ġservices":2594,"pite":2595,"ran":2596,"Ġrole":2597,"44":2598,"):":2599,"Ġcred":2600,"Cl":2601,"________":2602,"Ġmat":2603,"Ġlog":2604,"ĠClinton":2605,"OU":2606,"Ġoffice":2607,"Ġ26":2608,"Ġtrack":2610,"ma":2611,"Ġheart":2612,"Ġball":2613,"Ġpersonal":2614,"Ġbuilding":2615,"na":2616,"set":2617,"body":2618,"ĠBlack":2619,"Ġincrease":2620,"itten":2621,"Ġneeded":2622,"36":2623,"32":2624,"=\"":2625,"Ġlost":2626,"Ġbecame":2627,"Ġgroups":2628,"ĠMus":2629,"Ġwrote":2630,"ĠPe":2631,"Ġprop":2632,"joy":2633,"Ã©":2634,"ĠWhite":2635,"Ġdead":2636,".'":2637,"Ġhttp":2638,"OS":2640,"Ġinside":2641,"Ġwrong":2642,"Ġstatement":2643,"Ġ...":2644,"yl":2645,"Ġfilm":2646,"Ġmusic":2647,"Ġshare":2648,"ification":2649,"Ġrelease":2650,"Ġforward":2651,"Ġstay":2652,"itte":2654,"ser":2655,"Ġoriginal":2656,"Ġcard":2657,"Ġcand":2658,"Ġdiv":2659,"Ġfavor":2661,"OM":2662,"Ġcases":2663,"uses":2664,"Ġsection":2665,"Ġleave":2666,"ging":2667,"oved":2668,"ĠWashington":2669,"39":2670,"ĠGl":2671,"Ġrequired":2672,"action":2673,"apan":2674,"oor":2675,"iter":2676,"ĠKing":2677,"Ġcountries":2678,"ĠGerman":2679,"lling":2680,"Ġ27":2681,"34":2682,"Ġquestions":2683,"Ġprim":2684,"Ġcell":2685,"Ġshoot":2686,"Ġanyone":2687,"ĠWest":2688,"Ġaffect":2689,"epend":2690,"Ġonline":2691,"ĠIsrael":2692,"ĠSeptember":2693,"Ġability":2694,"Ġcontent":2695,"ises":2696,"Ġforce":2700,"cast":2701,"Ġsold":2702,"aving":2703,"fl":2704,"Ġsoft":2705,"Ġcompanies":2706,"ceed":2707,"Ġarticle":2708,"Ġaud":2709,"Ġrev":2710,"Ġeduc":2711,"Ġplaying":2712,"05":2713,"Ġheld":2714,"ctor":2715,"Ġreleased":2716,"Ġfederal":2717,"37":2718,"Ġinterview":2720,"Ġinstall":2721,"Ġreceived":2722,"Ġsource":2723,"uk":2724,"Ph":2725,"Ġserious":2726,"Ġcreated":2727,"Ġcause":2728,"uel":2731,"ĠDepartment":2732,"ctions":2733,"ĠCour":2734,"ĠNow":2735,"ze":2736,"ites":2737,"itution":2738,"Ġlate":2739,"Ġspeak":2740,"ners":2741,"Ġlegal":2742,"ari":2743,"ĠCor":2744,"Ġweeks":2745,"Ġmodel":2746,"Ġpred":2747,"Ġexact":2748,"BC":2749,"ĠBy":2750,"ING":2751,"osing":2752,"Ġtakes":2753,"Ġregard":2754,"Ġopportun":2755,"Ġprice":2756,"Ġ198":2757,"ĠApr":2758,"fully":2759,"Ġord":2760,"Ġproblems":2761,"ruction":2762,"ham":2763,"ĠCount":2764,"Ġleaders":2766,"ET":2767,"lev":2768,"Ġdeep":2769,"ological":2770,"ese":2771,"haps":2772,"ĠSome":2773,"Ġcontract":2775,"Ġrelationship":2776,"sp":2777,"oud":2778,"Ġbase":2779,"48":2780,"mit":2781,"Ad":2782,"Ġconsum":2784,"Ġpotential":2785,"rem":2787,"eth":2788,"ressed":2790,"66":2791,"Ġlink":2792,"Ġlower":2793,"ayer":2794,"ĠJune":2795,"Ġfem":2796,"unt":2797,"erc":2798,"urd":2799,"Ġcontact":2800,"Ġill":2801,"Ġmother":2802,"htt":2804,"ĠMarch":2805,"ĠBro":2806,"ĠChina":2807,"Ġ29":2808,"Ġsqu":2809,"Ġprovided":2810,"Ġaverage":2811,"asons":2812,"Ġ2011":2813,"Ġexam":2814,"lin":2815,"55":2816,"ned":2817,"Ġperfect":2818,"ux":2821,"Ġbuy":2822,"Ġshot":2823,"Ġcollect":2824,"Ġphot":2825,"Ġplayed":2826,"Ġofficials":2828,"Ġsimple":2829,"avy":2830,"Ġindustry":2831,"Ġhands":2832,"ground":2833,"Ġpull":2834,"Ġround":2835,"Ġuser":2836,"Ġrange":2837,"uary":2838,"Ġprivate":2839,"ops":2840,"ees":2841,"Ġways":2842,"ĠMich":2843,"Ġexcept":2845,"Ġterms":2846,"imum":2847,"pper":2848,"ION":2849,"ores":2850,"ĠDragon":2851,"oul":2852,"Ġden":2853,"Ġperformance":2854,"Ġbill":2855,"cil":2856,"47":2857,"Ġenvironment":2858,"Ġexc":2859,"add":2860,"Ġworth":2861,"Ġchance":2863,"Ġ2018":2864,"bor":2865,"Ġspeed":2866,"iction":2867,"ĠJapan":2869,"atory":2870,"reet":2871,"Ġmatch":2872,"ĠII":2873,"order":2875,"Ġste":2876,"Ġliving":2877,"Ġstruct":2878,"ino":2879,"hern":2881,"Ġresponse":2882,"Ġenjoy":2883,"Ġvia":2884,"AD":2885,"uments":2886,"Ġmember":2888,"ibr":2889,"izing":2890,"Ġtool":2891,"ĠMon":2892,"ĠWhile":2893,"hood":2894,"ĠAng":2895,"ĠDef":2896,"Ġoffer":2897,"Tr":2898,"aur":2899,"Ġturned":2900,"ĠJuly":2901,"down":2902,"anced":2903,"Ġrecently":2904,"ĠEar":2905,"Ġce":2906,"ĠStar":2907,"ĠCong":2908,"rought":2909,"Ġblood":2910,"Ġhope":2911,"Ġcomment":2912,"aint":2913,"Ġarri":2914,"iles":2915,"Ġparticip":2916,"ought":2917,"08":2919,"49":2920,"Ġgave":2921,"Ġselect":2922,"Ġkilled":2923,"Ġgoes":2925,"ij":2926,"Ġcoll":2927,"Ġimpact":2928,"atives":2929,"ĠSer":2930,"09":2931,"ĠAugust":2932,"Ġboy":2933,"de":2934,"ĠDes":2935,"Ġfelt":2936,"US":2937,"Ġexpected":2938,"Ġimage":2939,"ĠMark":2940,"EC":2943,"ĠMag":2944,"ened":2945,"hold":2946,"ĠPost":2947,"Ġprevent":2948,"No":2949,"Ġinvolved":2950,"Ġeyes":2951,"Ġquickly":2952,"At":2953,"unk":2954,"Ġur":2956,"Ġled":2957,"come":2958,"ey":2959,"Ġcandid":2960,"Ġearlier":2961,"Ġfocus":2962,"ety":2963,"Pro":2964,"ledge":2965,"ixed":2966,"illed":2967,"Ġpopular":2968,"AP":2969,"light":2971,"Ġvarious":2972,"inks":2973,"Ġlevels":2974,"Ġroad":2975,"ables":2977,"hel":2978,"ĠGener":2980,"ype":2981,"Ġheard":2982,"icles":2983,"Ġmis":2984,"Ġusers":2985,"ĠSan":2986,"Ġimprove":2987,"Ġfather":2988,"Ġsearch":2989,"They":2990,"vil":2991,"Ġprofess":2992,"Ġknew":2993,"Ġloss":2994,"Ġevents":2995,"65":2996,"Ġbillion":2997,"07":2998,"02":2999,"ĠNews":3000,"ĠAM":3001,"Ġcover":3002,"where":3003,"ension":3004,"Ġbott":3005,"Ġareas":3006,"ences":3007,"ope":3008,"ĠTwitter":3009,"ael":3010,"Ġgets":3011,"ĠGoogle":3012,"Ġsn":3013,"iant":3014,"Ġvote":3015,"Ġnearly":3016,"Ġincluded":3017,"Ġrecogn":3018,"zz":3019,"mm":3020,"aled":3021,"Ġhappened":3022,"04":3023,"Ġhot":3024,"Ġwhose":3025,"Ġcivil":3026,"Ġsuff":3027,"oes":3028,"Ġrespond":3031,"Ġhon":3032,"Ġfeatures":3033,"Ġeconomic":3034,"ĠApril":3035,"rim":3036,"Ġtechnology":3037,"Ġoption":3038,"aging":3039,"Re":3041,"Ġlat":3042,"chie":3043,"isl":3044,"uf":3046,"Ġtraining":3047,"Ġeffects":3048,"Ġfast":3049,"Ġ2010":3050,"Ġoccur":3051,"Ġwebsite":3052,"Ġemail":3053,"Ġsens":3054,"ech":3055,"Ġoil":3056,"Ġcurrently":3058,"ĠSch":3059,"ĠAdd":3060,"Ġgoal":3061,"Ġconv":3063,"100":3064,"emy":3065,"Ġdecided":3066,"Ġtravel":3067,"Ġmention":3068,"LL":3069,"03":3070,"Ġelection":3071,"Ġphone":3072,"Ġlooks":3073,"Ġsituation":3074,"Ġcy":3075,"Ġhor":3076,"bed":3077,"ĠCourt":3078,"aves":3080,"Ġquality":3081,"ĠComp":3082,"wise":3083,"Ġtable":3084,"Ġstaff":3085,"ĠWind":3086,"ett":3087,"Ġtried":3088,"idered":3089,"Ġaddition":3090,"Ġbox":3091,"Ġlack":3092,"arily":3093,"Ġwide":3094,"Ġmid":3095,"Ġboard":3096,"Ġanti":3098,"ha":3099,"Ġdig":3100,"ening":3101,"Ġdro":3102,"Con":3103,"68":3104,"Ġslow":3105,"based":3106,"Ġpath":3108,"Ex":3109,"aker":3110,"Ġworked":3111,"Ġpen":3112,"Ġengine":3113,"Ġlooked":3114,"ĠSuper":3115,"ĠServ":3116,"Ġvictim":3117,"Un":3118,"Ġproperty":3119,"ĠPM":3122,"Le":3123,"Ġcolor":3124,"ĠMore":3125,"Ġ60":3126,"Ġnetwork":3127,"Ġdate":3128,"cul":3129,"idge":3130,"Ġextra":3131,"31":3132,"Ġsle":3133,"67":3134,"Ġreports":3136,"just":3137,"ĠAustral":3138,"Ġcapital":3139,"Ġens":3140,"Ġcommand":3141,"Ġallowed":3142,"Ġprep":3143,"Ġcapt":3144,"hib":3145,"Ġnumbers":3146,"chan":3147,"Ġfair":3148,"mp":3149,"oms":3150,"Ġreach":3151,"With":3152,"tain":3153,"Ġbroad":3154,"Ġcouple":3155,"lying":3157,"ĠFeb":3158,"Ġscreen":3159,"Ġlives":3160,"Ġprior":3161,"ĠCongress":3162,"Ar":3163,"Ġapproach":3164,"Ġemer":3165,"aries":3166,"ĠDis":3167,"serv":3168,"ĠNe":3169,"Ġbuilt":3170,"cies":3171,"Ġrepe":3172,"Ġrules":3173,"force":3174,"ĠPal":3175,"Ġfinancial":3176,"Ġconsidered":3177,"ĠChar":3178,"ĠIS":3180,"Ġbrought":3181,"Ġbi":3182,"iers":3183,"ĠSim":3184,"OP":3185,"Ġproducts":3186,"Ġvisit":3187,"Ġdocument":3188,"Ġconduct":3189,"Ġcompletely":3190,"ining":3191,"ĠCalif":3192,"ibly":3193,"Ġwritten":3194,"ĠTV":3195,"ements":3196,"Ġdraw":3197,"One":3198,"Ġpublished":3199,"Ġsecret":3200,"rain":3201,"het":3202,"ĠFacebook":3203,"ĠUp":3205,"Ġsexual":3206,"ĠPat":3208,"Ġess":3209,"Ġstandard":3210,"Ġarm":3211,"ges":3212,"ection":3213,"Ġfell":3214,"Ġforeign":3215,"ani":3216,"ĠFriday":3217,"Ġregular":3218,"inary":3219,"Ġincreased":3220,"Ġusually":3221,"Ġdemon":3222,"Ġdark":3223,"Ġadditional":3224,"rol":3225,"ĠOf":3226,"Ġproduction":3227,"!!":3228,"undred":3229,"Ġinternational":3230,"idents":3231,"ĠFree":3232,"roup":3233,"Ġrace":3234,"Ġmach":3235,"Ġhuge":3236,"All":3237,"Ġtown":3240,"Ġattention":3241,"ĠOff":3242,"yond":3243,"ĠThen":3244,"field":3245,"Ġterror":3246,"raz":3247,"ĠBo":3248,"Ġmeeting":3249,"ĠPark":3250,"Ġarrest":3251,"Ġfear":3252,"Ġaw":3253,"ĠVal":3254,"oring":3255,"',":3256,"Ġextreme":3257,"arr":3258,"Ġworkers":3259,"After":3260,"Ġ31":3261,"net":3262,"ament":3263,"Ġdirectly":3264,"Ġpopulation":3265,"ube":3266,"ĠOctober":3267,"ĠIN":3268,"ĠJanuary":3269,"59":3270,"ĠDavid":3271,"Ġcross":3272,"ĠFirst":3274,"Ġmessage":3275,"irit":3276,"Ġnation":3277,"Ġpoll":3278,"isions":3279,"Ġanswer":3280,"ny":3281,"Ġcarry":3283,"ĠRussia":3284,"Ġhear":3285,"roy":3287,"Ġnatural":3288,"inally":3289,"Ġdog":3290,"mitted":3291,"Ġtrade":3292,"Ġmultiple":3294,"Ġfans":3296,"Ġsort":3297,"Ġglobal":3298,"ication":3299,"ĠWed":3300,"ara":3301,"Ġlanguage":3303,"vey":3304,"Ġtal":3305,"Ġnecessary":3306,"Ġdetails":3307,"Ġsen":3308,"ĠSund":3309,"ĠReg":3310,"ĠRec":3311,"06":3312,"Ġsil":3313,"ressive":3314,"Ġmedical":3315,"unch":3316,"Ġund":3318,"fort":3319,"ocks":3320,"ĠMonday":3321,"craft":3323,"77":3324,"urt":3325,"Ġver":3326,"ĠHill":3327,"Ġreceive":3328,"Ġmorning":3329,"Ġbank":3331,"Ġsat":3332,"irth":3333,"ĠHigh":3334,"Ġdevice":3335,"ĠTHE":3336,"ĠCenter":3337,"Ġsafe":3338,"Ġple":3339,"ĠCanada":3340,"Ġsystems":3341,"Ġassist":3342,"Ġbattle":3344,"ĠSoc":3345,"She":3347,"Ġpaper":3348,"Ġgrowth":3349,"Ġcast":3350,"Sc":3351,"Ġplans":3352,"lled":3353,"Ġparts":3354,"Ġwall":3355,"Ġmovement":3356,"Ġpractice":3357,"Ġdisplay":3359,"Ġsometimes":3360,"omp":3361,"ĠPaul":3362,"ĠYes":3363,"king":3364,"58":3365,"oly":3366,"Ġson":3367,"Ġavoid":3368,"okes":3369,"ĠJew":3370,"Ġtowards":3371,"asc":3372,"Ġ//":3373,"Ġtalking":3375,"Ġcorrect":3376,"Ġspent":3377,"icks":3378,"iable":3379,"eared":3380,"Ġterm":3381,"Ġwants":3382,"oming":3383,"Ġut":3384,"Ġdoub":3385,"Ġforces":3386,"Ġplease":3387,"69":3388,"ĠNovember":3389,"Ġones":3392,"Ġimmediately":3393,"ĠRussian":3394,"ĠMet":3395,"Ġparents":3397,"CH":3398,"ĠAmericans":3399,"aly":3400,"ĠMod":3401,"Ġshown":3402,"Ġconditions":3403,"Ġstuff":3404,"Ġreb":3405,"ĠYour":3406,"Ġincludes":3407,"ĠSam":3409,"mission":3411,"ĠEven":3412,"aught":3413,"Ġannounced":3414,"ĠRepublican":3415,"Ġdetermin":3416,"Ġdescribed":3417,"ĠCounty":3418,"()":3419,"Ġdoor":3420,"Ġchanged":3421,"ĠHere":3423,"Ġclean":3424,"Ġpan":3425,"ĠDecember":3426,"ĠEuropean":3427,"iring":3428,"Ġclub":3430,"ĠTuesday":3431,"Ġpaid":3432,"ĠNet":3433,"Ġattacks":3434,"Ġcharacters":3435,"Ġalone":3436,"Ġdirector":3437,"dom":3438,"Ġ35":3439,"Ġload":3440,"ĠCalifornia":3442,"Ġfinally":3443,"Ġrac":3444,"Ġcontr":3445,"Ġexactly":3446,"resh":3447,"pri":3448,"ĠIslam":3449,"Ġnature":3450,"Ġcareer":3451,"Ġlatest":3452,"Ġconvers":3453,"ĠSl":3454,"pose":3455,"cient":3456,"ĠInc":3457,"ivity":3458,"88":3459,"ĠAtt":3460,"ĠMor":3461,"Ġweight":3463,"ken":3464,"Ġnote":3465,"Ġteams":3466,"Ġ\\":3467,"airs":3468,"ĠGreen":3469,"Ġhundred":3470,"Ġconsist":3473,"icated":3474,"Ġregul":3475,"astic":3477,"Ġten":3478,"elligence":3480,"ously":3481,"ĠUK":3482,"BI":3483,"Ġcosts":3484,"ĠAP":3486,"Ġnormal":3487,"Ġhom":3488,"Ġobvious":3489,"Ġstar":3491,"Ġready":3492,"acher":3493,"Ġimplement":3494,"gest":3495,"Ġsong":3496,"ĠGet":3497,"ĠLab":3498,"Ġinteresting":3499,"using":3500,"Ġgiving":3501,"ĠSunday":3502,"Ġetc":3503,"Ġmiddle":3504,"Ġremember":3505,"right":3506,"osition":3507,"utions":3508,"Ġmax":3509,"46":3510,"Ġyourself":3511,"Ġdemand":3512,"Ġtreatment":3513,"Ġdanger":3514,"ĠCons":3515,"Ġguy":3516,"ĠBritish":3517,"Ġphysical":3518,"Ġrelated":3519,"Ġremain":3520,"Ġcouldn":3521,"Ġrefer":3522,"box":3524,"ENT":3525,"board":3526,"Ġinn":3527,"IG":3528,"ero":3529,"ĠStreet":3530,"rench":3532,"chers":3533,"Ġstra":3534,"OL":3535,"ager":3536,"ĠAN":3537,"Ġeasily":3538,"IA":3539,"enge":3540,"iny":3541,"Ġclos":3542,"ocked":3543,"Ġuses":3544,"ĠCoun":3545,"Im":3546,"uild":3547,"??":3548,"more":3549,"Ġang":3550,"Ġwrite":3551,"57":3553,"Ġleader":3554,"Ġreading":3555,"</":3556,"Ġautom":3557,"ests":3558,"43":3559,"Ġlegisl":3560,"ĠGold":3561,"Ġdesigned":3562,"ĠST":3563,"ĠLeg":3564,"ares":3565,"Ġbeaut":3566,"ĠTex":3567,"Ġappears":3568,"Ġstrugg":3569,"ĠRom":3570,"Ġ00":3571,"Ġchoice":3572,"Ġparticularly":3573,"ĠFrom":3574,"oper":3575,"ĠLondon":3576,"anned":3577,"Ġallows":3578,"obile":3579,"Ġdifference":3580,"âĢ¢":3581,"ĠView":3582,"ĠWednesday":3583,"Ġalthough":3584,"Ġrelative":3585,"Ġapplication":3586,"Ġaren":3588,"Ġmyself":3589,"Ġimag":3590,"Ġsociety":3592,"ĠEnglish":3594,"Ġpoor":3595,"ĠDay":3596,"Ġwriting":3597,"Ġseven":3598,"Ġstarting":3599,"Ġbud":3600,"Ġprint":3601,"ĠTrans":3602,"new":3605,"Ġgives":3607,"Ġcool":3608,"ae":3609,"iance":3610,"ĠGeneral":3611,"Ġthinking":3612,"Ġsave":3613,"Ġlimited":3614,"ĠParty":3615,"Ġmeaning":3616,"pen":3617,"owers":3618,"ĠJack":3619,"EM":3620,"Ġnice":3621,"rupt":3622,"Ġgas":3623,"Ġeight":3624,"Ġfeet":3625,"Ġeffort":3626,"icit":3628,"Bl":3629,"coin":3630,"Ġbrain":3632,"While":3633,"hest":3634,"ĠThursday":3635,"Ġwouldn":3636,"aughter":3637,"Ġtouch":3638,"lements":3639,"Ġstudies":3640,"Ġcenter":3641,"cont":3642,"orge":3643,"Ġcomputer":3644,"Ġinvestigation":3645,"Pl":3646,"orks":3647,"Ġ2008":3648,"Ġincreasing":3649,"Ġstore":3650,"Ġcomments":3651,"Ġbal":3652,"men":3653,"Ġdoll":3654,"Ġliber":3655,"Ġwife":3656,"Ġlaws":3657,"Ġmodern":3660,"ĠSk":3661,"Ġadministration":3662,"Ġopportunity":3663,"Ġsal":3664,"Ġpowerful":3665,"My":3666,"Ġclaims":3667,"ĠEarth":3668,"ords":3669,"Ġtitle":3670,"Ġesc":3671,"name":3672,"Not":3673,"omen":3674,"Ġbeyond":3675,"Ġsell":3677,"itute":3678,"earch":3679,"iment":3681,"42":3682,"ĠArt":3683,"Ġunf":3684,"Ġviolence":3685,"urg":3686,"ĠEast":3687,"Ġcompared":3688,"Ġoptions":3689,"Ġthroughout":3690,"Ġvs":3691,"igr":3692,".[":3693,"aches":3694,"78":3695,"Ġfiles":3696,"FL":3697,"EL":3698,"arian":3699,"ĠJames":3700,"ĠAir":3701,"anch":3702,"Ġdetail":3703,"Ġpiece":3704,"PS":3705,"Ġnamed":3706,"Ġeducation":3707,"Ġdrive":3708,"Ġitems":3709,"Ġstudent":3710,"iced":3711,"::":3712,"ico":3713,"Ġthrow":3714,"Ġscene":3715,"Ġcomplex":3716,"Ġ2009":3717,"Ġprec":3718,"ĠBre":3719,"79":3720,"Ġconcept":3721,"Ġstatus":3722,"aming":3723,"Ġdied":3724,"Ġknowledge":3725,"Ġbeginning":3726,"OD":3727,"Ġcertainly":3729,"Ġguys":3730,"Ġslight":3731,"inn":3732,"ounds":3733,"Ġfine":3734,"Ġfat":3735,"ications":3736,"Ġperhaps":3737,"ĠAnt":3738,"Ġincome":3739,"Ġhttps":3740,"Ġmajority":3741,"ports":3742,"ston":3743,"Ġgreater":3744,"Ġfeed":3745,"entially":3746,"Ġsafety":3747,"Ġunique":3748,"Ġgone":3750,"Ġshowed":3751,"Ġcounter":3753,"ius":3754,"ida":3755,"Ġleading":3756,"ipe":3757,"Ġsend":3758,"ĠDonald":3759,"erve":3760,"Ġdefense":3761,"inese":3762,"Ġyes":3763,"ĠFire":3764,"ĠMuslim":3765,"raq":3766,"Ġcontinued":3767,"osh":3768,"Ġprovides":3769,"Ġprison":3770,"ĠPre":3771,"Ġhappy":3772,"Ġeconomy":3773,"Ġtrust":3774,"ags":3775,"ĠGame":3776,"Ġweapons":3777,"uman":3778,"ĠCle":3779,"itation":3780,"Ġanalysis":3781,"ĠTimes":3782,"Ġscience":3783,"->":3784,"Ġfigure":3785,"enty":3787,"Ġsoftware":3788,"Ġult":3789,"Ġofficers":3790,"New":3791,"Is":3792,"Ġremains":3793,"ĠIndia":3794,"Ġpsych":3795,"rief":3796,"Ġcat":3797,"esc":3798,"Ġobserv":3799,"Ġstage":3800,"ĠDark":3801,"Ġenter":3802,"change":3803,"Ġpassed":3804,"Ġdespite":3805,"ĠOut":3806,"Ġmovie":3807,"rs":3808,"Ġvoice":3809,"mine":3810,"ĠPlay":3811,"Ġtoward":3812,"ĠTer":3813,"Ġregion":3814,"Ġvalues":3815,"orters":3816,"Ġmount":3817,"Ġofficer":3818,"ĠOther":3819,"ban":3820,"wood":3822,"room":3823,"IV":3824,"ĠSun":3825,"see":3826,"ĠOver":3827,"rog":3828,"90":3829,"Ġlay":3830,"ĠTur":3831,"awn":3832,"Ġpressure":3833,"ĠSub":3834,"Ġbooks":3835,"ĠSand":3837,"AA":3838,"ago":3839,"Ġreasons":3840,"ford":3841,"Ġactivity":3842,"UT":3843,"Now":3844,"ĠSenate":3845,"cell":3846,"night":3847,"Ġcalls":3848,"inter":3849,"Ġletter":3850,"ĠRob":3851,"ĠJe":3852,"Ġchoose":3853,"ĠLaw":3854,"Get":3855,"Be":3856,"Ġrob":3857,"Ġtypes":3858,"Ġplatform":3859,"Ġquarter":3860,"RA":3861,"ĠTime":3862,"Ġmaybe":3863,"ĠCr":3864,"95":3865,"pre":3866,"Ġmoving":3867,"Ġlif":3868,"Ġgold":3869,"Ġsom":3870,"Ġpatients":3871,"Ġtruth":3872,"ĠKe":3873,"urance":3874,"antly":3875,"mar":3876,"Ġcharge":3877,"ĠGreat":3878,"--------------------------------":3880,"Ġrock":3881,"roid":3882,"ancy":3883,"Ġcredit":3884,"aud":3885,"By":3886,"ĠEvery":3887,"Ġmoved":3888,"inger":3889,"ribution":3890,"Ġnames":3891,"Ġstraight":3892,"ĠHealth":3893,"ĠWell":3894,"Ġfeature":3895,"Ġrule":3896,"Ġsche":3897,"inated":3898,"ĠMichael":3899,"berg":3900,"41":3901,"iled":3902,"band":3903,"Ġclick":3904,"ĠAngel":3905,"onents":3906,"ÂŃ":3907,"ĠIraq":3908,"ĠSaturday":3909,"Ġaware":3910,"part":3911,"Ġpattern":3912,"OW":3913,"ĠLet":3914,"Ġgrad":3915,"igned":3916,"Ġassociated":3917,"Ġstyle":3918,"no":3919,"iation":3920,"aith":3921,"Ġstories":3923,"uration":3924,"Ġindividuals":3925,"ĠâĢ¦":3926,"miss":3927,"ishing":3929,"aby":3930,"Ġsummer":3931,"ĠBen":3932,"Ġ32":3933,"Ġarch":3934,"uty":3935,"ĠTexas":3936,"hol":3937,"Ġfully":3938,"Ġmill":3939,"Ġfollowed":3940,"ĠBill":3941,"ĠIndian":3942,"ĠSecret":3943,"ĠBel":3944,"ĠFebruary":3945,"Ġjobs":3946,"Ġseemed":3947,"ipped":3949,"Ġreality":3950,"Ġlines":3951,"Ġpark":3952,"Ġmeasure":3953,"ĠOur":3954,"IM":3955,"Ġbrother":3956,"Ġgrowing":3957,"Ġban":3958,"Ġcry":3960,"ĠSchool":3961,"ĠOF":3963,"ĠWindows":3964,"Ġrates":3965,"ĠOh":3966,"Ġpositive":3967,"Ġculture":3968,"istics":3969,"ica":3970,"Ġhar":3971,"ya":3972,"ipp":3974,"Ġmap":3975,"encies":3976,"ĠWilliam":3977,"II":3978,"akers":3979,"56":3980,"ĠMart":3981,"ĠRem":3982,"Ġaltern":3983,"itude":3984,"Ġcoach":3985,"rowd":3986,"Don":3987,"Ġkids":3988,"Ġjournal":3989,"Ġcorpor":3990,"Ġfalse":3991,"Ġweb":3992,"Ġsleep":3993,"Ġcontain":3994,"Ġsto":3995,"Ġbed":3996,"iverse":3997,"ĠRich":3998,"ĠChinese":3999,"Ġpun":4000,"Ġmeant":4001,"known":4002,"Ġnotice":4003,"Ġfavorite":4004,"aven":4005,"Ġcondition":4006,"Ġpurpose":4007,"))":4008,"Ġorganization":4009,"ĠAc":4013,"Ġcritic":4014,"unes":4015,"uclear":4016,"Ġmer":4017,"vention":4018,"Ġ80":4019,"Ġmist":4020,"ĠUs":4021,"ĠTor":4022,"http":4023,"olf":4024,"Ġlarger":4025,"Ġactions":4028,"ml":4029,"Ġkept":4030,"Ġaim":4031,",'":4032,"col":4033,"Ġbenefits":4034,"ifying":4035,"Ġactual":4036,"ĠInternational":4037,"Ġvehicle":4038,"Ġchief":4039,"Ġefforts":4040,"ĠLeague":4041,"ĠMost":4042,"Ġwait":4043,"Ġadult":4044,"Ġoverall":4045,"Ġspeech":4046,"Ġhighly":4047,"Ġfemale":4048,"Ġerror":4049,"Ġeffective":4050,"54":4051,"well":4053,"Ġfailed":4054,"Ġconserv":4055,"Ġprograms":4056,"Ġtrou":4057,"Ġahead":4058,"500":4059,"IP":4061,"ĠFound":4062,"pir":4063,"Ġ%":4064,"Ġcrime":4065,"ander":4066,"Ġlocation":4067,"ĠIran":4068,"Ġbehavior":4069,"azing":4070,"Ġrare":4071,"Ġemb":4072,"Ġcaused":4073,"Ġship":4074,"Ġactive":4075,"Ġgreen":4077,"Ġacqu":4078,"Ġreflect":4079,"venue":4080,"Ġfirm":4081,"Ġbirth":4082,"].":4083,"Ġclearly":4084,"Ġagency":4086,"riage":4087,"Ġmemory":4088,"98":4089,"SA":4090,"ĠSee":4091,"acing":4092,"CC":4093,"Ġbiggest":4094,"Ġrap":4095,"Ġbasic":4096,"Ġband":4097,"eat":4098,"Ġsuspect":4099,"ĠMac":4100,"Ġ90":4101,"mark":4102,"istan":4103,"Ġspread":4104,"ams":4105,"ki":4106,"asy":4107,"rav":4108,"Ġdemonstr":4110,"rated":4111,"Ġabsolute":4112,"Ġplaces":4113,"Ġimpl":4114,"Ġcards":4116,"Ġdestroy":4117,"vere":4119,"Ġappeared":4120,"yan":4121,"point":4122,"Ġbeg":4123,"Ġtemper":4124,"spe":4125,"anted":4126,"ears":4127,"ĠDirect":4128,"Ġlength":4129,"Ġblog":4130,"amb":4131,"Ġresources":4133,"acc":4134,"iful":4135,"Ġspot":4136,"Ġforced":4137,"Ġthousands":4138,"ĠMinister":4139,"Ġqual":4140,"ĠFrench":4141,"atically":4142,"Ġgenerally":4143,"Ġdrink":4144,"Ġthus":4145,"IL":4146,"odes":4147,"ĠRead":4149,"Ġwhom":4150,"Ġeye":4151,"Ġcollege":4152,"Ġ45":4153,"Ġensure":4155,"Ġapparent":4156,"iders":4157,"Ġreligious":4158,"Ġminor":4159,"olic":4160,"Ġtro":4161,"ĠWhy":4162,"ribute":4163,"met":4164,"Ġprimary":4165,"Ġdeveloped":4166,"Ġpeace":4167,"Ġskin":4168,"ste":4169,"ava":4170,"Ġblue":4171,"Ġfamilies":4172,"Ġir":4173,"Ġapply":4174,"Ġinform":4175,"ĠSmith":4176,"CT":4177,"ii":4178,"Ġlimit":4179,"Ġresist":4180,"................":4181,"umn":4182,"udd":4185,"ĠTom":4186,"Ġliter":4187,"que":4188,"bon":4189,"Ġhair":4190,"Ġeventually":4191,"Ġhelped":4193,"ĠApple":4196,"Ġfit":4197,"ĠSur":4198,"Ġprem":4199,"Ġsales":4200,"Ġseconds":4201,"Ġstrength":4202,"Ġfeeling":4203,"¿½":4204,"Ġtour":4205,"Ġknows":4206,"oom":4207,"ï¿½":4210,">>":4211,"Ġideas":4213,"Ġregist":4214,"soft":4215,"ĠDel":4216,"ĠPC":4217,"Ġlaunch":4219,"Ġbottom":4220,"TH":4221,"ĠPlease":4222,"vest":4223,"itz":4224,"ĠInter":4225,"Ġscript":4226,"Ġrat":4227,"Ġil":4229,"ĠJer":4230,"ĠAre":4231,"Ġwhatever":4232,"oken":4233,"cience":4234,"Ġmode":4235,"Ġagree":4236,"Ġsources":4237,"Ġinitial":4238,"Ġrestrict":4239,"Ġwonder":4240,"usion":4241,"####":4242,"ĠSil":4243,"ville":4244,"Ġburn":4245,"tw":4246,"asion":4247,"ĠÂ£":4248,"Ġnor":4249,"uing":4250,"Ġreached":4251,"Ġsun":4252,"igration":4254,"Ġcook":4255,"Ġmale":4257,"Ġclimate":4258,"Ġfix":4259,"Ġalleged":4260,"UR":4261,"alled":4262,"Ġimages":4263,"Cont":4264,"ota":4265,"Ġschools":4266,"ios":4267,"Ġdrop":4268,"Ġstream":4269,"ĠMo":4270,"Ġpreviously":4271,"aling":4272,"Ġpet":4273,"Ġdouble":4274,"Ġ(@":4275,"annel":4276,"Ġdefault":4277,"ties":4278,"Ġrank":4279,"ĠDec":4280,"ĠCouncil":4281,"Ġweapon":4282,"Ġstock":4283,"Ġanaly":4284,"ĠStr":4285,"Ġpicture":4286,"ĠPolice":4287,"ference":4288,"Ġcentury":4289,"Ġcitizens":4290,"Ġonto":4291,"Ġexpand":4292,"Ġhero":4293,"ĠSol":4294,"Ġwild":4295,"Ġupdate":4296,"Ġcustomers":4297,"ront":4298,"def":4299,"Ġlik":4300,"Ġcriminal":4301,"ĠChristian":4302,"SP":4303,"76":4304,"Ġleaving":4305,"Ġotherwise":4306,"ĠDist":4307,"Ġbasis":4308,"52":4309,"53":4310,"ĠBer":4312,"Ġrecommend":4313,"Ġfloor":4314,"Ġcrowd":4315,"oles":4316,"Ġ70":4317,"Ġcentral":4318,"ĠEv":4319,"Ġdream":4320,"Ġdownload":4321,"Ġwindow":4324,"Ġhappens":4325,"Ġunit":4326,"Ġtend":4327,"Ġspl":4328,"Ġbecomes":4329,"Ġfighting":4330,"Ġpredict":4331,"ĠPress":4332,"ĠPower":4333,"Ġheavy":4334,"aked":4335,"Ġfan":4336,"orter":4337,"ategy":4338,"BA":4339,"izes":4340,"Ġspend":4341,"Here":4342,"Ġ2007":4343,"Ġadop":4344,"ĠHam":4345,"Ġfootball":4346,"ĠPort":4347,"oday":4348,"51":4349,"Ġtransfer":4351,"ht":4352,"Ġ38":4353,"term":4354,"acity":4355,"Ġbur":4356,"],":4357,"ternal":4358,"rig":4359,"but":4360,"Ġtherefore":4361,"ĠBecause":4362,"rey":4364,"Ġmission":4365,"Some":4366,"Ġnoted":4367,"Ġassum":4368,"Ġdisease":4369,"Ġedit":4370,"Ġprogress":4371,"rd":4372,"ĠBrown":4373,"ocal":4374,"Ġadding":4375,"Ġraised":4376,"ĠAny":4377,"Ġtick":4378,"Ġseeing":4379,"ĠPeople":4380,"Ġagreement":4381,"Ġserver":4382,"Ġwat":4383,"Ġdebate":4384,"Ġsupposed":4385,"iling":4386,"Ġlargest":4387,"Ġsuccessful":4388,"ĠPri":4389,"ĠDemocratic":4390,"Ġjump":4391,"ĠSyria":4392,"Ġowners":4393,"Ġoffers":4394,"Ġshooting":4395,"sey":4397,"Ġhaven":4398,"verse":4399,"tered":4400,"ĠLight":4401,"imal":4402,"ĠBig":4403,"Ġdefend":4404,"Ġbeat":4405,"Ġrecords":4406,"%)":4407,"Ġemployees":4409,"Ġdevices":4410,"hem":4411,"ĠMex":4413,"Ġbenefit":4414,"ĠProf":4415,"Ġsurface":4417,"ĠAlso":4418,"Ġharm":4419,"ingly":4420,"wide":4421,"ĠAlex":4422,"Ġshut":4423,"ĠCur":4424,"Ġlose":4425,"pm":4426,"Ġchallenge":4427,"Ġstation":4429,"Ġintelligence":4430,"ĠFlor":4432,"Ġrequires":4433,"ĠMal":4434,"bum":4435,"Ġhospital":4436,"Ġspirit":4437,"Ġoffered":4438,"Ġproduce":4439,"ĠCommun":4440,"Ġcreating":4441,"Ġcris":4442,"spect":4443,"Ġended":4444,"Ġdaily":4445,"Ġvoters":4446,"lands":4447,"ias":4448,"ih":4449,"ona":4450,"Ġsmart":4451,"ĠOffice":4452,"ĠLord":4453,"rial":4454,"ĠInternet":4455,"Ġextremely":4457,"'.":4458,"Ġopinion":4459,"ĠMil":4460,"Ġgain":4461,"BS":4462,"ĠFin":4463,"yp":4464,"Ġuseful":4465,"Ġbudget":4466,"Ġcomfort":4467,"isf":4468,"Ġbackground":4469,"eline":4470,"Ġepisode":4471,"Ġenemy":4472,"Ġtrial":4473,"Ġestablish":4474,"date":4475,"ĠCap":4476,"Ġcontinues":4477,"Ġshowing":4478,"ĠUnion":4479,"with":4480,"Ġposted":4481,"ĠSystem":4482,"Ġeat":4483,"rian":4484,"Ġrise":4485,"ĠGermany":4486,"ils":4487,"Ġsigned":4488,"Ġvill":4489,"Ġgrand":4490,"mor":4491,"ĠEngland":4492,"Ġprojects":4493,"umber":4494,"Ġconference":4495,"za":4496,"Ġresponsible":4497,"ĠArab":4498,"Ġlearned":4499,"âĢĶâĢĶ":4500,"ipping":4501,"ĠGeorge":4502,"OC":4503,"Ġreturned":4504,"ĠAustralia":4505,"Ġbrief":4506,"Qu":4507,"Ġbrand":4508,"illing":4509,"abled":4510,"Ġhighest":4511,"Ġtrain":4512,"ĠCommission":4513,"while":4514,"Ġnom":4515,"ception":4516,"Ġmut":4517,"ĠBlue":4518,"Ġincident":4519,"vant":4520,"86":4521,"ĠID":4522,"Ġnuclear":4523,"74":4524,"ĠLike":4525,"ĠRE":4526,"ĠMicro":4527,"li":4528,"mail":4529,"Ġcharges":4530,"89":4531,"Ġadjust":4532,"ado":4533,"Ġearth":4534,"NA":4535,"Ġprices":4536,"PA":4537,"Ġdraft":4538,"Ġruns":4539,"Ġcandidate":4540,"enses":4541,"Ġmanagement":4542,"ĠPhil":4543,"ĠMiss":4544,"Ġteach":4545,"gram":4546,"Ġunderstanding":4547,"ait":4548,"Add":4550,"ĠEp":4551,"Ġseparate":4553,"Ġinstance":4554,"Ġeth":4555,"Ġunless":4556,"********":4557,"ĠFore":4558,"inate":4559,"Ġoperations":4560,"Sp":4561,"Ġfaith":4562,"gar":4563,"ĠChurch":4564,"ronic":4565,"Ġconfig":4566,"Ġactivities":4568,"Ġtraditional":4569,"Ġ36":4570,"Ġdirection":4571,"Ġmachine":4572,"Ġsurround":4573,"Ġpush":4574,"unction":4575,"ĠEU":4576,"Ġeasier":4577,"Ġargument":4578,"GB":4579,"Ġmicro":4580,"Ġspending":4581,"izations":4582,"Ġtheory":4583,"Ġcalling":4585,"ĠLast":4586,"Ġder":4587,"Ġinfluence":4588,"Ġcommit":4589,"Ġphoto":4590,"Ġunc":4591,"istry":4592,"gn":4593,"aste":4594,"acks":4595,"Ġdisp":4596,"ady":4597,"do":4598,"ĠGood":4599,"Ġ`":4600,"Ġwish":4601,"Ġrevealed":4602,"lig":4604,"Ġenforce":4605,"ĠCommittee":4606,"Ġchem":4607,"Ġmiles":4608,"Ġinterested":4609,"Ġsolution":4610,"icy":4611,"inct":4612,"Ġ->":4613,"ĠDet":4614,"Ġremoved":4615,"eah":4617,"Ġplant":4618,"ĠSince":4619,"Ġachieve":4620,"Ġadvantage":4621,"Ġslightly":4622,"bing":4623,"Ġplaced":4624,"under":4625,"2015":4626,"ĠMad":4627,"Ġtim":4628,"oses":4629,"Ġcru":4630,"ĠRock":4631,"Ġmostly":4632,"Ġnegative":4633,"Ġsetting":4634,"Ġproduced":4635,"Ġmur":4636,"Ġconnection":4637,"ĠMer":4638,"Ġdriver":4639,"Ġexecutive":4640,"Ġassault":4641,"Ġborn":4642,"ĠVer":4643,"Ġstructure":4645,"Ġreduce":4646,"Ġdecades":4647,"Ġded":4648,"uke":4649,"ĠMany":4650,"Ġleague":4652,"Se":4653,"Ġjoin":4654,"Ġdie":4656,"cks":4657,"actions":4658,"Ġassess":4659,"agn":4660,"Ġgoals":4661,"ours":4662,"IR":4663,"Ġsenior":4664,"iller":4665,"mod":4666,"ipment":4667,"ocol":4668,"uy":4669,"ĠQue":4670,"Ġparties":4671,"irgin":4672,"Ġlearning":4673,"itable":4674,"Ġstreet":4675,"Ġcamera":4676,"App":4677,"Ġskills":4678,"bre":4679,"cious":4680,"ĠFranc":4682,"Ġexisting":4683,"Ġwilling":4684,"lor":4685,"Ġid":4686,"ĠSpace":4687,"Ġcritical":4688,"ĠLa":4689,"Ġserve":4691,"Ġcold":4692,"Ġspecies":4693,"TS":4694,"Ġanimals":4695,"ĠBay":4696,"Ġolder":4697,"ĠUnder":4698,"estic":4699,"ĠTre":4700,"Ġteacher":4701,"Ġprefer":4702,"vis":4703,"Ġthread":4704,"ĠMatt":4705,"Ġmanager":4706,"ãĥ»":4707,"Ġprofessional":4708,"ĠVol":4709,"Ġnotes":4710,"These":4711,"ula":4712,"Ġfresh":4713,"ented":4714,"uzz":4715,"edy":4716,"ĠRel":4718,"Ġdoubt":4719,"EO":4720,"Ġopened":4721,"ĠBit":4722,"Advertisement":4723,"Ġguess":4724,"ĠUN":4725,"Ġsequ":4726,"Ġexplain":4727,"otten":4728,"Ġattract":4729,"aks":4730,"Ġstring":4731,"Ġcontext":4732,"ossible":4733,"ĠRepublicans":4734,"Ġsolid":4735,"Ġcities":4736,"Ġasking":4737,"Ġrandom":4738,"ups":4739,"uries":4740,"arant":4741,"gl":4743,"ĠFlorida":4744,"Ġdepend":4745,"ĠScott":4746,"Ġ33":4747,"ĠiT":4748,"icon":4749,"Ġmentioned":4750,"Ġ2000":4751,"Ġclaimed":4752,"Ġdefinitely":4753,"ulf":4754,"Ġcore":4755,"Ġopening":4756,"ĠConst":4757,"which":4758,"ĠTra":4759,"AG":4760,"72":4761,"Ġbelieved":4762,"ada":4763,"Ġ48":4764,"ĠSecurity":4765,"yright":4766,"ĠPet":4767,"ĠLou":4768,"Ġholding":4769,"================":4770,"Ġice":4771,"Ġbrow":4772,"Ġauthorities":4773,"host":4774,"word":4775,"Ġscore":4776,"ĠDiv":4777,"Ġcells":4778,"Ġtransl":4779,"Ġneighbor":4780,"Ġremove":4781,"uct":4782,"Ġdistrict":4783,"ĠAccording":4784,"Ġworse":4785,"Ġconcerns":4786,"Ġpresidential":4787,"Ġpolicies":4788,"ĠHall":4789,"73":4790,"AY":4792,"Ġ2006":4793,"ĠJud":4794,"Ġindependent":4795,"ĠJustice":4796,"iliar":4797,"print":4798,"ighter":4799,"Ġprotection":4800,"zen":4801,"Ġsudden":4802,"house":4803,"ĠJes":4804,"PR":4805,"ĠInf":4806,"Ġbul":4807,"Ġ_":4808,"ĠService":4809,"ĠPR":4810,"Ġstrategy":4811,"Ġgirls":4813,"Ġmissing":4814,"oyal":4815,"ĠTeam":4816,"ulated":4817,"Ġdat":4818,"Ġpolitics":4819,"abor":4820,"According":4821,"Ġspell":4822,"Ġgraph":4823,"TC":4825,"Ab":4826,"Ġlabor":4827,"isher":4828,"Ġkick":4829,"ĠiTunes":4830,"Ġsteps":4831,"Ġsmaller":4833,"En":4834,"bert":4835,"Ġroll":4836,"Ġresearchers":4837,"Ġclosed":4838,"Ġtransport":4839,"________________":4841,"ĠChicago":4842,"Ġaspect":4843,"Ġnone":4844,"Ġmarriage":4845,"96":4846,"Ġelements":4847,"ĠFre":4848,"ĠSal":4849,"FC":4851,"top":4852,"equ":4853,"Ġhearing":4854,"Ġsupported":4855,"Ġtesting":4856,"cohol":4857,"Ġmassive":4858,"Ġstick":4859,"Ġguard":4860,"isco":4861,"phone":4862,"From":4863,"However":4864,"Ġborder":4865,"Ġcopy":4866,"ography":4867,"list":4868,"71":4869,"Ġowner":4870,"class":4871,"ruit":4872,"rate":4873,"ĠOnce":4874,"Ġdigital":4875,"Ġtask":4876,"ERS":4877,"tes":4879,"++":4880,"ĠFrance":4881,"owl":4883,"Ġissued":4884,"ĠWestern":4885,"Ġdetect":4886,"Ġpartners":4887,"Ġshared":4888,"ĠCall":4889,"Ġcancer":4890,"ache":4891,"ribe":4892,"Ġexplained":4893,"Ġheat":4894,"{\"":4895,"Ġinvestment":4896,"ĠBook":4897,"Ġwood":4898,"Ġtools":4899,"ĠAlthough":4900,"Ġbelief":4901,"Ġcrisis":4902,"Ġge":4903,"ĠMP":4904,"Ġoperation":4905,"type":4906,"~~":4907,"ga":4908,"Ġcontains":4909,"anta":4910,"Ġexpress":4911,"ĠGroup":4912,"ĠJournal":4913,"ka":4914,"Ġamb":4915,"ĠUSA":4916,"Ġfinding":4917,"Ġfunding":4918,"how":4919,"Ġestablished":4920,"Ġdegree":4922,"Ġdangerous":4923,"anging":4924,"Ġfreedom":4925,"Ġchurch":4928,"Ġcatch":4929,"ĠTwo":4930,"Ġpresence":4931,"ĠGuard":4932,"Up":4933,"Ġauthority":4934,"ĠProject":4935,"Ġbutton":4936,"Ġvalid":4938,"Ġweak":4939,"Ġstarts":4940,"Ġreference":4941,"ĠMem":4942,"\")":4943,"UN":4944,"orage":4945,"ĠOpen":4946,"Ġcollection":4947,"ym":4948,"gency":4949,"Ġbeautiful":4950,"ros":4951,"Ġtells":4952,"Ġwaiting":4953,"nel":4954,"Ġproviding":4955,"ĠDemocrats":4956,"Ġdaughter":4957,"Ġmaster":4958,"Ġpurposes":4959,"ĠJapanese":4960,"Ġequal":4961,"Ġturns":4962,"Ġdocuments":4963,"Ġwatching":4964,"Res":4965,"Ġran":4966,"2014":4967,"Ġreject":4968,"ĠKorea":4969,"Ġvictims":4970,"Level":4971,"erences":4972,"Ġwitness":4973,"Ġ34":4974,"Ġreform":4975,"coming":4976,"Ġcaught":4978,"Ġtraffic":4979,"ading":4980,"Ġmodels":4981,"ario":4982,"Ġserved":4983,"Ġbatter":4984,"uate":4985,"ĠSecretary":4986,"Ġagreed":4987,"Ġtruly":4988,"ĠRet":4990,"Ġunits":4991,"ĠResearch":4992,"hand":4993,"azine":4994,"ĠMike":4995,"Ġvariety":4996,"Ġamazing":4998,"Ġconfirmed":4999,"Ġentirely":5000,"Ġpurchase":5001,"Ġelement":5002,"Ġcash":5003,"Ġdetermine":5004,"De":5005,"Ġcars":5006,"ĠWall":5007,"âĸ":5008,"Ġviews":5009,"Ġdrugs":5010,"Ġdepartment":5011,"ĠStep":5012,"uit":5013,"Ġ39":5014,"asure":5015,"ĠClass":5016,"Ġcovered":5017,"ĠBank":5018,"Ġmere":5019,"uana":5020,"Ġmulti":5021,"Ġmix":5022,"Ġunlike":5023,"Ġstopped":5025,"Ġsem":5026,"ĠGal":5027,"ules":5028,"ĠJohnson":5030,"la":5031,"Ġskill":5032,"Ġbecoming":5033,"rie":5034,"Ġappropriate":5035,"fe":5036,"ellow":5037,"ĠProt":5038,"ulate":5039,"ocation":5040,"Ġweekend":5041,"odies":5042,"Ġsites":5043,"Ġanimal":5044,"ĠTim":5045,"Ġscale":5046,"Ġcharged":5047,"Ġinstruct":5048,"illa":5049,"Ġmethods":5050,"Ġcert":5051,"Ġjudge":5052,"ĠHel":5053,"Ġdollars":5054,"Ġstanding":5055,"ĠSqu":5056,"Ġdebt":5057,"Ġdriving":5059,"ĠSum":5060,"ĠEdition":5061,"Ġalbum":5062,"andon":5063,"IF":5064,"63":5066,"ader":5067,"Ġcommercial":5068,"esh":5069,"ĠGovernment":5070,"Ġdiscovered":5071,"Ġoutput":5072,"ĠHillary":5073,"ĠCarol":5074,"Ġ2005":5075,"Ġabuse":5076,"ancing":5077,"Ġswitch":5078,"Ġannual":5079,"Tw":5080,"Ġstated":5081,"agement":5082,"inner":5083,"Ġresidents":5085,"Ġallowing":5086,"Ġfactors":5087,"odd":5088,"Ġfuck":5089,"emies":5090,"Ġoccurred":5091,"oti":5092,"Ġnorth":5093,"ĠPublic":5094,"Ġinjury":5095,"Ġinsurance":5096,"CL":5097,"olly":5098,"ãĢ":5099,"Ġrepeated":5100,"Ġarms":5101,"anged":5102,"Ġconstruction":5103,"Ġfle":5104,"PU":5105,"icians":5106,"Ġforms":5107,"ĠMcC":5108,"antic":5109,"Ġmental":5110,"pire":5111,"Ġequipment":5112,"Ġdiscussion":5114,"Ġregarding":5115,"kin":5116,"arp":5117,"Ġchair":5118,"ogue":5119,"Ġproceed":5120,"ĠId":5121,"Our":5122,"Ġmurder":5123,"Man":5124,"Ġ49":5125,"asp":5126,"Ġsupply":5127,"Ġinput":5128,"Ġwealth":5129,"orial":5132,"ĠStat":5133,"ĠNFL":5134,"hens":5135,"ĠInstitute":5136,"Ġputting":5137,"ournament":5138,"etic":5139,"Ġlocated":5140,"Ġkid":5141,"eria":5142,"run":5143,"Ġ!":5145,"going":5146,"ĠBet":5147,"Ġtelling":5149,"Ġproposed":5150,"iot":5151,"orry":5152,"Ġfunds":5153,"gment":5154,"ĠLife":5155,"Ġbaby":5156,"ĠBack":5157,"Ġspoke":5158,"Image":5159,"Ġearn":5160,"ĠAT":5161,"gu":5162,"Ġexchange":5163,"ĠLin":5164,"oving":5165,"Ġpair":5166,"More":5167,"azon":5168,"Ġarrested":5169,"Ġkilling":5170,"can":5171,"ĠCard":5172,"yd":5173,"Ġidentified":5174,"Ġmobile":5175,"Ġthanks":5176,"onym":5177,"ĠForm":5178,"Ġhundreds":5179,"ĠChris":5180,"ĠCat":5181,"Ġtrend":5182,"hat":5183,"ĠAv":5184,"oman":5185,"Ġelectric":5186,"ĠWil":5187,"SE":5188,"Of":5189,"oted":5191,"Ġnine":5193,"Ġbomb":5194,"Why":5195,"Â¯":5196,"Ġcoverage":5197,"Ġappeal":5198,"ĠRobert":5199,"ĠSup":5200,"Ġfinished":5201,"Ġflow":5202,"Ġdeliver":5203,"Ġphotos":5205,"Ġpieces":5207,"kes":5209,"Ġrough":5210,"Do":5211,"Ġpartner":5212,"Ġconcerned":5213,"Ġ37":5214,"ĠGen":5215,"Col":5216,"Ġ=>":5218,"state":5219,"Ġsuggested":5220,"ĠForce":5221,"CE":5222,"Ġherself":5223,"ĠPlan":5224,"works":5225,"ooth":5226,"Ġcorner":5228,"Ġhusband":5229,"Ġinternet":5230,"ĠAut":5231,"ems":5232,"osen":5233,"gen":5235,"Ġbalance":5236,"62":5237,"Ġsounds":5238,"text":5239,"oves":5241,"Ġmillions":5242,"Ġradio":5243,"Ġsatisf":5244,"ĠDam":5245,"Mr":5246,"Go":5247,"Spe":5248,"Ġcombat":5249,"rant":5250,"Ġfuel":5252,"Ġdistance":5253,"Ġtests":5254,"Ġdecre":5255,"ĠEr":5256,"Ġmanaged":5257,"DS":5258,"Ġtit":5259,"Ġmeasures":5260,"ĠLiber":5261,"Ġattend":5262,"ashed":5263,"ĠJose":5264,"ĠNight":5265,"dit":5266,"ĠNov":5267,"ĠEnd":5268,"outs":5269,"Ġgeneration":5270,"yth":5272,"Ġconversation":5273,"ĠSky":5274,"active":5275,"cel":5276,"rier":5277,"ĠFrank":5278,"Ġgender":5279,"Ġcarried":5281,"anda":5282,"ĠVirgin":5283,"Ġarrived":5284,"icide":5285,"aded":5286,"Ġfailure":5287,"Ġminimum":5288,"lets":5289,"Ġworst":5290,"Ġkeeping":5291,"Ġintended":5292,"Ġillegal":5293,"Ġdetermined":5295,"Ġtrip":5296,"Yes":5297,"Ġraise":5298,"Ġ~":5299,"Ġfeels":5300,"Ġpackage":5301,"ĠJo":5302,"hi":5303,"2016":5304,"real":5305,"Me":5308,"ucky":5309,"ĠKh":5311,"ĠEdit":5312,"ĠWeb":5313,"emic":5314,"ĠColor":5315,"Ġjustice":5316,"Int":5317,"Ġfarm":5318,"\">":5320,"eless":5321,"Ġreduced":5322,"Ġ500":5323,"xx":5324,"ĠRad":5325,"ĠWood":5326,"Ġclin":5327,"Ġhyp":5328,"iler":5329,"ura":5330,"kins":5331,"85":5332,"61":5333,"ĠTheir":5334,"ĠMary":5335,"Ġsan":5336,"Ġnovel":5337,"ĠWho":5338,"Ġcapacity":5339,"Ġimpossible":5340,"Ġplays":5341,"Ġminister":5342,"icate":5344,"ĠSet":5345,"Ġing":5347,"Ġcommunities":5348,"ĠFBI":5349,"ita":5350,"Ġbon":5351,"Ġstrateg":5352,"Ġinterests":5353,"lock":5354,"gers":5355,"mas":5356,"ĠAND":5357,"Ġconflict":5358,"Ġrequirements":5359,"Ġsac":5360,"Ġoperating":5361,"ini":5362,"related":5363,"Ġcommitted":5364,"Ġrelatively":5365,"Ġsouth":5366,"Ġafford":5368,"Ġidentity":5369,"Ġdecisions":5370,"Ġaccused":5371,"place":5372,"Ġvictory":5373,"och":5374,"iat":5375,"Name":5376,"Com":5377,"tion":5378,"eds":5379,"Ġseek":5380,"Ġtight":5381,"ĠImages":5382,"Ġhumans":5384,"Ġfamiliar":5385,"Ġaudience":5386,"Ġinternal":5387,"Ġsides":5389,"ĠTO":5390,"Ġdim":5391,"Ġappoint":5393,"Ġenforcement":5394,"ĠJim":5395,"ĠAssociation":5396,"ĠCanadian":5398,"Ġjoined":5399,"Ġdifferences":5400,"ĠLos":5401,"Ġprotest":5402,"Ġtwice":5403,"win":5404,"Ġglass":5405,"arsh":5406,"ĠArmy":5407,"Ġexpression":5408,"Ġdecide":5409,"Ġplanning":5410,"ania":5411,"Ġhandle":5412,"ĠMicrosoft":5413,"ĠNor":5414,"Ġmaximum":5415,"ĠRev":5416,"Ġsea":5417,"Ġhelps":5419,"ref":5420,"Ġbound":5421,"Ġmouth":5422,"Ġstandards":5423,"Ġclim":5424,"ĠCamp":5425,"ĠFox":5426,"cles":5427,"Ġarmy":5428,"ĠTechn":5429,"acking":5430,"xy":5431,"SS":5432,"Ġ42":5433,"Ġbug":5434,"ĠMax":5436,"ĠJones":5437,"ĠShow":5438,"lo":5439,"Ġplanet":5440,"Ġ75":5441,"Ġwinning":5442,"Ġfaster":5443,"Ġspect":5444,"Ġbroken":5445,"TR":5446,"Ġdefined":5447,"Ġhealthy":5448,"Ġcompetition":5449,"https":5450,"ĠIsland":5451,"ĠFe":5452,"Ġannounce":5453,"ĠCup":5454,"ĠInstead":5455,"Ġclient":5456,"Ġpossibly":5457,"section":5458,"look":5460,"Ġfinish":5461,"Ġcrew":5462,"Ġeditor":5464,"Ġhate":5465,"Ġsale":5466,"Ġpages":5468,"wing":5469,"Ġopposition":5471,"Ġ2004":5472,"Ġrefuge":5473,"Ġflight":5474,"Ġapart":5475,"ĠLat":5476,"ĠAfrica":5478,"Ġapplications":5479,"ĠBur":5481,"Ġgar":5482,"ĠSocial":5483,"Ġshape":5485,"Ġspeaking":5486,"ao":5488,"ĠSn":5489,"Ġworry":5490,"ĠBritain":5491,"Please":5492,"roud":5493,"Ġintroduced":5495,"Ġdiet":5496,"Ind":5497,"ĠSecond":5498,"Ġfunctions":5499,"uts":5500,"ĠEach":5501,"ĠJeff":5502,"Ġstress":5503,"Ġaccounts":5504,"ĠAnn":5506,"edia":5507,"Ġhonest":5508,"Ġtree":5509,"ĠAfrican":5510,"ĠBush":5511,"},":5512,"Ġsch":5513,"ĠOnly":5514,"igan":5516,"Ġexercise":5517,"ĠExp":5518,"Ġscientists":5519,"Ġlegislation":5520,"ĠWork":5521,"ĠSpr":5522,"ÃĤ":5523,"ĠHuman":5524,"Ġè":5525,"Ġsurvey":5526,"Ġrich":5527,"rip":5528,"Ġmaintain":5529,"Ġleadership":5531,"stream":5532,"ĠIslamic":5533,"Ġ01":5534,"ĠCollege":5535,"Ġmagic":5536,"ĠPrime":5537,"Ġfigures":5538,"2017":5539,"inder":5540,"ĠDead":5542,"Ġabsolutely":5543,"Ġfourth":5544,"Ġpresented":5545,"respond":5546,"rible":5547,"Ġalcohol":5548,"ato":5549,"ĠDE":5550,"porary":5551,"Ġgrab":5552,"Ġquant":5554,"ĠPhoto":5555,"Ġplus":5556,"rick":5557,"arks":5558,"Ġalternative":5559,"that":5562,"Ġobjects":5563,"ĠRo":5564,"ĠAndroid":5565,"Ġsignificantly":5566,"ĠRoad":5567,"kay":5568,"Read":5569,"avor":5570,"ĠHD":5572,"ĠSing":5573,"Or":5574,"ĠMont":5575,"Ġuns":5576,"prof":5577,"ĠArch":5579,"iki":5580,"Ġtelevision":5581,"ĠJewish":5582,"Ġcommittee":5583,"Ġmotor":5584,"Ġappearance":5585,"Ġsitting":5586,"Ġstrike":5587,"ĠDown":5588,"comp":5589,"ĠHist":5590,"Ġfold":5591,"acement":5592,"ĠLouis":5593,"Ġbelong":5594,"ĠâĢ¢":5595,"Ġmort":5596,"Ġprepared":5597,"Ġ64":5598,"ĠMaster":5599,"Ġindeed":5600,"ĠDen":5601,"Ġrent":5602,"TA":5603,"arc":5605,"Su":5606,"97":5607,"Ġadvice":5608,"Ġchanging":5609,"Ġlisted":5610,"Ġlaunched":5611,"isation":5612,"ĠPeter":5613,"ishes":5614,"Ġlived":5615,"ĠMel":5616,"ĠSupreme":5617,"ĠFederal":5618,"Ġ);":5619,"ructure":5620,"Ġsets":5621,"uous":5623,"Ġapplied":5625,"ĠNOT":5626,"Ġhousing":5627,"ĠMount":5628,"Ġodd":5629,"DA":5631,"Ġ?":5633,"olved":5634,"Ġpowers":5635,"Ġthr":5636,"Ġremaining":5637,"ĠWater":5638,"LC":5639,"Ġcauses":5640,"ãģ®":5641,"Ġmanner":5642,"ads":5643,"Ġsuggests":5644,"Ġends":5645,"standing":5646,"fig":5647,"ĠDun":5648,"Ġgay":5650,"Ġtermin":5651,"ĠAngeles":5652,"MS":5653,"Ġscientific":5654,"Ġcoal":5655,"apers":5656,"bar":5657,"ĠThomas":5658,"Ġsym":5659,"ĠRun":5660,"this":5661,"PC":5662,"igrants":5663,"Ġminute":5664,"ĠDistrict":5665,"cellent":5666,"Ġleaves":5667,"Ġcompleted":5668,"amin":5669,"Ġfocused":5670,"Ġmonitor":5671,"Ġvehicles":5672,"MA":5673,"ĠMass":5674,"ĠGrand":5675,"Ġaffected":5676,"itutional":5677,"Ġconstruct":5678,"Ġfollows":5679,"Ġton":5680,"reens":5681,"Ġhomes":5682,"ĠExt":5683,"ĠLevel":5684,"rast":5685,"ĠIr":5686,"Ġlargely":5688,"ĠJoe":5689,"Ġvotes":5690,"alls":5691,"Ġbusinesses":5692,"ĠFoundation":5693,"ĠCentral":5694,"Ġyards":5695,"Ġmaterials":5696,"Ġguide":5698,"Ġcloser":5699,"ums":5700,"Ġsports":5701,"eder":5702,"Just":5703,"Ġtaxes":5704,"84":5705,"ĠOld":5706,"Ġdecade":5707,"ola":5708,"Ġvir":5709,"Ġdropped":5710,"Ġdelay":5711,"itect":5712,"Ġsecure":5713,"stein":5714,"level":5715,"Ġtreated":5716,"Ġfiled":5717,"aine":5718,"Ġvan":5719,"Ġmir":5720,"Ġcolumn":5721,"icted":5722,"eper":5723,"Ġrot":5724,"Ġconsult":5725,"Ġentry":5726,"Ġmarijuana":5727,"ĠDou":5728,"Ġapparently":5729,"oking":5730,"clusive":5731,"Ġincreases":5732,"ano":5733,"Ġspecifically":5734,"Ġtele":5735,"ensions":5736,"Ġreligion":5737,"abilities":5738,"Ġframe":5739,"ĠNote":5740,"ĠLee":5741,"Ġhelping":5742,"Ġedge":5743,"Ġorganizations":5745,"Ãĥ":5746,"ĠBoth":5747,"hips":5748,"Ġbigger":5749,"Ġboost":5750,"ĠStand":5751,"Ġrow":5752,"uls":5753,"Ġrid":5755,"Let":5756,"aren":5757,"rave":5758,"PD":5760,"Ġvision":5761,"Ġwearing":5762,"Ġappreci":5763,"Ġaward":5764,"ĠUse":5765,"Ġfactor":5766,"war":5767,"ulations":5768,")(":5769,"Ġgod":5770,"asts":5773,"87":5774,"Ġenemies":5775,"ĠGames":5776,"FF":5777,"Ġaccident":5778,"Well":5779,"ĠMartin":5780,"TER":5781,"ĠHell":5783,"free":5787,"Ġstars":5788,"Ġexpensive":5789,"rawn":5791,"Ġlock":5793,"Ġformat":5794,"Ġsoldiers":5795,"sm":5796,"Ġagent":5797,"Ġresponsibility":5798,"ora":5799,"ĠScience":5800,"Ġrapid":5801,"Ġtough":5802,"ĠJesus":5803,"Ġbelieves":5804,"ML":5805,"Ġwear":5806,"lete":5807,"Ġcommission":5810,"ĠBob":5811,"Oh":5812,"aped":5813,"Ġwarm":5814,"Ġ2003":5816,"ortion":5817,"Ġhasn":5818,"uster":5819,"ĠIll":5821,"Ġking":5822,"ologies":5823,"94":5824,"ĠTem":5825,"ĠMos":5826,"Ġpatient":5827,"ĠMexico":5828,"ĠDeath":5830,"ĠSanders":5831,"you":5832,"ĠCast":5833,"ĠCompany":5834,"Ġhappening":5836,"FP":5837,"ĠBattle":5838,"Ġbought":5839,"Am":5840,"Mod":5841,"Us":5842,"uters":5843,"ĠCre":5844,"ĠThose":5845,"Ġ44":5846,"iser":5847,"Ġsoul":5848,"ĠTop":5849,"ĠHarry":5850,"ĠAw":5851,"Ġseat":5852,"ffee":5853,"Ġrevolution":5854,"Ġ(\"":5855,"ĠDuring":5856,"ette":5857,"Ġring":5858,"Ġoffensive":5859,"Ġreturns":5860,"Ġvideos":5861,"Ġfamous":5863,"enced":5864,"ĠSign":5865,"ĠRiver":5866,"Ġ300":5867,"PM":5868,"ĠBus":5869,"ĠCH":5870,"Ġcandidates":5871,"arden":5872,"Ġpercentage":5873,"Ġvisual":5874,"Ġthank":5875,"Ġtrouble":5876,"Ġ2001":5878,"Ġprove":5879,"ĠLong":5882,"UM":5883,"Ġconnected":5884,"Ġpossibility":5885,"Over":5886,"Ġexpert":5887,"Ġlibrary":5888,"arts":5889,"ĠDirector":5890,"Ġfellow":5891,"92":5892,"irty":5893,"Ġdry":5894,"Ġsigns":5895,"ĠLove":5896,"Ġquiet":5897,"foot":5898,"Ġpure":5899,"ĠHun":5900,"Ġfilled":5901,"ĠElect":5903,"ĠExpl":5905,"Ġunable":5906,"ns":5907,"mo":5908,"Ġvast":5909,"obe":5910,"Ġidentify":5911,"apping":5912,"ĠCarolina":5913,"Ġfish":5916,"Ġcircumstances":5917,"razy":5918,"ĠPhot":5919,"Ġbodies":5920,"ĠMur":5921,"Ġdeveloping":5922,"ĠAR":5923,"Ġexperienced":5924,"ĠBoard":5926,"esome":5927,"Ġdomestic":5928,"Ġcombined":5929,"ĠPut":5930,"Ġchemical":5931,"ĠChild":5932,"Ġpool":5933,"ĠCy":5934,"Ġegg":5935,"cons":5936,"sters":5937,"Ġhurt":5938,"Ġmarkets":5939,"Ġconservative":5940,"Ġsupporters":5941,"Ġagencies":5942,"idel":5943,"Ob":5944,"urb":5945,"Ġ43":5946,"ĠDefense":5947,"ye":5948,"ĠAp":5949,"dule":5950,"Ġtemperature":5951,"Ġconducted":5952,"ĠChief":5953,"Ġpulled":5954,"Ġfol":5955,"Last":5956,"onto":5957,"osis":5958,"VER":5959,"Des":5960,"ĠPan":5961,"First":5962,"Ġadvance":5963,"Ġlicense":5964,"ĠJon":5966,"Ġimagine":5967,"Ġhell":5968,"Ġfixed":5969,"ĠLog":5972,"icken":5973,"]:":5974,"Ġsurprise":5975,"hab":5976,"Ġcraft":5977,"olt":5978,"ĠJul":5979,"Ġdial":5980,"Ġrelevant":5981,"Ġentered":5982,"Ġleads":5983,"ĠAD":5984,"ĠClean":5985,"Ġpictures":5986,"Ġalt":5988,"Ġpaying":5989,"Per":5990,"ĠMarket":5991,"Ġupdates":5992,"ĠType":5994,"ĠHome":5995,"Ġ55":5996,"rome":5998,"83":5999,"Ġgreatest":6000,"Ġheight":6001,"aints":6003,"Ġlisten":6004,"aser":6005,"ĠSH":6006,"Ġcapable":6007,"acle":6008,"inating":6010,"Ġoffering":6011,"rypt":6012,"ĠDevelop":6013,"abin":6014,"rc":6015,"Ġbright":6016,"alty":6017,"arrow":6018,"inding":6020,"acked":6021,"ĠAnother":6023,"pg":6024,"ĠVirginia":6025,"ĠLu":6026,"Ġplanned":6027,"Ġpit":6028,"Ġsweet":6029,"Type":6030,"ĠDi":6031,"Ġtypically":6032,"ĠFrancisco":6033,"Ġprospect":6034,"ĠDan":6035,"Ġteen":6036,"rees":6037,"Ġhol":6039,"Ġscr":6040,"Ġlots":6041,"life":6042,"Ġforget":6044,"ĠNone":6045,"ĠMiddle":6046,"ĠRyan":6047,"edd":6048,"Ġsevere":6049,"Ġsuit":6050,"ller":6051,"93":6052,"Ġcorrespond":6053,"uations":6055,"Ġflag":6056,"game":6057,"rid":6058,"ĠData":6060,"Ġdeploy":6061,"ĠEnter":6062,"suit":6063,"ghan":6064,"ĠMen":6065,"Ġthoughts":6066,"Ġmatters":6067,"Ġadapt":6068,"ĠAri":6069,"Ġfill":6070,"Ġforth":6071,"Ġsam":6072,"Ġ41":6073,"Ġpayment":6074,"ĠHor":6075,"Ġspring":6076,"duc":6077,"Ġlosing":6078,"Ġbringing":6079,"FO":6080,"ala":6081,"Ġdistribution":6082,"hered":6083,"bour":6084,"ĠIsraeli":6085,"oma":6086,"Ġcombination":6087,"Ġplenty":6088,"VE":6089,"Can":6090,"ĠHaw":6091,"Ġperman":6092,"ĠSpecial":6093,"Ġtow":6094,"Ġseeking":6095,"Ġexamples":6096,"Ġclasses":6097,"cr":6098,"Ġbeer":6099,"Ġmoves":6100,"ĠIP":6101,"ĠKn":6102,"Ġpanel":6103,"Even":6104,"Ġproperly":6105,"Ġplug":6107,"Ġestimated":6108,"Every":6109,"Ġdefensive":6110,"Ġvolume":6115,"Ġpositions":6116,"Ġlinks":6117,"ĠProgram":6118,"ĠWeek":6119,"agues":6120,"Ġtransform":6121,"ker":6122,"ĠCEO":6123,"Ġcas":6124,"Ġopponent":6125,"Ġtweet":6126,"ĠCode":6127,"Ġshop":6128,"Ġfly":6129,"Ġtalks":6130,"Ġbag":6131,"Phone":6132,"Ġaid":6133,"Ġplants":6134,"Ġ65":6135,"Ġattorney":6136,"arters":6137,"quest":6138,"ĠMagic":6139,"Ġbegins":6140,"Ġenvironmental":6142,"Ġstorage":6143,"NN":6144,"Ġmetal":6147,"elly":6148,"Ġordered":6149,"Ġremained":6150,"Ġloved":6151,"Ġprompt":6152,"Ġupdated":6153,"Ġexperts":6154,"Ġwalking":6155,"Ġancient":6156,"Ġperformed":6157,"ATE":6158,"Ġneither":6159,"Ġmanufacture":6161,"Ġselected":6163,"Ġmine":6164,"Ġultimately":6165,"Ġlabel":6167,"ĠServices":6168,"ributed":6169,"Trump":6170,"Ġsyn":6171,"ĠUlt":6172,"SC":6173,"Ġmeat":6174,"Ġgiant":6175,"ĠWars":6176,"ĠON":6177,"Ġadm":6178,"Ġinterpret":6179,"Ġevening":6180,"Ġevil":6181,"ĠBoston":6182,"ĠWild":6183,"ĠÃ":6184,"ĠBitcoin":6185,"ĠAmazon":6186,"Dr":6187,"ĠInformation":6188,"Ġobviously":6189,"Ġadvanced":6190,"Photo":6191,"olar":6192,"Ġweather":6193,"Ġsymbol":6194,"Ġsole":6195,"Ġpotentially":6196,"oster":6197,"Ġoriginally":6198,"mun":6199,"300":6200,"aze":6201,"essions":6202,"Ġdeck":6203,"Ġstood":6204,"Ġyouth":6205,"ĠBern":6206,"Rep":6207,"ĠTest":6208,"Ġbasically":6209,"otic":6210,"Ġinvolve":6211,"olit":6212,"lyn":6213,"See":6214,"Ġaircraft":6215,"Ġconfirm":6216,"EW":6217,"Ġmessages":6218,"ĠRichard":6219,"Ġkit":6220,"isters":6223,"Ġexistence":6224,"Ġturning":6225,"ĠSP":6226,"Ġdesire":6227,"Ġflat":6228,"Ġment":6229,"season":6230,"Ġneighborhood":6232,"ĠLake":6233,"ATION":6234,"Ġpointed":6235,"bur":6236,"Ġinnov":6237,"ucks":6238,"UL":6239,"Ġprofessor":6240,"Ġexpressed":6241,"AB":6242,"icious":6243,"Ġ2002":6244,"ĠDev":6245,"Ġsession":6246,"Ġbare":6247,"sen":6248,"Ġdiss":6249,"ĠCath":6250,"ĠPass":6251,"ĠPoint":6252,"Ġdoctor":6253,"orrow":6254,"ailed":6255,"ĠRub":6256,"ĠDC":6257,"ĠCharl":6258,"person":6259,"Ġwriter":6260,"Ġoblig":6263,"Ġrecorded":6264,"Ġbroke":6265,"Ġorders":6266,"Ġmotion":6268,"inity":6269,"law":6270,"Ġimmigration":6272,"Ġcontrast":6273,"Ġexcellent":6275,"Ġtechnical":6276,"ami":6277,"Ġtun":6278,"Ġcloud":6279,"ĠYear":6280,"geon":6281,"Ġcreation":6282,"Ġstrange":6283,"Ġfort":6285,"born":6286,"Ġextent":6287,"ĠToday":6288,"ĠClub":6289,"Ġrain":6290,"Ġsample":6291,"Ġaccepted":6292,"Ġfired":6294,"ĠSon":6295,"Ġstands":6296,"Ġboot":6297,"Ġ47":6298,"Ġstatements":6299,"Ġversions":6300,"Ġselling":6301,"ounded":6302,"Ġ1990":6303,"Ġweren":6304,"ĠWatch":6305,"Ġexperiment":6306,"Post":6307,"Ġretail":6308,"uled":6309,"Inst":6310,"ãĥ¼":6312,"Ġdepart":6313,"Ġbond":6314,"Ġreaction":6317,"ĠSyrian":6318,"ĠPac":6319,"apped":6320,"DP":6322,"Ġresolution":6323,"Ġreact":6324,"Ġapproved":6325,"onom":6326,"mond":6327,"---":6329,"Ġreplace":6330,"Ġtack":6331,"Ġsport":6332,"Ġchain":6333,"Ġemergency":6334,"rad":6335,"Ġ46":6337,"Ġautomatically":6338,"Ġroute":6339,"Ġpal":6340,"Ġbanks":6341,"ĠParis":6342,"ĠMedia":6343,"road":6344,"icing":6345,"ixt":6346,"isted":6347,"Ġgrew":6348,"ĠWhere":6350,"omin":6351,"Ġsubs":6352,"ï¿½ï¿½":6353,"ĠÂ±":6354,"Ġcorporate":6355,"Ġselection":6356,"noon":6357,"ĠReport":6358,"cs":6359,"orders":6361,"anche":6362,"ĠIts":6363,"Ġslowly":6364,"ĠEgypt":6365,"ĠAcc":6366,"iques":6368,"EX":6369,"Ġattempts":6370,"url":6371,"ĠCross":6372,"Ġfindings":6373,"ĠSC":6374,"ĠOR":6375,"Ġindex":6376,"ĠWay":6378,"ĠLand":6379,"Ġshock":6380,"dis":6381,"Ġdynam":6382,"Ġcart":6383,"mosp":6384,"Since":6385,"iest":6386,"ĠBoy":6387,"Ġstorm":6388,"2013":6390,"hew":6391,"ilit":6392,"Ġessential":6393,"Other":6395,"Ġreasonable":6397,"Act":6398,"ĠPack":6400,"ĠFort":6401,"Ġconsidering":6402,"Ġuniversity":6403,"log":6404,"Ġmarried":6405,"Ġillust":6406,"ĠTrue":6407,"£ı":6408,"Ġnumerous":6409,"Ġseriously":6411,"Ġreferred":6412,"ua":6413,"Ġconsistent":6414,"onna":6415,"ĠReal":6416,"Ġfacts":6419,"91":6420,"otes":6421,"erg":6422,"Then":6423,"Ġaccompl":6424,"Note":6425,"Ġrevenue":6426,"Ġpassing":6427,"Ġmal":6428,"een":6429,"ĠYet":6430,"Ġgather":6431,"ĠAuthor":6434,"Pe":6435,"Ġoptim":6436,"Ġrub":6437,"Ġè£ı":6438,"Ġunknown":6439,"stone":6440,"Ġunion":6441,"olve":6442,"Ġopportunities":6443,"Ġbrowser":6444,"ĠWal":6445,"ĠCost":6446,"Ġreporting":6447,"sts":6448,"pet":6449,"Ġsand":6450,"Ġsuddenly":6451,"Ġsurprising":6452,"ĠVR":6453,"Ġsomewhat":6454,"ĠBas":6455,"ulture":6456,"izz":6457,"ĠCD":6458,"Ġchallenges":6459,"Ġsettings":6460,"Ġexperiences":6461,"ĠFull":6462,"Ġreceiving":6464,"EST":6465,"Ġjoint":6466,"Ġcultural":6467,"Ġast":6468,"82":6469,"ceived":6471,"ĠCru":6472,"Ġbull":6473,"amm":6475,"Ġfacing":6476,"power":6477,"Ġboss":6478,"ĠHol":6479,"Ġincreasingly":6481,"Ġshift":6482,"Ġstreets":6483,"ĠWilliams":6484,"abb":6485,"Ġlie":6486,"Ġlaugh":6487,"ĠCa":6488,"PL":6489,"Ġadults":6490,"Ġcustomer":6491,"Ġobtained":6492,"Ġsupporting":6493,"html":6494,"fire":6495,"Ġdetailed":6496,"Ġpicked":6497,"ĠRight":6498,"lder":6499,"EE":6500,"stood":6501,"ĠKim":6502,"Ġwire":6503,"Ġsight":6504,"Ġdevelopers":6505,"Ġpersons":6506,"Ġsad":6507,"Ġcup":6508,"Ġwarning":6509,"Ġboys":6510,"long":6511,"Ġbird":6512,"fo":6513,"Ġwal":6514,"Ġobserved":6515,"Ġzone":6516,"iveness":6517,"Ġchannel":6518,"cript":6519,"Ġrefused":6520,"ĠAgain":6521,"Ġsuc":6522,"Ġspokesman":6523,"ĠRef":6524,"rite":6525,"ãĥ³":6527,"ĠSher":6528,"Ġacts":6529,"ĠName":6530,"Ġstruggle":6531,"arry":6532,"HT":6535,"Ġcategory":6536,"Ġrealize":6537,"Ġemployee":6538,"ĠAfghan":6539,"enger":6540,"Ġguns":6541,"ĠSteve":6542,"ĠMot":6543,"ĠOl":6544,"oked":6545,"Ġthick":6546,"Ġfairly":6547,"illy":6548,"ĠMat":6550,"weight":6551,"âĶ":6552,"Ġtroops":6553,"Ġagents":6554,"Ġbattery":6555,"Ġmotiv":6556,"Ã¡":6557,"Sec":6558,"den":6559,"overy":6560,"LS":6561,"Ġflu":6562,"Ġconfident":6563,"Ġempty":6565,"Ġphen":6566,"Ġsector":6567,"Ġexcited":6568,"Ġremote":6569,"aph":6570,"oen":6571,"Ġdestroyed":6572,"Ġmoral":6573,"ĠHP":6574,"ĠRon":6575,"Ġdress":6576,"ĠBat":6577,"Ġlit":6578,"ĠMS":6579,"Ġaf":6580,"HL":6581,"rum":6582,"isms":6583,"Ġshouldn":6584,"ĠToronto":6586,"hetic":6587,"Ġcarbon":6588,"Ġinstalled":6589,"Ġviolent":6590,"Ġsolar":6591,"ja":6592,"Ġpractices":6593,"Ġride":6594,"ĠPenn":6595,"Ġimproved":6596,"Ġaudio":6597,"ĠPS":6599,"Ġeating":6600,"Data":6601,"ĠReview":6602,"pass":6603,"claim":6604,"uated":6605,"angers":6606,"chen":6607,"Ġproperties":6608,"Ġanywhere":6609,"Another":6610,"Ġblow":6611,"ĠJackson":6612,"Ġproud":6613,"Ġplane":6614,"lines":6615,"Ġsquare":6616,"Ġproof":6617,"Ġtalked":6619,"makers":6620,"Ġsister":6621,"Ġholds":6622,"Ġresident":6623,"Ġ==":6624,"Ġresistance":6625,"Ġsplit":6626,"Ġconfidence":6628,"Ġcuts":6630,"Ġexception":6631,"Ġzero":6632,"Getty":6633,"Ġcopyright":6634,"Ġtotally":6635,"ifications":6637,"ĠAustralian":6638,"Ġsick":6639,"Ġ150":6640,"Ġhousehold":6641,"Ġfees":6642,"Ġdrivers":6643,"ogen":6644,"ĠNY":6645,"Ġnecessarily":6646,"Ġregulations":6647,"earing":6648,"sl":6649,"Ġperspective":6650,"care":6651,"His":6653,"Ġescape":6654,"Ġsurprised":6655,"ĠVan":6656,"Ġvac":6658,"81":6659,"ĠThus":6660,"Ġemphas":6661,"ĠChampions":6662,"ĠIce":6663,"Ġheads":6665,"Ġcausing":6666,"bel":6667,"ĠMa":6669,"Ġtargets":6670,"Ġafternoon":6672,"Ġadds":6673,"ĠMaybe":6674,"ĠFour":6675,"essed":6676,"Ġusual":6678,"cho":6679,"ingu":6680,"ĠEnergy":6682,"OO":6684,"Ġarticles":6685,"Ġinjured":6686,"Ġmanage":6687,"Ġexplains":6688,"Rec":6690,"atures":6691,"Ġlinked":6692,"Ġdiscussed":6693,"Ġoccasion":6695,"athan":6696,"Ġopposite":6697,"Ġfaces":6698,"Ġdenied":6699,"ĠKnight":6700,"Ġnut":6701,"Ġapproximately":6702,"Ġdisappoint":6703,"onymous":6704,"ĠBest":6705,"ĠLo":6706,"ĠHy":6707,"ĠAff":6708,"Ġvoting":6709,"ĠIII":6711,"Ġinstitutions":6712,"agram":6713,"ĠDaily":6714,"Ġdrag":6715,"Ġnearby":6716,"Ġguilty":6717,"Ġconver":6718,"Pre":6719,"ship":6720,"Ġreward":6721,"ĠSS":6723,"ugh":6724,"Ġapps":6725,"friend":6726,"Ġupper":6727,"Ġsnow":6729,"Ġourselves":6731,"Fr":6732,"ĠDie":6733,"ampion":6734,"Ġdismiss":6735,"Ġcere":6736,"Ġsignal":6737,"from":6738,"Ġ).":6739,"Ġ52":6740,"Ġcrimes":6741,"itors":6742,"estival":6743,"useum":6744,"Ġcouncil":6745,"May":6747,"ĠGun":6748,"ician":6749,"ether":6750,"Ġsufficient":6751,"ĠHen":6752,"sole":6753,"Ġhistorical":6754,"ĠFar":6755,"ĠTurn":6756,"Ġpin":6757,"Ġsucceed":6758,"mat":6759,"lymp":6760,"Ġtradition":6761,"ĠOk":6762,"Ġcro":6763,"Ġdescription":6764,"alle":6765,"Ġsky":6766,"Te":6767,"Ġwidely":6768,"Ġwave":6769,"Ġdefinition":6770,"ĠJews":6771,"Ġcycle":6772,"Ġbrings":6774,"Ġalive":6776,"Ġfrequently":6777,"Ġintention":6778,"ĠControl":6779,"lv":6780,"Ġprivacy":6782,"gent":6783,"rence":6784,"ĠQuest":6785,"ĠChristmas":6786,"Ġrail":6787,"Ġcooper":6788,"Ġtested":6789,"ĠCapt":6790,"Ġcomfortable":6792,"Ġdelivered":6793,"scape":6794,"Ġdepth":6795,"ĠGOP":6796,"Ġwrites":6797,"Ġassets":6798,"Ġsav":6799,"iments":6800,"Ġtransition":6801,"Ġartist":6802,"ĠLook":6803,"Ġlob":6804,"Ġcomponents":6805,"arity":6806,"Ġwalked":6807,"Ġroot":6808,"Ġparticipants":6809,"Ġnoticed":6810,"Ġresc":6811,"da":6814,"utral":6815,"plate":6816,"Ġimportance":6817,"Ġassert":6818,"iously":6819,"cription":6820,"Ġinjuries":6821,"ĠCheck":6822,"Ġregistered":6823,"Ġintent":6824,"Ġmissed":6825,"ographic":6826,"Ġsentence":6827,"Ġassistance":6829,"evin":6830,"Ġdatabase":6831,"Ġbuildings":6832,"Ġclassic":6833,"Ġthinks":6834,"ĠOhio":6835,"Pr":6836,"ugg":6837,"Ġfee":6838,"pan":6839,"Ġeffectively":6840,"Ġfacility":6841,"Ġbear":6842,"Ġchapter":6843,"Ġdogs":6844,"Ġlatter":6846,"Ġadmitted":6848,"TV":6849,"ĠGeorg":6850,"Ġposts":6851,"\\\\":6852,"Ġlawyer":6853,"Ġmand":6855,"Ġcontrolled":6856,"ĠWalk":6857,"ĠAndrew":6858,"Ġmenu":6859,"amental":6860,"Ġprotected":6861,"va":6862,"oral":6864,"Ġrein":6865,"ĠSar":6866,"Ġamounts":6867,"Ġnative":6868,"ĠMoon":6869,"Ġrepresents":6870,"Ġabandon":6871,"Ġcarrying":6872,"Ġtank":6873,"mary":6874,"Ġdeclared":6875,"Tube":6876,"Ġhat":6877,"Ġpunish":6878,"mes":6880,"Ġuniverse":6881,"ĠRod":6882,"phy":6883,"Ġinfrastructure":6884,"Ġ51":6885,"Ġopposed":6886,"ca":6888,"ĠMake":6889,"Ġhardware":6890,"Ġcoffee":6891,"Rel":6892,"bal":6893,"world":6894,"ĠSaf":6895,"ĠSea":6896,"inals":6897,"Ġowned":6898,"Ġhall":6899,"Ġdescribe":6901,"ĠPot":6902,"Ġportion":6903,"Ġgovernments":6905,"Ġdepending":6906,"Ġoffense":6907,"Ġtrick":6908,"awa":6909,"ĠLine":6910,"ĠVis":6911,"ĠHard":6912,"ĠOrig":6913,"ĠClick":6914,"Ġdesk":6915,"ĠValley":6916,"Ġmovies":6918,"Ġremark":6919,"Ġmail":6920,"Ġconscious":6921,"Ġruling":6922,"ĠRights":6923,"hent":6925,"ĠWomen":6926,"><":6927,"Ġreplaced":6928,"ĠThanks":6930,"Ġrenew":6931,"ĠBall":6932,"iform":6933,"Ġshots":6934,"Comm":6935,"Ġarmed":6936,"Ġconstant":6937,"Ġtaste":6938,"Ġrealized":6939,"Ġbuff":6940,"Ġmo":6941,"Ġefficient":6942,"Most":6943,"oration":6944,"ifies":6945,"Ġcommunication":6946,"Ġflood":6947,"Ġconsequences":6948,"Ġanyway":6949,"igg":6950,"ĠGM":6951,"ĠThank":6952,"Ġiron":6953,"Ġevolution":6954,"ĠCop":6955,"twitter":6956,"Ġ95":6957,"Ġrelationships":6958,"adel":6959,"ĠYoung":6960,"Ġproposal":6961,"ayers":6962,"ĠHot":6964,"ORE":6965,"cos":6966,"PG":6968,"axy":6969,"Ġknowing":6970,"Ġsupports":6971,"owed":6972,"Ġcontrols":6973,"Ġmerely":6974,"umer":6975,"Ġfashion":6977,"path":6978,"Ġgift":6979,"Ġera":6980,"AND":6981,"Ġkinds":6982,"ĠKorean":6983,"ulous":6985,"Ġessentially":6986,"nic":6988,"Ġsuffered":6989,"Ġhur":6990,"Ġpromise":6991,"Ġexcess":6992,"Ġprime":6994,"ĠHouston":6995,"erry":6996,"ĠMs":6997,"RS":6998,"2012":6999,"Ġstores":7000,"ĠOlymp":7001,"Ġjourney":7002,"Although":7003,"Sub":7004,"ĠChapter":7006,"Ġrequests":7007,"Ġconsumers":7008,"Ġtiny":7009,"ĠFair":7011,"ba":7012,"ĠYOU":7013,"Ġcrash":7014,"celer":7015,"Ġemotional":7016,"Ġgoods":7017,"Ġelected":7018,"Ġmoder":7019,"ĠLinux":7020,"Ġblocks":7021,"Ġisland":7022,"ĠSociety":7023,"Ġelections":7024,"Ġbroadcast":7025,"Ġcheap":7026,"Ġnations":7027,"Ġseasons":7028,"400":7029,"Ġwaste":7030,"ĠSat":7031,"Ġfields":7032,"employ":7033,"Ġprofile":7034,"Ġauthors":7035,"ALL":7036,"ĠGra":7037,"west":7038,"ĠTy":7039,"Ġdeaths":7040,"Ġformed":7042,"Ġdu":7043,"Ġongoing":7044,"ĠMuslims":7045,"elf":7046,"igure":7047,"Ġassume":7048,"ĠUkraine":7049,"water":7050,"Ġcoast":7051,"Ġvoted":7052,"gor":7053,"ĠAS":7054,"ĠMichigan":7055,"aza":7056,"ĠArm":7057,"iro":7058,"Ġflex":7059,"asters":7060,"''":7061,"Ġwelcome":7062,"arl":7063,"Ġlocations":7064,"igation":7065,"ĠFil":7066,"Ġbuying":7067,"Ġarchitect":7068,"Ġharder":7069,"ĠCub":7070,"Ġinterface":7071,"Ġrestaurant":7072,"Ġdiscover":7073,"Ġexceed":7074,"Ġfavour":7075,"gery":7076,"Ġduty":7077,"Ġpitch":7078,"ador":7079,"ĠMach":7080,"boy":7081,"Ġresponded":7082,"Ġextended":7083,"hers":7084,"Many":7085,"raid":7086,"ifer":7087,"ĠIns":7088,"Ser":7089,"Ġmedium":7090,"she":7091,"ĠSports":7092,"Ġmagazine":7093,"utation":7094,"Ġlimits":7095,"ĠGall":7096,"Ġexternal":7097,"Ġyounger":7099,"tle":7100,"Ġremind":7101,"ĠCON":7102,"Ġimmediate":7103,"Ġhidden":7104,"Ġsimpl":7106,"Ġphase":7108,"dr":7109,"Ġplot":7110,"Ġexposure":7111,"RI":7112,"vin":7114,"ĠAcad":7116,"ĠEngine":7117,"Ġexpansion":7118,"ĠPay":7119,"Your":7120,"Ġpushed":7121,"ĠEll":7122,"ĠHead":7123,"Ġmarketing":7124,"ĠAC":7125,"ket":7126,"Ġhits":7127,"Ġgro":7128,"ĠAge":7129,"ĠScot":7130,"][":7131,"ĠiPhone":7133,"ĪĴ":7134,"Ġnarrow":7135,"ĠGetty":7136,"ĠTurkey":7137,"Ġperfectly":7138,"Ġenable":7139,"utch":7140,"Ġprecise":7141,"Ġregime":7142,"gun":7145,"div":7146,"Ġchosen":7147,"ĠKen":7148,"Any":7149,"Ġtrees":7150,"Ġrecommended":7151,"ĠRen":7152,"uable":7153,"Follow":7155,"EG":7156,"ĠHand":7157,"ĠKenn":7158,"Ġarguments":7159,"Ġexists":7160,"Ġbike":7161,"Ġbreaking":7163,"ĠGar":7164,"Ġcrazy":7165,"Ġvirtual":7166,"Ġ1980":7169,"Ġpermission":7170,"ĠSeries":7171,"Ġconsumer":7172,"Ġclosely":7173,"called":7174,"Ġ54":7175,"Ġhopes":7176,"Ġarray":7177,"ĠWin":7178,"ĠLabour":7179,"Ġreaders":7183,"Ġemployment":7184,"Ġcreature":7185,"Ġresulting":7186,"Ġaccurate":7187,"Ġmoments":7188,"Ġargued":7189,"Ġped":7190,"During":7191,"Ġ53":7192,"ĠTal":7193,"Ġsought":7194,"Ġsuffering":7195,"Ġicon":7196,"lee":7197,"Ġ($":7198,"Â°":7200,"Ġpra":7201,"Ġbonus":7202,"(\"":7203,"ko":7204,"Ġacting":7205,"DE":7206,"fall":7207,"Ġcomparison":7208,"Ġsmooth":7209,"upp":7211,"ĠJoseph":7212,"eping":7213,"ĠTake":7214,"ĠMid":7215,"Ġsending":7216,"fast":7217,"ĠFall":7218,"Ġdealing":7219,"user":7220,"ĠOrgan":7221,"Co":7222,"Ġattached":7223,"Ġsees":7224,"%.":7225,"Ġtypical":7226,"ART":7227,"Ġfinds":7228,"ĠAsia":7229,"umin":7230,"ĠCore":7231,"ĠEnt":7232,"inent":7233,"uce":7234,"ĠBlood":7235,"ĠNever":7236,"Ġemails":7237,"Ġhighlight":7238,"Ġconfront":7239,"atus":7240,"uted":7241,"Ġtopic":7243,"ĠAdam":7244,"Ġble":7245,"ati":7246,"Ġunderstood":7247,"Set":7248,"struct":7249,"TP":7250,"Ġmob":7251,"aa":7252,"ĠStart":7253,"pected":7254,"sell":7255,"Ġdedicated":7256,"ĠCA":7257,"uan":7258,"Ġsongs":7259,"Ġtech":7261,"Ġrape":7262,"Ġaside":7263,"Ġgrant":7264,"Ġ56":7265,"sub":7266,"Ġargue":7267,"Ġcontaining":7268,"Ġschedule":7269,"Ġliberal":7270,"Ġpublicly":7271,"Ġheavily":7272,"ĠUt":7273,"iner":7274,"ĠSection":7275,"ĠCare":7276,"weet":7277,"ls":7278,"Dis":7279,"âĶĢ":7280,"ĠFollow":7281,"Back":7282,"ĠIT":7283,"Ġbes":7284,"ji":7285,"ĠHit":7286,"ested":7287,"Ġeverybody":7288,"Ġfacilities":7291,"Ġconven":7292,"Comp":7293,"ĠOS":7294,"core":7295,"Ġanx":7296,"Ġdivision":7297,"ĠCam":7298,"ĠStan":7299,"mates":7300,"Ġexplore":7301,"Ġshares":7303,"anes":7305,"Ġideal":7306,"eters":7307,"ĠBase":7308,"Ġplastic":7309,"Ġdistinct":7310,"ĠNetwork":7311,"ĠSeattle":7312,"Ġtrading":7313,"Ġinitially":7317,"ĠFood":7318,"Ġthousand":7319,"ĠBusiness":7320,"acter":7321,"Ġparagraph":7322,"Ġroughly":7323,"Ġwww":7324,"Ġcreative":7325,"ĠConf":7326,"Ġconsumption":7327,"Ġfilms":7328,"agan":7329,"Ġobtain":7330,"Ġtall":7331,"Ġtor":7332,"Ġgrown":7334,"alo":7335,"KE":7336,"Ġ400":7337,"enders":7338,"UG":7340,"Ġsuicide":7341,"Ġwatched":7342,"ĠList":7343,"ali":7344,"Ġsurrounding":7346,"Ġpip":7347,"Ġflying":7348,"ĠJava":7349,"Ġserving":7351,"inations":7352,"post":7353,"Ġsho":7354,"Av":7355,"Ġjail":7356,"zy":7357,"Ġ1999":7358,"Ġ</":7359,"Ġliterally":7360,"ĠSir":7361,"Ġexposed":7362,"Ġlies":7363,"star":7364,"Ġbat":7365,"Ġearned":7366,"ĠDig":7367,"Ġspecified":7368,"ĠSeason":7369,"Ġdegrees":7370,"Donald":7371,"Ġcentre":7372,"Ġsharing":7373,"Ġwinter":7374,"ĠCO":7375,"Che":7376,"ĠÎ":7377,"MP":7378,"Ġunw":7379,"Ġfewer":7380,"ĠMir":7381,"Ġsomewhere":7382,"ĠKey":7383,"Ġattacked":7384,"ĠKir":7385,"Ġdomain":7386,"Ġstronger":7387,"Ġ99":7388,"Ġpenalty":7389,"Id":7390,"Script":7391,"Ġdeclined":7392,"Ġneck":7393,"Ġfraud":7394,"Ġcurrency":7395,"Ġrising":7396,"RC":7397,"âĢ¦âĢ¦":7398,"Hz":7399,"Ġtab":7400,"Ġtalent":7401,"nam":7402,"ĠNBA":7403,"Ġvillage":7404,"Ġlegs":7405,"ĠNext":7406,"Ed":7407,"Ġacid":7408,"Ġhyd":7409,"800":7410,"Ġinvolving":7411,"ĠImage":7412,"ĠBefore":7413,"Fl":7414,"Ġyesterday":7415,"Source":7416,"Ġterrorist":7417,"Ġsup":7418,"ĠSaudi":7420,"Ġwest":7421,"Ġru":7422,"burg":7423,"Ġvisible":7424,"Ġstruck":7425,"rison":7426,"Ġawesome":7427,"Ġdrawn":7428,"Ġanswers":7429,"ĠGirl":7430,"ĠRam":7431,"Ġthreats":7432,"Ġdefeat":7433,"Ġvent":7435,"American":7437,"enda":7438,"ĠHoly":7439,"Ġrum":7440,"%,":7441,"case":7442,"ĠHistory":7443,"ĠYouTube":7444,"Ġsituations":7445,"ĠDNA":7446,"Ste":7447,"Ġsaved":7448,"Item":7449,"Ġrecip":7450,"ologist":7451,"Ġfaced":7452,"Once":7454,"ĠLi":7455,"uh":7456,"Ġmistake":7457,"ĠDivision":7458,"ĠBell":7459,"Ġsymptoms":7460,"Â®":7461,"Ġdomin":7462,"Ġfalling":7463,"Ġending":7464,"ashes":7465,"Ġmatches":7466,"ĠOnline":7467,"Ġexplanation":7468,"Def":7469,"Ġanymore":7471,"ĠTotal":7472,"ĠFOR":7473,"ushed":7474,"Ġletters":7475,"Ġrisks":7476,"ĠOK":7477,"Ġreportedly":7478,":\\":7479,"Ġplate":7480,"Ġsubjects":7481,"Ġattempted":7482,"ifier":7483,"iana":7484,"Ġunlikely":7485,"ĠThough":7486,"uma":7487,"ĠPrin":7489,"ican":7490,"ĠDar":7491,"ĠColorado":7492,"aug":7493,"aos":7495,"ria":7496,"Ġmarked":7498,"Ġ()":7499,"Ġspr":7500,"po":7501,"ĠLink":7502,"ĠJr":7504,"Ġtheme":7505,"Ġpassion":7506,"ĠPen":7507,"Ġinfo":7508,"izer":7509,"Ġshit":7510,"ĠCivil":7511,"apse":7512,"cre":7513,"Ġpoly":7514,"Ġcomponent":7515,"ĠCharles":7516,"ĠIreland":7517,"ĠProv":7518,"Ġdoctors":7519,"Ġgranted":7520,"Ġpaint":7521,"Ġhonor":7522,"Ġsmoke":7523,"Ġpayments":7524,"Ġprimarily":7525,"ĠKingdom":7526,"rich":7527,"atell":7528,"Ġdeals":7529,"Ġscheduled":7530,"Ġfundamental":7531,"Ġprotein":7532,"Ġnewspaper":7533,"Ġclients":7534,"ĠDate":7536,"hus":7537,"Ġfeedback":7538,"Ġstretch":7539,"Ġcock":7540,"Ġhotel":7541,"ĠQueen":7542,"Ġsugar":7543,"Ġju":7544,"Ġmilk":7545,"Ġapproval":7546,"ĠLive":7547,"Ġequivalent":7548,"efully":7549,"Ġinsert":7550,"Ġextension":7552,"dri":7553,"John":7554,"Sm":7556,"ĠFund":7557,"Ġconstantly":7558,"Ġ``":7559,"Ġgenerated":7560,"ĠAction":7561,"ĠPsych":7562,"ĠTri":7563,"Ġrecognize":7564,"Ġvary":7565,"pha":7566,"ĠRa":7567,"df":7568,"etch":7569,"ĠSoviet":7570,"Two":7571,"Ġpatterns":7572,"Ġprofession":7573,"aning":7574,"Time":7575,"ĠLim":7576,"Ġcolors":7577,"ĠAz":7578,"ĠTR":7579,"Ġinfect":7580,"Ġshell":7582,"Also":7583,"Ġputs":7584,"Ġdelivery":7585,"Ġbrown":7586,"Ġprocessing":7587,"Ġlights":7588,"ĠBrook":7590,"ĠAud":7591,"lation":7592,"Ġindustrial":7593,"Like":7594,"ĠBrazil":7595,"rous":7596,"ESS":7597,"ĠLuc":7598,"Ġsomehow":7599,"Ġ85":7600,"Ġpoliticians":7602,"Ġindicate":7603,"Ġhole":7604,"Ġtechniques":7605,"Ġcompetitive":7606,"Ġvo":7608,"istent":7609,"ĠDream":7610,"Ġcampus":7611,"Ġaspects":7612,"Ġhelpful":7613,"Ġshield":7614,"orse":7615,"Ġtrigger":7616,"mal":7617,"Ġ58":7618,"Ġtort":7619,"Ġpersonally":7620,"Ġtag":7621,"Ġkeeps":7622,"ĠVideo":7623,"Ġbench":7624,"Ġgap":7625,"aire":7626,"Ġeast":7627,"Ġrecovery":7628,"perial":7629,"Ġprofit":7630,"ĠMic":7631,"Ġ57":7632,"Ġcolon":7633,"Ġstrongly":7634,"style":7635,"Ġallegations":7636,"han":7637,"Ġreporters":7638,"jo":7639,"rine":7640,"andal":7642,"Ġ03":7643,"Ġflash":7644,"trans":7645,"Ġstrict":7646,"Ġparking":7647,"ĠPakistan":7648,"Ġli":7649,"Ġweird":7650,"ĠEric":7651,"Ġregions":7652,"ĠJun":7653,"Ġintellect":7654,"ĠWH":7655,"oding":7656,"ributes":7657,"upid":7658,"ĠTit":7659,"Ġfinger":7660,"oria":7661,"Ġelev":7662,"ĠField":7663,"Ġconclusion":7664,";;":7665,"Ġfeelings":7666,"Ġextensive":7667,"Ġmixed":7668,"Ġneuro":7669,"vy":7670,"Ġharass":7671,"ĠCirc":7672,"ouch":7673,"Ġterritory":7674,"Ġsuccessfully":7675,"Mar":7676,"Ġlayer":7679,"View":7680,"Ġallies":7681,"ĠThree":7683,"Ġbunch":7684,"Ġnormally":7685,"Ġnetworks":7686,"Ġsacr":7687,"ĠCIA":7688,"bles":7689,"Ġchose":7690,"Ġopponents":7691,"Ġregardless":7692,"Ġpref":7694,"ĠPo":7695,"Ġbridge":7696,"anna":7697,"ĠSilver":7698,"Ġwage":7699,"page":7700,"Ġradical":7702,"ĠLittle":7703,"Ġmanip":7704,"Ġsecretary":7705,"Ġgang":7706,"DR":7707,"FA":7708,"Ġdecent":7709,"ĠSpirit":7710,"Ġuncle":7711,"ĠDevelopment":7712,"Ġinvestors":7713,"Ġwalls":7714,"Ġpublish":7715,"Ġgenerate":7716,"car":7718,"Ġpromote":7719,"Ġcutting":7720,"Ġchest":7721,"Ġdrinking":7722,"Ġcollected":7723,"Ġ72":7724,"Ġhoping":7725,"Ġwarned":7728,"Ġinstructions":7729,"OG":7730,"ĠDid":7731,"ĠAgency":7732,"Ġgear":7733,"Ġcriticism":7734,"ĠFurther":7735,"Ġutil":7736,"anny":7737,"Red":7738,"Ġcounsel":7739,"ĠAsian":7740,"Ġreduction":7741,"pool":7742,"Ġteaching":7743,"Ġdeeply":7744,"iy":7745,"Ġestimates":7746,"Ġchoices":7747,"Ġpermanent":7748,"inem":7749,"kel":7750,"Ġfasc":7751,"pse":7752,"file":7753,"ĠLow":7754,"ĠPerson":7755,"Ġtournament":7756,"Ġmel":7758,"UST":7759,"ĠRay":7760,"azi":7761,"Val":7762,"Ġcontained":7763,"ĠHolly":7764,"Ġwake":7765,"Ġreveal":7766,"Ġprocesses":7767,"ĠISIS":7768,"Ġ09":7769,"Ġblind":7770,"Ġsteel":7771,"ĠBad":7772,"Ġcarefully":7773,"appy":7774,"roit":7775,"Ġgaming":7776,"Ġhouses":7777,"ĠColl":7778,"Ġtruck":7779,"erm":7780,"Ġscored":7781,"return":7783,"bound":7784,"var":7785,"Ġsharp":7786,"Ġafraid":7787,"ĠEX":7788,"amber":7789,"Ġscheme":7791,"NC":7792,"ĠPolit":7793,"Ġdecline":7794,"Ġ1998":7795,"Ġpushing":7796,"Ġpossession":7797,"Ġteachers":7799,"Ġyield":7800,"HA":7801,"ĠDavis":7802,"itled":7803,"########":7804,"Ġrig":7805,"ĠDaniel":7806,"acon":7807,"Ġhide":7808,"uten":7809,"Ġcolleagues":7810,"Ġprinciples":7811,"Ġloud":7812,"Ġsin":7813,"ĠDemon":7814,"Ġstone":7815,"Ġ02":7816,"Ġtaught":7817,"Ġterrible":7818,"Ġstuck":7819,"ĠPolicy":7820,"teen":7821,"Ġimplementation":7822,"ĠBBC":7823,"ĠAPI":7824,"Ġwheel":7825,"allas":7826,"Ġchampions":7827,"player":7829,"Ġrepeatedly":7830,"ĠStill":7831,"Ġlikes":7832,"asty":7833,"ester":7834,"ĠCatholic":7835,"RL":7836,"Ġbath":7837,"Ġnoise":7838,"title":7839,"Ġnorthern":7840,"Part":7841,"Ġmagn":7842,"ĠAsh":7844,"Ġticket":7846,"Ġalongside":7848,"ĠMusic":7849,"Ġriver":7850,"ĠSteel":7851,"ĠCL":7852,"ĠPlayer":7853,"ĠMult":7854,"owing":7855,"rep":7856,"size":7857,"Ġtur":7858,"ĠGeorgia":7859,"raction":7861,"Ġcable":7862,"Ġ59":7863,"Ġwins":7864,"Ġupcoming":7865,"Ġsurvive":7866,"Ġinspired":7867,"ĠEducation":7868,"Ġstatistics":7869,"ĠFoot":7870,"Ġyellow":7872,"ĠPage":7873,".-":7874,"ĠHas":7875,"Ġurban":7876,"Ġax":7877,"\\\"":7879,"Ġquarterback":7880,"Ġregister":7881,"ĠLabor":7882,"Ġabilities":7883,"ĠFamily":7884,"Ġvariable":7885,"ĠPrice":7886,"Ġthin":7888,"ĠEqu":7889,"data":7890,"Ġgotten":7891,"Ġasks":7893,"Ġtail":7894,"Ġexciting":7895,"ĠEffect":7896,"ĠSpanish":7897,"Ġencourage":7898,"inson":7899,"ĠAh":7900,"Ġcommitment":7901,"CS":7902,"Ġrally":7903,"Ġ::":7904,"Ġsubsid":7905,"Ġspin":7906,"Ġcaptured":7907,"2018":7908,"Ġinnoc":7909,"Ġallegedly":7910,"ĠCome":7911,"Ġartists":7912,"ĠNumber":7913,"Ġelectronic":7914,"Ġregional":7915,"apes":7916,"Ġmyth":7918,"prise":7919,"ĠMiller":7920,"ĠEpisode":7922,"bell":7923,"Ġdirected":7924,"Ġextract":7925,"Ġsorry":7926,"Ġvice":7927,"agger":7928,"ĠSupport":7929,"Ġ66":7930,"ĠIron":7931,"Ġwonderful":7932,"Ġgra":7933,"Net":7934,"ione":7935,"Eng":7936,"Ġships":7937,"ikes":7938,"ĠKevin":7939,"itar":7940,"Ġactivists":7941,"true":7942,"ĠArizona":7943,"enth":7944,"ĠDespite":7945,"ĠSE":7946,"Ġhabit":7947,"ernel":7948,"Ġinqu":7949,"Ġabortion":7950,"Ġvoid":7951,"Ġexplicit":7952,"Ġengaged":7953,"Ġangry":7954,"Ġrating":7955,"Ġfrag":7956,"bro":7957,"icking":7958,"dev":7959,"Ġworried":7960,"Ġapartment":7962,"ĠGT":7963,"Ġestate":7964,"ĠConstitution":7965,"emon":7966,"ĠSnow":7967,"Ġcounty":7968,"ĠStephen":7970,"Ġimmigrants":7971,"wind":7972,"ĠNations":7973,"Ġfolks":7974,"Out":7975,"Ġgall":7976,"Ġtargeted":7977,"ĠBon":7979,"ĠLib":7980,"Ġinformed":7981,"Ġ120":7982,"chain":7983,"orough":7985,"Ġdriven":7986,"Ġregularly":7987,"Ġbasket":7988,"Ġprinciple":7989,"Ġstun":7991,"ĠRoman":7993,"ĠAbout":7994,"Ġalert":7995,"Ġdemocracy":7996,"Ġrepresented":7997,"HS":7998,"cers":7999,"parent":8000,"Art":8001,"pack":8002,"rets":8004,"ĠNO":8005,"Ġcapture":8006,"Ħ¢":8008,"Ġannouncement":8009,"Ġhook":8011,"ĠSuch":8013,"Ġrefugees":8015,"ĠVe":8016,"Pol":8017,"Ġrecognized":8018,"lib":8019,"Ġhadn":8020,"Ass":8021,"Ġpilot":8022,"ushing":8023,"Ġreturning":8024,"Ġtrail":8025,"ĠStone":8026,"Ġroutine":8027,"Ġcourts":8028,"Ġfriendly":8030,"ĠItaly":8031,"Ġbreath":8033,"Ġstudio":8034,"NS":8035,"Ġimpressive":8036,"ĠAfghanistan":8037,"inking":8040,"ĠRog":8041,"iary":8042,"color":8043,"sex":8044,"aron":8045,"Ġfault":8046,"ĠNick":8047,"Down":8048,"ĠRose":8049,"ĠSouthern":8050,"XX":8051,"isodes":8052,"List":8053,"600":8054,"Ġoutcome":8055,"err":8056,"Ġelsewhere":8057,"Ġretire":8058,"Ġpounds":8059,"ĠGlobal":8060,"People":8061,"Ġcommunications":8062,"Ġloan":8063,"Ġratio":8064,"ĠEmpire":8065,"Ġgonna":8066,"Ġinvent":8067,"DF":8068,"Ġ1970":8069,"ĠCommon":8070,"pat":8071,"Ġpromised":8072,"Ġdinner":8073,"ĠHom":8074,"Ġcreates":8075,"Ġoperate":8076,"ĠJordan":8078,"etime":8079,"Ġsustain":8080,"Reg":8081,"Ġincredible":8082,"ima":8083,"Ġwarrant":8084,"Ġmm":8085,"Att":8086,"Ġlawsuit":8087,"Ġreviews":8088,"ĠSource":8090,"lights":8091,"ĠFord":8092,"Ġ63":8093,"group":8094,"store":8095,"Ġfeatured":8096,"Ġforever":8097,"Ġpoverty":8098,"ĠPop":8099,"ĠCNN":8100,"azz":8101,"aching":8103,"Ġlaid":8104,"ĠSupp":8105,"Ġfilter":8106,"ena":8107,"ĠCommunity":8108,"Ġcreatures":8109,"uction":8110,"ĠRoyal":8111,"Ġassociation":8112,"ĠConnect":8113,"ĠBrad":8114,"âĸĪ":8115,"lers":8116,"there":8117,"ĠGi":8118,"Ġvaluable":8119,"ACK":8120,"ĠTaylor":8121,"Ġliquid":8122,"ĠAttorney":8123,"ĠCarl":8124,"ĠFinal":8125,"aga":8126,"ĠWilson":8127,"Because":8128,"ĠProfessor":8129,"aka":8130,"Ġincredibly":8131,"rance":8132,"!)":8133,"Ref":8134,"sk":8135,"Ġsolutions":8136,"Ġatmosphere":8137,"Ġblame":8138,"umes":8139,"CA":8141,"umps":8142,"rical":8143,"ĠPutin":8144,"oric":8146,"ĠPA":8147,"Ġrespectively":8148,"wan":8149,"Ġfifth":8150,"âĦ¢":8151,"ĠCry":8152,"Ġgovernor":8153,"Ġpurchased":8155,"Ġhack":8156,"Ġintense":8157,"obs":8158,"Ġorigin":8159,"Ġdefine":8160,"Ġcareful":8161,"***":8162,"Ġshoulder":8163,"Click":8164,"Ġtied":8165,"Ġdestruction":8166,"oured":8167,"Ġnobody":8168,"Ġho":8169,"Ġtip":8171,"\";":8172,"Ġtechnique":8173,"Ġjur":8174,"bow":8176,"Ġlegend":8177,"Ġaccord":8178,"Ġbusy":8179,"ĠIntel":8180,"Ġhang":8181,"aki":8182,".]":8183,"âĢĶâĢĶâĢĶâĢĶ":8184,"Ġsurgery":8185,"Ġreprodu":8186,"Ġuniform":8187,"Ġscenes":8188,"code":8189,"Ġ62":8190,"ĠHave":8192,"Ġcrypt":8194,"Ġrecon":8195,"Ġscream":8196,"Ġadopted":8197,"Ġscores":8198,"Ne":8199,"ĠItalian":8200,"including":8201,"BO":8202,"Ġindicated":8203,"Ġentertain":8204,"Gu":8205,"Text":8206,"iel":8207,"Ġtwenty":8208,"Ġengage":8209,"offs":8210,"ĠPacific":8211,"Ġsmile":8212,"Ġpersonnel":8213,"Ġtoler":8214,"Ġdoors":8215,"Ġtone":8216,"Ġmachines":8217,"Ġentering":8218,"tenance":8219,"CO":8220,"ĠJersey":8221,"Ġforest":8222,"Ġhorse":8223,"Ġcomplaint":8224,"ĠSpring":8225,"yo":8226,"ĠPlus":8227,"eding":8228,"ĠReturn":8229,"quarters":8230,"ials":8231,"Ġacademic":8233,"Ġfruit":8234,"Ġ1996":8235,"ogether":8236,"Ġwine":8237,"ĠSteven":8239,"Who":8241,"Ġclothes":8242,"rection":8243,"Ġsquad":8244,"Ġstable":8245,"Ġraw":8246,"Star":8248,"ancer":8250,"Ġkeys":8251,"ĠMu":8252,"Ġcomplicated":8253,"iger":8254,"ĠText":8255,"Ġ68":8257,"Ġfunny":8258,"Ġrelief":8259,"ĠLew":8260,"ĠCook":8261,"Ġchart":8262,"Ġdrawing":8263,"GE":8264,"Ġmodule":8265,"ĠBull":8266,"ILL":8267,"Ġsalt":8268,"00000000":8269,"ille":8270,"Ġresource":8271,"away":8272,"ĠBru":8274,"Ġ67":8275,"Ġsomebody":8276,"Ġparticipate":8277,"Ġrose":8278,"Ġmuscle":8280,"Ġconsent":8281,"Ġcontinuing":8282,"ĠGuardian":8283,"ĠOrder":8284,"Ġrear":8286,"Ġprovision":8287,"Ġliked":8288,"rient":8289,"Ġbra":8290,"Trans":8291,"Ġmeetings":8292,"Ġauto":8295,"Ġrecording":8296,"ĠSoft":8297,"001":8298,"ĠRoll":8299,"Ġprogramming":8300,"Ġpic":8301,"Ġproved":8302,"Ġstab":8303,"ĠAst":8304,"Ġcaption":8305,"ulating":8306,"ĠAttack":8307,"Ġnewly":8308,"Ġ1997":8309,"fr":8310,"ĠGreek":8312,"Ġedition":8313,"ĠDoes":8314,"ĠBox":8315,"ifle":8316,"acket":8317,"Ġpasses":8318,"Ġguest":8319,"Ġacceler":8320,"UD":8322,"ĠRest":8324,"oval":8325,"ta":8326,"uine":8327,"Ġarmor":8328,"ĠTown":8329,"Ġinches":8331,"Despite":8332,"Ġassign":8333,"herent":8334,"Ġprepare":8335,"ĠMeg":8336,"ockey":8337,"Ġdepends":8338,"Ġtracks":8339,"watch":8340,"Ġlists":8341,"ĠNorthern":8342,"Ġalter":8343,"rec":8344,"ĠEastern":8345,"Ġeverywhere":8347,"?'":8348,"Ġfought":8350,"Ġmac":8352,"itarian":8353,"Ġscope":8354,"ĠAL":8355,"aws":8356,"arms":8357,"Ġque":8358,"Ġenjoyed":8359,"Ġaggressive":8361,"ĠStory":8362,"ĠIV":8363,"Ġrecipe":8364,"Ġrarely":8365,"ĠMedical":8366,"value":8367,"angel":8368,"aying":8369,"Ġsouthern":8372,"Ġfrequency":8373,"rete":8374,"rolled":8375,"ĠNic":8377,"Ġbehalf":8378,"Ġsequence":8379,"abet":8380,"Ġcontroversial":8381,"Ġworker":8383,"Ġmainly":8384,"ĠMajor":8386,"gender":8388,"Ġorganized":8389,"Ġfake":8390,"Ġconcluded":8391,"ĠED":8392,"rage":8394,"Ġchances":8395,"berry":8396,"ĠTrad":8397,"Ġconfiguration":8398,"Ġwithdraw":8399,"udes":8401,"ĠBrother":8402,"ĠBrian":8403,"Ġtries":8404,"Ġsamples":8405,"Ġbid":8406,"ĠGolden":8407,"Ġphotograph":8408,"ĠDO":8410,"ĠParliament":8411,"****************":8412,"Rem":8413,"Ġcontest":8414,"Ġsigning":8415,"px":8416,"âĶĢâĶĢ":8418,"Ear":8419,"Ġexit":8420,"Before":8421,"null":8423,"month":8424,"Ġracial":8425,"otted":8426,"ĠReuters":8428,"Ġsword":8429,"ĠRomney":8431,"aed":8432,"Ġtrib":8433,"Ġinner":8434,"Ġprotocol":8435,"ĠBi":8436,"ĠMiami":8437,"press":8439,"Ġshipping":8440,"ĠAmendment":8441,"ĠHoward":8442,"connect":8443,"ĠDisc":8444,"ĠJac":8445,"iamond":8446,"ĠTherefore":8447,"ses":8448,"ĠPrincess":8449,"ĠUSB":8450,"Ġsurveillance":8452,"Ġapolog":8453,"Ġ61":8454,"owa":8455,"js":8457,"Ġluck":8458,"usted":8459,"ĠÂ§":8460,"ni":8461,"eman":8463,"Ġwinner":8464,"Ġsilver":8465,"lla":8466,"icity":8467,"Ġunusual":8468,"Ġcrack":8469,"Ġties":8470,"ez":8471,"Ġpractical":8472,"Ġprovince":8473,"ĠPlace":8474,"Ġpriority":8475,"ICE":8476,"Ġdescribes":8477,"Ġbranch":8478,"Form":8479,"aska":8480,"missions":8481,"bi":8482,"Ġporn":8483,"ĠTurk":8484,"Ġfighters":8486,"Ġ08":8487,"ĠDetroit":8488,"Ġfoundation":8489,"Are":8491,"Ġjudgment":8492,"cling":8493,"Ġsolve":8494,"ĠDesign":8495,"Where":8496,"hesis":8497,"ĠTro":8498,"after":8499,"Ġneutral":8500,"ĠPalestinian":8501,"ĠHollywood":8502,"ĠNon":8504,"yes":8505,"Ġreputation":8507,"Ġsmell":8508,"Ġbread":8509,"ĠBul":8510,"ĠBeach":8511,"Ġclaiming":8512,"Ġgenetic":8513,"Ġtechnologies":8514,"Ġupgrade":8515,"rows":8516,"Ġdeveloper":8517,"ĠJosh":8518,"ĠDisney":8519,"erved":8520,"ipal":8521,"Ġbarely":8523,"then":8524,"ĠPub":8525,"Ġillness":8526,"etary":8527,"ĠBal":8528,"Ġpatch":8529,"Ġbutt":8530,"Ġstupid":8531,"ĠDog":8532,"ĠDallas":8533,"front":8534,"iece":8535,"Ġprotests":8536,"Ġchat":8537,"Ġwing":8539,"Ġparliament":8540,"Ġ77":8541,"osexual":8542,"Ġrender":8543,"ptions":8544,"ĠCoast":8545,"osa":8546,"ĠGreg":8547,"hop":8548,"ĠManagement":8549,"Ġbitcoin":8550,"Ġrecover":8551,"orne":8553,"ĠUsing":8554,"Ġpreced":8555,"Ġthreatened":8556,"Ġspiritual":8557,"ĠEvent":8558,"ĠFred":8559,"Ġadvertising":8560,"Ġimprovements":8561,"ĠCustom":8562,"Ġerrors":8563,"Ġsensitive":8564,"ĠNavy":8565,"Ġcream":8566,"Look":8567,"Ġexclusive":8568,"Ġconce":8571,"Ġstructures":8573,"Ġstored":8574,"ND":8575,"Ġ1000":8576,"UP":8577,"AF":8579,"woman":8580,"ĠAcademy":8581,"ðŁ":8582,"sea":8583,"Ġtemporary":8584,"About":8585,"Ġtickets":8587,"Ġpossess":8588,"inch":8589,"oz":8590,"Ġla":8591,"Ġcontracts":8592,"Ġunp":8593,"ĠKat":8595,"asm":8597,"Ġmountain":8598,"ĠCaptain":8599,"Step":8600,"making":8601,"ĠSpain":8602,"Ġequally":8603,"Ġlands":8604,"aters":8605,"Ġrejected":8606,"era":8607,"imm":8608,"rix":8609,"CD":8610,"Ġtransaction":8611,"gener":8612,"lessly":8613,"Ġ||":8614,"Ġcos":8615,"ĠHenry":8616,"Ġprovisions":8617,"Ġgained":8618,"Ġdirectory":8619,"Ġraising":8620,"ĠSep":8621,"olen":8622,"onder":8623,"Ġconsole":8624,"inst":8625,"Ġuncertain":8627,"150":8628,"ocking":8629,"Ġmeasured":8630,"Ġplain":8631,"Ġseats":8632,"Ġdict":8633,"SL":8634,"afe":8635,"Ġestimate":8636,"izon":8637,"Ġcontributed":8639,"Ġepisodes":8640,"Gr":8642,"ANT":8643,"Ġ69":8644,"Gener":8645,"Ġ250":8646,"viously":8647,"rogen":8648,"Ġterrorism":8649,"Ġmovements":8650,"ounce":8652,"ĠSoul":8653,"ĠTable":8655,"acts":8656,"tab":8658,"Ġsuffer":8659,"Ġmainstream":8661,"ĠWolf":8662,"Ġfranchise":8663,"bat":8664,"Ġdemands":8665,"Ġagenda":8666,"Ġdozen":8667,"Ġclinical":8668,"izard":8669,"ĠOp":8670,"td":8671,"Ġvisited":8672,"ĠPerhaps":8673,"Ġactor":8674,"Ġdelic":8675,"Ġcontribute":8676,"Ġinject":8677,"ĠEs":8678,"acco":8679,"Ġlistening":8680,"Ġcongress":8681,"Ġpremium":8683,"Ġ76":8684,"ĠIrish":8685,"Ġassigned":8686,"ĠPhys":8687,"Ġworldwide":8688,"Ġnarrative":8689,"otype":8690,"mont":8691,"base":8692,"ĠBowl":8693,"ĠAdministration":8694,"Ġrelation":8695,"ĠEV":8696,"CP":8697,"Ġcovers":8698,"Ġ78":8699,"Ġgrass":8701,"Ġ04":8702,"piracy":8703,"ira":8704,"Ġengineering":8705,"ĠMars":8706,"ĠForeign":8708,"Ġven":8710,"Ġsteal":8711,"Ġreplied":8712,"Ġultimate":8713,"Ġtitles":8714,"Ġjoy":8716,"aus":8717,"Ġhyper":8718,"aku":8719,"Ġofficially":8720,"ĠProduct":8721,"Ġdifficulty":8722,"peror":8723,"Ġresulted":8724,"ribed":8725,"link":8726,"who":8727,"~~~~":8728,"ĠSpeed":8729,"Wind":8731,"ĠBarack":8732,"Ġrestrictions":8733,"ĠShare":8734,"Ġ1995":8735,"itionally":8736,"Ġbeauty":8737,"opt":8738,"Ġmaps":8739,"ĠCR":8740,"ĠNation":8741,"ĠCruz":8742,"Will":8743,"Ġelectricity":8744,"Ġorg":8745,"Ġviolation":8747,"Ġusage":8748,"Ġpermit":8749,"ĠFant":8751,"Ġnaturally":8752,"Ġ07":8753,"Ġthrown":8754,"Ġalien":8756,"ĠHero":8757,"ĠKent":8758,"ĠRick":8759,"Ġpace":8761,"GL":8763,"Ġpoison":8764,"ĠTower":8765,"Ġformal":8766,"alysis":8767,"Ġgenuine":8768,"Ġkil":8769,"aver":8770,"Ġprocedure":8771,"ĠProp":8772,"ĠMain":8774,"asant":8775,"Ġtrained":8776,"Game":8777,"ĠLoad":8778,"ĠMA":8779,"Ġcrucial":8780,"Ġlets":8781,"ĠFR":8782,"Ġchampion":8783,"101":8784,"ĠConference":8785,"Ġwriters":8786,"Ġconnections":8787,"Ġokay":8788,"irms":8789,"ĠRand":8790,"Ġencounter":8791,"ĠBuff":8792,"Ġachieved":8793,"Ġchecks":8794,"Ġassistant":8796,"Ġwhenever":8797,"ĠAccess":8798,"ĠUr":8799,"bin":8800,"Ġclock":8801,"isp":8802,"Ġborrow":8804,"Ġmad":8805,"Ġpersonality":8806,"only":8807,"IST":8808,"Ġgains":8810,"Ġcommonly":8811,"Ġterr":8812,"Ġrely":8814,"function":8818,"ĠOregon":8819,"Ġuncom":8820,"rating":8821,"eland":8822,"ĠNC":8823,"Ġmoon":8824,"annon":8825,"Ġvulnerable":8826,"utive":8827,"ĠRadio":8829,"Ġwestern":8830,"sect":8831,"ĠTony":8832,"Ġoccurs":8833,"ĠOs":8834,"ĠHon":8835,"ÃŃ":8836,"Ġvessel":8837,"ĠScotland":8838,"Ġdiscrimination":8839,"Ġsubsequent":8840,"string":8841,"Ġfantasy":8842,"ĠShadow":8843,"WE":8845,"iti":8846,"ras":8847,"Ġboat":8848,"Ġmarks":8849,"Ġordinary":8850,"Ġren":8851,"Ġrepresentative":8852,"Ġpetition":8853,"Ġ73":8854,"Ġadventure":8855,"Ġignore":8856,"ĠPhiladelphia":8857,"ĠSav":8858,"VP":8859,"Ġfactory":8860,"Ġtasks":8861,"Ġdepression":8862,"zed":8863,"................................":8864,"ĠStorm":8865,"Ġcogn":8866,"Ġeligible":8867,"Ġreducing":8868,"via":8869,"Ġ05":8870,"Ġstriking":8871,"Ġdollar":8872,"ho":8873,"OV":8874,"Ġinstrument":8875,"Ġphilosophy":8876,"ĠMoore":8877,"ĠAvenue":8878,"Ġruled":8879,"ĠFront":8880,"INE":8881,"ĠMah":8882,"Ġscenario":8883,"ĠNASA":8884,"Ġenorm":8885,"Ġdebut":8886,"Ġtea":8887,"Today":8888,"Ġabsence":8889,"Sim":8890,"Ġham":8891,"Ġtables":8893,"ĠHeart":8894,"MI":8895,"Ke":8896,"requ":8897,"VD":8898,"map":8899,"Ġchairman":8900,"Ġpump":8901,"Ġrapidly":8902,"vi":8903,"Ġsubstantial":8904,"EP":8905,"des":8906,"chant":8907,"ĠSanta":8909,"riers":8910,"Load":8912,"ĠCase":8913,"Ġsaving":8914,"Ġ74":8915,"ĠAFP":8916,"ounced":8918,"ĠMinnesota":8919,"ĠWas":8920,"Ġassessment":8922,"ĠBron":8923,"UE":8924,"Ġdynamic":8925,"ulator":8927,"Ġpropag":8928,"high":8929,"Ġstack":8931,"ĠSus":8932,"writ":8933,"ĠZealand":8936,"abs":8937,"Ġperpet":8939,"hot":8940,"Ġhardly":8941,"ĠBurn":8942,"ãĤ¹":8943,"Ġtransactions":8945,"Ġgate":8946,"Ġscreens":8947,"Ġsubmitted":8948,"Ġ101":8949,"Ġlanguages":8950,"emen":8952,"Ġfalls":8953,"Ġcoc":8954,"Ĥ¬":8955,"Ġstrikes":8956,"pa":8957,"Ġdeliber":8958,"ĠIM":8959,"Ġrelax":8960,"ĠSenator":8962,"Ġ},":8964,"ĠDeb":8965,"Ġbell":8966,"Ġdisorder":8967,"cut":8968,"ĠiOS":8969,"Ġlocked":8970,"Ġemissions":8971,"Ġshortly":8972,"\"]":8973,"ĠJudge":8974,"ĠSometimes":8975,"Ġrival":8976,"Ġdust":8977,"Ġreaching":8978,"File":8979,"ĠJason":8982,"aret":8984,"Ġstations":8985,"ĠTechnology":8987,"ĠUnfortunately":8989,"ĠChildren":8990,"Ġapplies":8991,"asted":8992,"Ġanger":8993,"ĠDamage":8995,"Ġcompare":8996,"ĠStandard":8997,"Ġaimed":8998,"ĠBa":8999,"Ġregulation":9001,"Ġjury":9002,"Ġairport":9003,"Ġsections":9004,"ĠPrince":9005,"Ġmedicine":9007,"Ġhitting":9008,"Ġspark":9009,"olves":9010,"Ġads":9011,"State":9012,"Ġfoods":9013,"Ġreplacement":9014,"Ġchicken":9015,"Ġlowest":9016,"Ġminds":9017,"Ġinvolves":9018,"ui":9019,"Ġprocedures":9021,"ĠWhich":9022,"iversary":9023,"Ġbills":9024,"Ġimprovement":9025,"Ġexpectations":9027,"Ġintellectual":9028,"Ġspaces":9029,"Ġmechanism":9030,"250":9031,"break":9032,"ĠZe":9033,"ĠTenn":9034,"Ġbarrel":9036,"Ġstatic":9037,"mann":9038,"Police":9039,"Ġtips":9040,"Ġhandling":9041,"cus":9042,"oded":9043,"iry":9045,"Ġjournalists":9046,"Ġcomic":9048,"ITY":9050,"Ġversus":9051,"Ġloop":9052,"Ġsurf":9053,"ĠHunter":9055,"Ġbeliefs":9056,"isan":9057,"Ġsetup":9058,"Ġbrew":9059,"image":9060,"Ġcomputers":9061,"fol":9062,"ĠMedal":9064,"Ġdisplayed":9066,"Ġgrav":9067,"Ġfiscal":9068,"Mon":9069,"ĠMoscow":9070,"ĠKong":9071,"ĠCentre":9072,"Ġcameras":9073,"ĠMrs":9074,"ĠHay":9075,"ĠKelly":9077,"py":9078,"Ġrequirement":9079,"Ġentitled":9080,"Ġshadow":9082,"agic":9083,"ĠAk":9084,"Ġelite":9085,"Ġdivided":9086,"Ġheading":9087,"Ġcopies":9088,"Ġlosses":9089,"Ġvit":9090,"ked":9091,"ĠBry":9092,"Ġans":9093,"ĠSteam":9094,"Ġreporter":9095,"heim":9096,"ĠItem":9097,"Ġsuperior":9098,"don":9099,"erent":9100,"Ã¶":9101,"Ġtherapy":9102,"Ġpeak":9103,"ĠModel":9104,"Ġlying":9105,"Ġgam":9106,"zer":9107,"Ġresponses":9109,"Ġconsideration":9110,"ĠBible":9111,"Ġloyal":9112,"Ġinstant":9113,"Ġpm":9114,"ĠForest":9115,"Ã¼":9116,"Ġextend":9117,"Ġconvicted":9118,"Ġfounder":9119,"ĠOak":9121,"check":9122,"Ġscholars":9123,"ped":9124,"Top":9126,"count":9127,"ĠArk":9128,"Â·":9129,"Ġ06":9130,"ĠLA":9131,"md":9132,"ĠLatin":9133,"ĠCPU":9135,"Ġsubstance":9136,"Ġminority":9137,"Ġmanufacturing":9138,"Er":9139,"Ġattended":9141,"ĠManager":9142,"Ġappreciate":9144,"omy":9145,"BL":9148,"Ġguarantee":9149,"position":9150,"Ġocean":9151,"Ġheaded":9153,"Ġtape":9154,"Ġloose":9155,"Ġlogic":9156,"Ġproven":9157,"Ġspir":9158,"Ġadmit":9159,"isa":9160,"Ġinvestigate":9161,"Ġ1994":9162,"ĠLost":9164,"Ġ71":9166,"Ġrequested":9167,"Ġwindows":9168,"ĠWithout":9170,"Met":9171,"Ġbehaviour":9172,"Ġreader":9173,"Ġhung":9174,"ĠKeep":9175,"Ġroles":9176,"Ġimplemented":9177,"Ġblank":9178,"Ġserves":9179,"ĠJay":9180,"Ġcited":9181,"ĠFriend":9182,"profit":9183,"apon":9184,"Ġrepair":9185,"item":9186,"Ġcritics":9188,"adi":9189,"ĠFather":9190,"Ġshout":9191,"Ġfool":9192,"Ġ88":9193,"Ġproducing":9194,"Ġlib":9195,"Ġrounds":9196,"Ġcircle":9197,"Ġsubmit":9199,"Ġnic":9200,"ãĥ«":9202,"Under":9203,"Ġvital":9204,"Ġpassword":9206,"Ġpublication":9207,"Ġprominent":9208,"Ġspeaks":9209,"Ġbars":9210,"Ġdeeper":9211,"ĠMill":9212,"ported":9213,"Ġwid":9214,"Ġbutter":9215,"Ġsmoking":9216,"Ġindicates":9217,"Key":9218,"ropri":9219,"ĠFile":9220,"alling":9221,"asting":9222,"ĠRus":9223,"Ġ79":9225,"aval":9226,"onic":9229,"Ġfur":9230,"Ġpolls":9231,"ika":9232,"Ġsecondary":9233,"Ġmonster":9234,"igs":9235,"ĠCurrent":9236,"Event":9237,"Ġownership":9238,"Ġarrive":9240,"ĠTax":9241,"Ġnull":9242,"ĠPriv":9243,"Ġkiss":9245,"cat":9246,"Ġupset":9247,"angle":9248,"ector":9250,"ologists":9251,"ĠGalaxy":9252,"Ġcorruption":9253,"Ġhint":9254,"enter":9255,"ĠHospital":9256,"Ġgreatly":9257,"Ġbegun":9258,"esy":9259,"Ġsoil":9260,"ĠAnton":9261,"Ġmaintenance":9262,"ãĥ©":9263,"Ġdozens":9264,"Ġhumanity":9265,"ĠAlabama":9266,"Ġrom":9267,"worth":9268,"aping":9269,"lah":9271,"Ġgathered":9272,"GA":9273,"Ġattacking":9274,"found":9275,"ĠSquare":9276,"Ġarbit":9277,"ictions":9278,"ĠWisconsin":9279,"Ġdance":9280,"ĠSaint":9281,"archy":9282,"Ġbaseball":9283,"Ġcontributions":9284,"Ġliterature":9285,"test":9288,"Ġcontainer":9290,"Ġfallen":9292,"Ġwebsites":9293,"Ġbottle":9294,"Ġbreast":9296,"ĠPL":9297,"Ġveteran":9298,"Ġinterviews":9299,"ĠAle":9300,"Ġbanned":9301,"engers":9302,"ĠRevolution":9303,"inth":9304,"Ġconcerning":9305,"IVE":9306,"Ġexpenses":9307,"ĠMatthew":9308,"ĠColumbia":9309,"ds":9310,"istance":9311,"Ġentity":9312,"...\"":9313,"Ġreliable":9314,"ĠChristians":9316,"Ġopinions":9317,"low":9319,"Ġcompete":9320,"Ġthorough":9321,"Ġemployed":9322,"Ġestablishment":9323,"igen":9324,"ĠCro":9325,"Ġlawyers":9326,"ĠStation":9327,"TE":9328,"ĠLind":9329,"ĠPur":9330,"itary":9331,"Ġefficiency":9332,"âĢĲ":9333,"ĠLy":9334,"Ġmask":9335,"Ġdisaster":9336,"Ġages":9337,"ERE":9338,"esis":9339,"ĠHold":9340,"Ġcasual":9341,"bled":9342,"Ġenabled":9343,"ĠEnvironment":9344,"ĠIntelligence":9345,"iper":9346,"ĠMap":9347,"ĠBE":9348,"Ġemerged":9349,"Ġcabin":9351,"Ġregistration":9352,"Ġfingers":9353,"Ġroster":9354,"Ġframework":9355,"ĠDoctor":9356,"Ġtransportation":9358,"Ġawareness":9359,"Her":9360,"Ġattempting":9361,"Off":9362,"ĠStore":9363,"ĠKnow":9365,"Ġdefence":9366,"Ġscan":9367,"ĠTen":9368,"ĠChair":9369,"ĠPH":9370,"ĠAtlanta":9371,"Ġfucking":9372,"Ġanswered":9373,"bn":9374,"ĠKar":9375,"Ġcategories":9376,"Ġrational":9377,"Ġcust":9378,"Ġrobot":9379,"Ġcorrectly":9380,"Ġgif":9381,"Ġgraphics":9382,"mic":9383,"Ġgrounds":9384,"ĠOpp":9385,"iate":9386,"Ġdistributed":9387,"Ġsanctions":9388,"Ġchallenging":9389,"uto":9390,"Ġingredients":9391,"Ġinvited":9392,"Ġfounded":9393,"ĠRequ":9394,"ded":9395,"Ġbowl":9396,"Ġbrothers":9397,"ĠHa":9398,"IO":9399,"Ġwages":9400,"ocial":9402,"Ġseed":9403,"atively":9404,"Ġaddresses":9405,"ĠIowa":9406,"Ġattitude":9408,"isd":9409,"child":9410,"Ġdiscovery":9412,"yard":9413,"Br":9414,"Ġ82":9415,"Ġsupplies":9416,"elling":9417,"CR":9419,"Ġswim":9422,"bec":9423,"door":9424,"ĠYeah":9425,"Ġgal":9426,"Ġinteract":9427,"ĠCS":9429,"amps":9430,"Ġconvinced":9431,"Ġobjective":9432,"Ġdish":9433,"ĠPhotos":9434,"lad":9435,"Ġdowntown":9436,"oil":9437,"Ġtomorrow":9439,"ĠCOM":9440,"Ġsurvival":9441,"shot":9442,"Ġsettlement":9443,"Cons":9444,"ĠXbox":9445,"interest":9446,"ĠSM":9447,"argo":9448,"eness":9449,"Ġethnic":9450,"Min":9452,"ĠTok":9453,"ĠCommand":9455,"Ġmaintained":9456,"Ġbreaks":9457,"bridge":9458,"atar":9459,"agg":9460,"ĠFinally":9461,"ĠOnt":9463,"left":9464,"Ġrecognition":9465,"Ġ*/":9466,"ĠPers":9467,"Ġaddressed":9469,"ĠKansas":9470,"Ġvirus":9471,"Ġwhereas":9472,"Ġpapers":9473,"rams":9474,"ĠMinistry":9475,"Ġpleasure":9476,"Ġacquired":9477,"Ġduration":9478,"jpg":9479,"Ġcalm":9480,"ĠNHL":9481,"Ġburning":9482,"Ġfolder":9483,"icked":9484,"ĠPy":9485,"ĠIllinois":9486,"Class":9487,"Ġperforming":9489,"Ġwelfare":9490,"jar":9491,"Inter":9492,"Ġlin":9493,"Ġenhance":9494,"Ġnotion":9495,"fare":9496,"ĠArea":9498,"Ġcannabis":9499,"ĠDiego":9500,"fs":9501,"ĠManchester":9502,"comm":9503,"inite":9504,"Ġcovering":9505,"ĠSound":9506,"Ġ1960":9507,"Ġ84":9508,"elect":9509,"zing":9510,"Ġcitizen":9511,"Ġphones":9512,"Ġraid":9513,"Ġignored":9514,"ĠObject":9515,"Ġupload":9516,"card":9517,"Ġmodified":9518,"Ġrooms":9519,"iah":9520,"range":9521,"Ġsuggesting":9524,"âĢĭ":9525,"grade":9526,"El":9527,"Ġclothing":9528,"Ġrh":9529,"ĠHan":9530,"unity":9531,"encing":9532,"ĠAustin":9533,"tra":9535,"dem":9536,"ĠQual":9537,"Ġheaven":9538,"Ġstages":9539,"Ġwedd":9540,"plus":9541,"ificial":9542,"ĠImm":9543,"ĠHo":9544,"ieties":9545,"Ġphrase":9546,"Ġbrill":9547,"actory":9548,"Ġproviders":9549,"Ġsilence":9550,"Ġaer":9551,"ĠAI":9552,"ĠAdventure":9553,"Ġplatforms":9554,"Ġdemonstrated":9555,"Ġinterf":9556,"ington":9557,"Ġraces":9558,"Ġgrade":9559,"ĠThrough":9561,"false":9562,"Ġbow":9563,"ĠAB":9564,"Ġflavor":9565,"Ġhistoric":9566,"gov":9567,"Ġcolour":9568,"Ġviewed":9569,"ĠEmail":9570,"elcome":9571,"Ġintervention":9572,"Ġdiversity":9573,"Ġperiods":9574,"Ġreverse":9575,"ĠVery":9576,"Ġquote":9577,"ĠLeft":9578,"through":9579,"Ġscrew":9580,"Ġlanding":9581,"Ġpill":9582,"Ġwet":9583,"Ġprotesters":9584,"Ġrepeat":9585,"aved":9586,"erk":9587,"Ġsalary":9588,"ĠPennsylvania":9589,"Still":9590,"Ġmayor":9591,"Ġkitchen":9592,"Ġfeaturing":9593,"ĠMuseum":9594,"ĠTournament":9595,"ĠFal":9596,"Ġservers":9597,"UC":9598,"Ġanybody":9599,"img":9600,"ĠTrade":9601,"Ġfinance":9604,"Ġclosing":9605,"iac":9607,"abel":9608,"Ġ>>":9609,"orous":9610,"Ġfirms":9611,"screen":9612,"una":9613,"ulse":9615,"Ġletting":9616,"Ġthrew":9617,"iley":9618,"Ġchannels":9619,"lan":9620,"ĠVegas":9621,"Ġfantastic":9623,"uzzle":9625,"ĠDer":9626,"Those":9627,"Ġswing":9628,"Ġsheet":9629,"index":9630,"cover":9631,"ogan":9632,"Ġvariables":9633,"ĠTech":9634,"Ġspoken":9635,"ĠDa":9637,"ĠMountain":9638,"Ġloaded":9639,"Ġfootage":9640,"version":9641,"ĠPhoenix":9643,"Ġthrowing":9644,"Ġfiring":9645,"Ġtracking":9646,"Ġwidth":9647,"Ġstruggling":9648,"rooms":9649,"otion":9650,"Ġmonthly":9651,"ĠServer":9652,"Ġeggs":9653,"open":9654,"MC":9655,"Ġ1993":9656,"Ġhired":9657,"Ġstayed":9658,"ĠAllen":9659,"Ġstro":9660,"Ġ98":9661,"step":9662,"ĠTurkish":9663,"Ġfabric":9664,"isting":9665,"ĠDom":9666,"Ġdates":9667,"Ġpron":9668,"Ġbasketball":9669,"Ġlucky":9670,"ĠArabia":9671,"Ġassumed":9672,"esty":9673,"Ġaffairs":9674,"Ġglad":9675,"ĠIndeed":9676,"ĠFA":9677,"ĠWord":9678,"Ġjoining":9679,"ĠSelect":9683,"Ġpopulations":9684,"aware":9685,"Ġnose":9686,"Ġcomplaints":9687,"start":9688,"Ġscoring":9689,"Thanks":9690,"Ġmining":9691,"Ġvisitors":9692,"SH":9693,"Ġdamaged":9694,"Ġcharacteristics":9695,"ĠPent":9696,"DC":9697,"Ġ83":9698,"ĠSix":9699,"rates":9700,"Ġflags":9701,"ĠBrew":9702,"dog":9703,"Mark":9704,"////":9705,"Ġexecution":9706,"Ġjoke":9707,"phones":9708,"Ġtestimony":9709,"QL":9711,"ĠCut":9712,"Ġstudied":9713,"ĠNintendo":9714,"icket":9715,"ĠNBC":9716,"Ġlad":9717,"ĠBra":9718,"ĠMoh":9719,"Ġkernel":9720,"Ġoverwhelming":9721,"Ġaged":9722,"Ġapplicable":9723,"ĠCond":9724,"Ġroads":9725,"ĠBlock":9726,"made":9727,"odge":9728,"Ġcommands":9729,"Ġoffices":9730,"Ġtut":9732,"Ġreceiver":9733,"ĠFro":9734,"Ġshopping":9735,"ĠiP":9736,"ĠStre":9737,"ĠABC":9738,"Ġentertainment":9739,"ĠBow":9740,"orted":9741,"Mc":9742,"Ġreads":9743,"grad":9744,"ĠCollect":9745,"ĠâĪĴ":9746,"ĠCapital":9747,"Ġemployer":9749,"Ġinvolvement":9750,"Ġanxiety":9751,"alia":9752,"Ġroof":9753,"ĠAmong":9754,"ĠDemocrat":9755,"Ġstats":9756,"ĠVill":9757,"Ġconstitutional":9758,"Ġreferring":9759,"itty":9760,"Ġtackle":9761,"outube":9762,"Ġbacked":9763,"ĠHong":9764,"ĠBroad":9765,"Ġele":9766,"Ġ1992":9768,"hour":9769,"Cal":9771,"Ġdefeated":9772,"Ġ81":9773,"esp":9774,"Ġseemingly":9775,"was":9776,"Ġgene":9779,"Ġdiscount":9780,"Ret":9781,"ECT":9782,"();":9783,"Ġclubs":9784,"Ġsid":9785,"ĠMarsh":9786,"Check":9787,"Ġpp":9788,"Ġbeings":9791,"FT":9792,"Ġintroduction":9793,"ĠChange":9794,"ARD":9795,"Ġ110":9796,"adows":9797,"ierce":9798,"Ġmeal":9799,"author":9800,"ĠBang":9801,"lahoma":9802,"Ġranks":9803,"2011":9804,"????":9805,"max":9806,"Ġcollapse":9807,"Ġopens":9808,"Ġecho":9809,"Ġracist":9811,"Ġenormous":9812,"Ġwaves":9813,"Ġtap":9814,"Ġcomprehensive":9815,".--":9816,"ĠRoy":9817,"Ġfarmers":9818,"Related":9819,"rones":9821,"Ġproportion":9823,"Ġdesigns":9824,"Ġnegotiations":9825,"Ġvirtually":9826,"ĠBatman":9827,"Ġwarn":9828,"Ġlegitimate":9829,"mate":9830,"Ġconvention":9831,",,":9832,"netic":9833,"ĠSD":9834,"Ġconsistently":9835,"Ġcompensation":9836,"Ġpunishment":9837,"Ġye":9838,"Ġtie":9839,"ĠBureau":9840,"ĠBu":9842,"Ġknife":9845,"Ġmemories":9846,"ĠRoss":9847,"Ġangle":9848,"Ġ86":9849,"ĠThunder":9850,"Ġrend":9851,"ĠTour":9852,"Ġcounts":9853,"ĠImp":9855,"Ġeducational":9856,"Ġaccessible":9857,"COM":9858,"Ġdrew":9859,"yer":9860,"Gl":9861,"amine":9862,"ORT":9863,"OB":9864,"IB":9865,"master":9866,"Ġtrials":9867,"ogy":9868,"har":9869,"ĠTrust":9870,"Ġpreferred":9871,"Ġbin":9874,"Ġcow":9875,"Page":9876,"Ġsignature":9877,"ĠBL":9878,"700":9879,"Ġretired":9880,"Ġbytes":9881,"ĠLegend":9883,"Ġsuspected":9885,"isons":9886,"ĠPokÃ©mon":9887,"scale":9888,"Ġcapabilities":9889,"Ġrevel":9890,"Ġcheese":9891,"dy":9892,"Ġfailing":9894,"bits":9895,"ĠHeroes":9896,"ĠGhost":9897,"Ġappointed":9899,"uri":9900,"Ġinstitution":9901,"Ġexpanded":9902,"Ġmonitoring":9904,"Ġpodcast":9905,"Ġcoalition":9906,"Ġ96":9907,"Jo":9908,"Ġstolen":9909,"ĠSab":9910,"Ġstops":9911,"Ġholiday":9912,"Ġintr":9913,"Car":9914,"Black":9915,"ĠLGBT":9916,"Ġwarming":9917,"ĠAnderson":9918,"Ġ89":9919,"Ġproducer":9920,"Med":9921,"Ġaccuracy":9922,"ĠMarvel":9923,"ĠPatrick":9925,"Ġmini":9927,"acles":9928,"Ġovert":9929,"they":9930,"Ġmembership":9931,"ĠVen":9932,"Ġremoval":9934,"ĠDave":9935,"TY":9936,"mad":9937,"ĠFind":9938,"Ġec":9940,"Ġteeth":9941,"Ġemotion":9942,"Ġperm":9943,"Ġsolely":9944,"db":9945,"IGHT":9947,"cal":9948,"Ġguidelines":9949,"Ġdying":9950,"Ġsuspended":9951,"ĠPremier":9952,"ĠAnthony":9953,"elve":9954,"Ġdad":9955,"ĠEth":9956,"ĠFootball":9957,"Ġabandoned":9958,"Ġ<<":9959,"Ġmarch":9960,"Ġhorror":9961,"âĢ¦\"":9962,"Ġchildhood":9963,"Ġcampaigns":9964,"Ġlunch":9965,"ĠAlbert":9966,"block":9967,"âĸĪâĸĪ":9968,"ounding":9969,"Ġbone":9970,"organ":9971,"aders":9972,"ĠFlash":9973,"ĠDrive":9974,"Ġtonight":9975,"Ġwars":9976,"ĠFL":9977,"Ġformation":9978,"const":9979,"News":9980,"orious":9982,"ĠStaff":9983,"Ġdiscussions":9984,"ĠProtection":9985,"ĠJam":9986,"Ġcriteria":9987,"Ġinstallation":9988,"Ġaccomplish":9989,"Ġpublisher":9991,"Ġrescue":9992,"ĠTry":9993,"ULL":9994,"ĠSom":9995,"ĠHop":9996,"oret":9997,"ths":9998,"Ġpocket":10000,"ĠInv":10001,"Download":10002,"ĠCrime":10003,"Ġbene":10004,"ĠGuide":10005,"ĠAssembly":10006,"Ġparameters":10007,"IE":10008,"ĠAlexander":10009,"Ġconcert":10010,"ĠSche":10011,"Ġshoes":10012,"Ġvisiting":10013,"Ġrecall":10014,"Ġbub":10015,"Ġrural":10016,"Ġconcrete":10017,"ĠRos":10018,"Next":10019,"Ġloans":10021,"ĠShield":10022,"kg":10025,"ĠHarris":10026,"ĠMove":10028,"ĠFC":10029,"Ġfate":10030,"ĠCho":10031,"Ġtired":10032,"Ġprincipal":10033,"hist":10034,"athy":10036,"Ġmood":10038,"Ġstrategic":10039,"Ġdiseases":10040,"Ġforum":10041,"Ġheadquarters":10043,"Par":10044,"ige":10045,"Ġguitar":10047,"Ġ94":10048,"Only":10049,"Ġreleases":10050,"roph":10051,"================================":10052,"Ġ600":10053,"ĠContinue":10054,"igate":10055,"ĠCrit":10056,"system":10057,"Ġdisabled":10058,"Ġunexpected":10059,"Ġunclear":10061,"ĠEst":10062,"Ġstrategies":10064,"Ġpassage":10066,"AME":10067,"Ġimproving":10068,"Ġreveals":10069,"Ġdecrease":10070,"ova":10071,"ĠShort":10073,"ĠLibrary":10074,"Ġcyber":10075,"nell":10076,"ĠHur":10077,"ĠCB":10078,"UI":10080,"Ġsed":10081,"Ge":10082,"Ġ87":10083,"Ġdiverse":10084,"Ġencouraged":10085,"Ġconspiracy":10086,"Ġbirds":10087,"Ġoperator":10088,"Ġhandful":10089,"Ġclassified":10090,"?)":10091,"Ġdramatic":10092,"Ġinvestigators":10093,"ito":10094,"Ġwidespread":10095,"ĠRoom":10096,"----------------------------------------------------------------":10097,"Ġcollective":10098,"Ġjournalist":10099,"String":10100,"Ġtemperatures":10101,"ila":10102,"Ġinspect":10104,"Ġmissile":10105,"ĠMayor":10106,"Ġmanual":10107,"Ġratings":10109,"Ġsuck":10110,"Ġ97":10111,"Ġuniversal":10112,"Ġpharm":10113,"Ġdisrupt":10114,"iano":10115,"AV":10116,"Ġft":10117,"olds":10119,"ĠWalker":10120,"php":10121,"ĠLas":10123,"ĠWhether":10127,"Ms":10128,"Ġdeny":10129,"ĠCloud":10130,"Ġprovider":10131,"ĠUpdate":10133,"has":10134,"Ġmistakes":10135,"charge":10136,"pled":10137,"Ġnode":10139,"ĠMassachusetts":10140,"ools":10141,"Ġfails":10143,"ori":10145,"backs":10146,"Ġshirt":10147,"Ġ''":10148,"ĠNAT":10149,"Ġwaters":10150,"elson":10151,"Ġease":10152,"Ġscar":10153,"Ġcontents":10154,"mind":10155,"Ġcontribution":10156,"Ġshr":10157,"Ġhanded":10158,"Ġstability":10159,"Em":10161,"Ġmirror":10162,"123":10163,"Ġweigh":10164,"Ġfiction":10165,"ĠFed":10169,"Ġphysically":10170,"Ġstake":10171,"ĠArticle":10172,"ĠArc":10173,"ĠLewis":10174,"ĠMind":10175,"Ġdemonstrate":10176,"Ġprofits":10177,"vision":10178,"Ġbattles":10181,"Ġdrives":10182,"Ġeastern":10183,"ĠSony":10184,"!!!":10185,"aration":10186,"vard":10187,"ĠGL":10188,"Ġ92":10190,"Ġlawmakers":10191,"Ġprotecting":10192,"ĠEPA":10193,"Ġyeah":10194,"Ġshame":10195,"even":10197,"Ġattach":10199,"Ġrepresenting":10200,"ĠUtah":10202,"iffs":10203,"ĠFreedom":10204,"Ã³":10205,"AK":10206,"Ġincidents":10207,"itage":10208,"Ġviewers":10209,"cd":10210,"Ġmouse":10211,"Ġclar":10212,"Ġaccordance":10213,"Ġbot":10214,"cor":10215,"ĠSummer":10216,"held":10217,"Ġinnocent":10218,"Ġinitiative":10219,"ols":10220,"________________________________":10221,"Ġspots":10222,"pace":10223,"Ġconventional":10224,"Ġcorporations":10225,"Ġblocked":10226,"HD":10227,"Ġrefers":10229,"Ġbuck":10230,"ĠDigital":10231,"120":10232,"Ġtopics":10233,"TF":10234,"Äģ":10235,"brid":10236,"reement":10237,"Ġunderlying":10238,"ĠMember":10239,"Ġinvestigating":10240,"Ġpregnancy":10241,"Ġtouchdown":10242,"ĠBand":10243,"ĠCaller":10244,"Ġinstances":10245,"PP":10246,"wa":10247,"Good":10248,"Ġ1991":10249,"ĠCold":10250,"Ġfears":10251,"Ġremarks":10252,"ĨĴ":10253,"atal":10254,"Ġmit":10255,"Ġexperiments":10256,"ipt":10257,"Color":10258,"Update":10260,"Ġ93":10261,"Ag":10262,"Ġå":10263,"Both":10265,"Ġjudges":10266,"Object":10267,"Ġparticipation":10270,"ĠStars":10271,"Ġweekly":10273,"ĠBan":10274,"Ġconversations":10275,"ĠPitt":10276,"uz":10277,"ĠIndiana":10278,"ĠKick":10279,"Ġinfection":10280,"Ġheroes":10281,"Ġsettled":10282,"Ġstrip":10283,"Ġhal":10284,"Ġdump":10285,"ĠSci":10286,"Ġles":10287,"Ġreferences":10288,"ĠURL":10289,"ĠBridge":10290,"Ġwanting":10291,"Force":10292,"Ġexclus":10293,"Meanwhile":10294,"mn":10295,"Ġgentle":10296,"maker":10297,"ĠGro":10299,"ouri":10300,"ĠRain":10301,"ĠAlliance":10302,"Ġlift":10303,"ela":10304,"SD":10305,"ĠCleveland":10306,"Ġranked":10307,"Ġstadium":10308,"Ġdeadly":10309,"ä¸":10310,"Ġriding":10311,"aria":10312,"ĠArmor":10313,"Ġdocumentation":10314,"ĠGreece":10315,"Ġlens":10317,"ĠSa":10318,"Ġgross":10319,"ĠEmer":10320,"agers":10321,"ĠDub":10322,"ĠRh":10323,"ĠAMD":10324,"Ġarrival":10325,"Ġdesert":10326,"Ġsupplement":10327,"ĠResp":10328,"Ġknee":10329,"Ġmargin":10330,"font":10331,"ogg":10332,"2010":10333,"ĠPir":10334,"ĠProm":10335,"Ġintake":10337,"Ġdifferently":10338,"ugs":10339,"Ġbits":10340,"cluded":10341,"Ġsearching":10342,"ĠDu":10343,"umble":10344,"Ġfunctional":10345,"ĠBaltimore":10346,"ĠCould":10347,"Ġdesired":10348,"Ġcircuit":10349,"ĠLyn":10350,"ĠGO":10351,"ĠFalse":10352,"':":10354,"Ġminim":10356,"Ġdrove":10357,"ĠShould":10358,"Ġhip":10359,"Ġpros":10360,"Ġutility":10361,"ĠNature":10362,"ĠMode":10363,"President":10364,"opp":10365,"rat":10366,"Ġconcentration":10368,"Ġfont":10369,"ĠBud":10370,"Ġamid":10371,"Ġrevers":10372,"ĠML":10373,"Bar":10374,"Ġinteraction":10375,"Ġspells":10377,"dep":10378,"fil":10379,"Ġcivilians":10380,"utter":10381,"ĠCooper":10382,"ĠBelow":10383,"Ġentrance":10384,"Ġconvert":10385,"Ġcontroversy":10386,"Ġcontrary":10388,"Ġarc":10389,"ĠExecutive":10390,"ĠOfficer":10391,"Ġpackages":10392,"Ġprogressive":10393,"width":10394,"Ġreserved":10395,"vol":10396,"ĠSamsung":10397,"Ġprinted":10398,"Ġcenters":10399,"Ġintroduce":10400,"ĠKennedy":10401,"Ġodds":10402,"Ġsurely":10403,"Ġindependence":10404,"Ġpassengers":10405,"ĠBeh":10407,"Ġloves":10408,"ĠESPN":10409,"Ġidentical":10411,"Ġpartnership":10413,"conf":10414,"ĠHide":10415,"Ġconfused":10416,"ĠCow":10417,"Men":10418,"Ġwrest":10419,"ĠIraqi":10420,"Ġholes":10421,"ĠStudies":10422,"Ġpregnant":10423,"hard":10424,"Ġsignals":10425,"IX":10426,"Ġpulling":10427,"Ġgraduate":10428,"Ġnominee":10429,"Date":10430,"Ġpermitted":10431,"ĠâĤ¬":10432,"ĠOklahoma":10433,"Start":10434,"Ġauthorized":10435,"Ġalarm":10436,"ĠCos":10437,"van":10438,"Ġgenerations":10439,"cular":10440,"Ġdragon":10441,"ĠSoftware":10442,"ĠEdward":10443,"Ġcontroller":10444,"Sen":10445,"Ġapproached":10448,"Thank":10449,"Ġcance":10450,"Ġformula":10451,"ĠSmall":10452,"Ġweakness":10453,"Ġramp":10454,"itudes":10455,"jud":10456,"Ġbrilliant":10457,"source":10459,"Ġ800":10460,"ĠEvil":10461,"Sw":10462,"Ġhomeless":10463,"week":10464,"iens":10465,"rics":10466,"ĠThird":10467,"TO":10468,"Ġorganic":10469,"Ġpresentation":10470,"agh":10471,"ĠDownload":10472,"vation":10473,"Ġassembly":10474,"orable":10475,"holders":10476,"ĠBernie":10477,"ĠHelp":10478,"ĠFight":10480,"Ġbeach":10481,"Book":10482,"ĠLic":10483,"Ġrush":10484,"ĠRound":10485,"oup":10486,"ĠMarx":10487,"Ġcalculated":10488,"ĠDevil":10489,"ĠSarah":10490,"Ġoccasionally":10491,"Ġbullet":10492,"Available":10493,"gate":10494,"Ġ91":10495,"Ġpromises":10497,"ĠHIV":10498,"ĠStadium":10499,"ĠStock":10500,"ĠCorporation":10501,"NG":10503,"ĠCredit":10504,"Ġsne":10505,"such":10508,"Ġterrorists":10509,"Ġconsciousness":10510,"ĠZh":10511,"Ġdrama":10512,"Ġlabour":10515,"ĠNin":10516,"Ġutter":10517,"Ġdemocratic":10518,"ilation":10520,"Ġgest":10521,"Ġabroad":10522,"Ġsorts":10524,"Ġflav":10525,"UB":10526,"Ġmg":10527,"ĠNothing":10528,"ĠOd":10529,"Ġmusical":10530,"2009":10531,"Ġdrops":10532,"ocated":10533,"000000":10535,"Ġgre":10536,"Ġequality":10537,"Ġburden":10538,"Ġvig":10539,"ĠLeader":10540,"------------":10541,"Ġceremony":10542,"Ġfighter":10543,"Ġactors":10544,"Ġæ":10545,"aman":10546,"Fi":10547,"Ġalign":10548,"Ġelder":10550,"ĠNSA":10551,"Ġrepresentation":10552,"ĠOntario":10553,"ITH":10554,"Ġharassment":10556,"itzer":10557,"Ġboxes":10559,"ĠDR":10560,"Ġmanifest":10561,"atre":10562,"Ġ^":10563,"Ġdies":10564,"leton":10565,"Ġmissions":10566,"Ġresolve":10568,"Ġfollowers":10569,"Ġasc":10570,"Ġkm":10571,"lord":10572,"ammed":10573,"Ġsilent":10574,"ĠAssociated":10575,"Ġtiming":10576,"Ġprisoners":10577,"ĠKings":10578,"ĠFive":10579,"Ġtower":10580,"Ġapproaches":10581,"Ġprecisely":10582,"Ġbureau":10583,"ĠMother":10584,"Ġkeyboard":10586,"Ġfunded":10588,"Ġstaying":10589,"Ġpsychological":10590,"Ġmile":10591,"ĠLeon":10592,"ĠBarb":10593,"will":10594,"Ġwider":10595,"ĠAtlantic":10596,"Ġtill":10597,"ĠRome":10598,"rot":10599,"Ġflour":10601,"aco":10602,"World":10603,"ĠExpress":10604,"ĠYu":10605,"Cor":10606,"Ġpleased":10607,"party":10608,"Ġpointing":10609,"Ġinflation":10610,"Ġ),":10612,"ainer":10613,"Ġwedding":10614,"Ġrequiring":10616,"Ġqualified":10617,"Ġsegment":10618,"END":10619,"Ġsizes":10620,"Ġcorrupt":10622,"Ġdreams":10625,"ĠMess":10626,"Ġchecking":10627,"ĠVersion":10628,"Ġpreparing":10629,"Ġactively":10630,"Ġlux":10632,"ĠWinter":10633,"ĠNE":10635,"Ġdeputy":10636,"Ġtransgender":10637,"Ġsummary":10638,"eries":10640,"char":10641,"ĠYan":10642,"Ġknock":10643,"ĠPath":10644,"Ġlip":10645,"Ġimpression":10647,"Ġcelebrate":10648,"Ġslide":10649,"Ġguests":10650,"Ġclip":10651,"FS":10652,"Ġsavings":10653,"Ġcaptain":10654,"Ġlegacy":10655,"ĠDenver":10656,"Ġwounded":10657,"ACT":10659,"Ġpursue":10660,"Ġq":10662,"Ġsemi":10663,"ĠNeed":10664,"ĠAffairs":10665,"Ġobsc":10666,"Ġchecked":10667,"Ġdual":10668,"Code":10669,"ĠMD":10670,"lem":10671,"ĠÂ©":10673,"ĠElizabeth":10674,"Ġcenturies":10675,"arded":10676,"src":10677,"Ġevident":10678,"ennis":10679,"atin":10680,"Ġunemployment":10681,"ĠMario":10682,"Christ":10684,"Ġbiological":10685,"Ġsoldier":10686,"ĠAdded":10687,"Ġmath":10688,"ĠGil":10689,"Ġbias":10690,"Ġdating":10691,"ĠOcean":10692,"Ġmice":10693,"Mus":10694,"hire":10695,"Server":10697,"limited":10698,"Size":10699,"Ġmeters":10700,"Ġrocket":10701,"Ġcertificate":10703,"ĠIranian":10704,"ASS":10705,"Ġgrid":10706,"Dec":10707,"Ġrolling":10708,"commun":10709,"ĠSweden":10710,"bury":10711,"Ġtissue":10712,"Ġracism":10713,"ĠLocal":10714,"Ġmystery":10715,"Ġexamine":10716,"Ġstem":10717,"Ġsits":10718,"Ġhoped":10719,"oting":10720,"Ġdialogue":10721,"Ġpersu":10722,"Watch":10723,"lay":10724,"MAN":10725,"Ġchronic":10726,"ĠPortland":10727,"market":10728,"ĠSEC":10729,"Ġparallel":10730,"Ġscandal":10731,"Ġcarries":10732,"Ġphenomenon":10733,"human":10734,"acker":10735,"ĠOx":10736,"Ġretirement":10737,"ĠGear":10740,"Ġduties":10741,"Ġdose":10742,"Ġscroll":10743,"MB":10744,"inf":10745,"Ġsauce":10746,"Ġlandscape":10747,"reddit":10748,"ĠChampionship":10749,"ĠReddit":10750,"Ġcoin":10752,"Ġovers":10753,"Ġposting":10754,"about":10755,"Ġfel":10756,"andy":10757,"Ġbold":10758,"Ġfocusing":10759,"effect":10760,"GR":10761,"Ġdeemed":10762,"Ġrecommendations":10763,"Ġstepped":10764,"Ġvoter":10765,"ĠDeep":10766,"ĠInstagram":10767,"Ġmoderate":10768,"ĠMaryland":10769,"Ġrestricted":10770,"ĠMB":10771,"ĠOcc":10775,"ĠEver":10776,"INFO":10778,"=-":10779,"ĠAccount":10781,"nc":10782,"Ġought":10783,"Ġexport":10784,"Ġdrunk":10785,"('":10786,"Ġwise":10787,"ĠMort":10788,"Ġfrequent":10792,"mir":10793,"Ġinterpretation":10794,"Ġdependent":10795,"Ġcoins":10796,"ĠBol":10797,"Video":10798,"ĠJustin":10799,"Ġfatal":10800,"Ġcooking":10801,"Ġconfusion":10802,"Ġcustody":10804,"ĠMorgan":10805,"omach":10806,"ĠGovernor":10807,"Ġrestaurants":10808,"eling":10809,"Ġacknowledged":10810,"Ġther":10811,"Ġgenes":10812,"ching":10813,"Hey":10814,"Ġtactics":10815,"ĠMexican":10816,"quer":10819,"Ġnoting":10820,"ĠCameron":10821,"Ġtargeting":10822,"rock":10823,"Ġcredits":10824,"Ġemotions":10825,"Ġrepresentatives":10826,"news":10827,"Ġlegislative":10828,"Ġremoving":10829,"Ġtweeted":10830,"ĠCarter":10831,"ĠFixed":10832,"Ġforcing":10833,"Ġspeaker":10834,"Ġmales":10835,"ĠVietnam":10836,"lined":10837,"Ġconcepts":10838,"Ġvoices":10839,"oir":10840,"ĠTrib":10841,"ĠJerusalem":10843,"ĠSant":10844,"Ġcul":10845,"Ġlady":10846,"Ġarts":10848,"ĠInn":10849,"ĠMachine":10850,"ĠEmperor":10851,"Ġslot":10852,"ĠProcess":10854,"III":10855,"Ġathletes":10856,"ĠTemple":10857,"Ġtons":10860,"Ġgolden":10861,"Ġpunch":10862,"ĠGR":10863,"Ġenact":10865,"Ġlobby":10866,"Ġmos":10867,"Ġpicking":10868,"Ġlifetime":10869,"Ġcognitive":10870,"Each":10871,"zo":10872,"Ġdub":10873,"Ġconsists":10874,"Ġfestival":10876,"amous":10877,"Ġintellig":10878,"words":10879,"ĠSmart":10880,"Ġmagical":10883,"ĠSin":10884,"bus":10885,"ighth":10887,"ĠRuby":10888,"ĠSure":10889,"olving":10890,"Ġjun":10891,"OST":10892,"Ġimposed":10893,"ĠNS":10896,"ĠKit":10897,"ĠFuture":10898,"burn":10899,"Ġimmune":10900,"ocus":10901,"Ġcourses":10902,"ĠString":10903,"Ġlean":10904,"Ġghost":10905,"Ġoutcomes":10906,"Ġexpense":10907,"Ġeveryday":10908,"Ġacceptable":10909,"Ah":10910,"Ġequipped":10911,"Ġorange":10912,"FR":10913,"ĠDutch":10914,"Though":10915,"ĠRank":10916,"QU":10917,"ĠRoberts":10918,"what":10919,"rend":10920,"Ġdisappear":10921,"Ġspawn":10922,"ĠLam":10923,"ois":10924,"Ġdeserve":10925,"Ġminimal":10926,"Ġnervous":10927,"ĠWould":10928,"ĠVancouver":10930,"Ġresign":10931,"shire":10932,"ĠWorks":10933,"ĠBuild":10934,"Ġaffordable":10935,"ĠGary":10936,"ĠArena":10937,"Ġhanging":10938,"Ġimplications":10939,"ĠSong":10940,"Ġmaintaining":10941,"Ġguards":10942,"CON":10943,"Ġderived":10944,"Ġexecuted":10945,"Ġtheories":10946,"Ġquoted":10947,"ĠAndre":10948,"oga":10949,"seless":10950,"info":10951,"Ġtears":10953,"Ġbirthday":10955,"igious":10956,"immer":10957,"Ġspectrum":10958,"Ġarchitecture":10959,"Ġrecruit":10960,"arma":10961,"Table":10962,"Ġmonsters":10963,"ĠGov":10964,"Ġdestination":10965,"Ġattractive":10966,"ĠMoreover":10968,"Ġpresents":10969,"THE":10970,"Ġreply":10971,"pton":10972,"Ġcum":10973,"Ġdelight":10974,"Ġaffects":10975,"Ġdonations":10976,"ĠToy":10977,"ĠHim":10978,"MENT":10979,"Ġovercome":10980,"itched":10981,"ĠFantasy":10982,"ĠHat":10983,"ĠBeast":10984,"bott":10985,"Ġinvestigations":10986,"Run":10987,"Ġhunting":10988,"di":10989,"fund":10990,"Ġsessions":10991,"Ġportray":10993,"oids":10994,"Yeah":10995,"Ġcommunicate":10996,"Ġcomedy":10997,"ĠYang":10998,"Ġbelt":10999,"ĠMarine":11000,"Ġpredicted":11001,"Play":11002,"Ġimportantly":11003,"Ġremarkable":11004,"Ġeliminate":11005,"David":11006,"Ġbind":11007,"VID":11008,"Ġadvocates":11009,"ĠGaza":11010,"imp":11011,"DB":11012,"ĠNa":11013,"ĠSimilar":11014,"IES":11015,"Ġcharity":11016,"vas":11017,"math":11018,"Ġâĸ":11019,"oker":11020,"Ġcaps":11022,"ĠHal":11023,"2000":11024,"ean":11025,"Ġfleet":11026,"Right":11028,"Ġsleeping":11029,"kind":11031,"Ġdesignated":11032,"Ã¤":11033,"Ġanimation":11034,"kee":11035,"Ġ/>":11037,"Ġdelayed":11038,"Ġtremend":11039,"Ġcurious":11040,"Use":11041,"Ġlect":11042,"dam":11043,"Ġinnovation":11044,"ĠPoints":11045,"Ġloading":11046,"Ġdispute":11047,"ctic":11048,"ĠBY":11050,"ĠValue":11052,"IONS":11053,"ĠHum":11054,"Ġtemplate":11055,"mers":11056,"Ġappearances":11057,"ĠEntertainment":11058,"Ġtranslation":11059,"Ġsake":11060,"Ġbeneath":11061,"Ġeuro":11063,"Ġstudying":11065,"ĠMas":11066,"Ġperceived":11067,"Ġexamined":11068,"Ġeager":11069,"Ġcoaches":11070,"Ġimper":11071,"chi":11072,"Ġproduces":11073,"\").":11074,"ĠEveryone":11075,"Ġgirlfriend":11077,"Ġhire":11078,"ĠVice":11079,"Ġsuitable":11080,"opy":11081,"ĠDuke":11083,"fish":11084,"first":11085,"ĠObs":11086,"Ġinterior":11087,"ĠBruce":11088,"ĠRy":11089,"Ġconsiderable":11091,"Ġforecast":11092,"orship":11094,"ĠDrug":11095,"ĠALL":11096,":\"":11097,"ĠMail":11099,"Ġballot":11100,"Ġinstantly":11101,"ĠChannel":11102,"Ġpicks":11103,"Ġ1989":11104,"Ġtent":11105,"oli":11106,"Ġcivilian":11107,"bling":11108,"ello":11109,"bu":11110,"Ġinch":11111,"Ġlogo":11112,"Ġcooperation":11113,"Ġwalks":11114,"Ġinvestments":11115,"ĠFestival":11117,"ĠKy":11118,"Ġlegally":11119,"Sl":11122,"Ġthreatening":11123,"duction":11124,"flow":11125,"Ġdismissed":11126,"cap":11128,"ele":11129,"ĠMcG":11130,"ĠHarvard":11131,"ĠConservative":11132,"ĠCBS":11133,"png":11134,"Ġroots":11135,"ĠHaving":11136,"umbled":11137,"ĠFun":11138,"\\/":11139,"ĠSearch":11140,"plex":11141,"Ġdiscussing":11142,"ĠTai":11144,"Free":11146,"fit":11147,"Ġrefuse":11148,"Ġmanaging":11149,"Ġsynd":11150,"ipedia":11151,"walk":11152,"Ġprofessionals":11153,"Ġguidance":11154,"Ġuniversities":11155,"untu":11157,"Finally":11158,"ASE":11159,"ĠAuto":11160,"ĠHad":11161,"Ġanniversary":11162,"LD":11163,"ĠDur":11164,"ĠUltimate":11165,"ihad":11166,"product":11167,"Ġtransit":11168,"Ġrestore":11169,"Ġexplaining":11170,"Ġasset":11171,"Ġtransferred":11172,"Ġburst":11173,"apolis":11174,"ĠMagazine":11175,"ĠCra":11176,"ĠBR":11177,"ĠHE":11179,"Mich":11180,"bet":11181,"ĠLady":11182,"Ġmeets":11185,"white":11186,"Log":11187,"Ġcorresponding":11188,"Ġinsisted":11189,"GG":11190,"Ġsurrounded":11191,"Ġtens":11192,"Ġlane":11193,"Ġcoinc":11194,"home":11195,"Ġexisted":11196,"ected":11197,"ĠDouble":11198,"lamm":11199,"exp":11201,"Ġperception":11202,"iev":11203,"ĠBeing":11204,"oft":11205,"Ġadopt":11206,".:":11207,"];":11208,"Windows":11209,"Ġsatellite":11210,"ASH":11211,"Ġinfant":11212,"ĠMeanwhile":11214,"cm":11215,"oca":11216,"ĠTreat":11217,"actor":11218,"Ġtobacco":11219,"ĠNorm":11220,"Ġflesh":11222,"Ġje":11223,"oop":11224,"ĠHeaven":11225,"Ġbeating":11226,"anim":11227,"Ġgathering":11228,"GO":11230,"abe":11231,"ĠJonathan":11232,"ĠSafety":11233,"Ġbadly":11234,"prot":11235,"Ġchoosing":11236,"Ġcontacted":11237,"Ġquit":11238,"Ġstir":11240,"Ġtoken":11241,"Det":11242,"ĠPa":11243,"Ġfunctionality":11244,"003":11245,"some":11246,"Ġlimitations":11247,"Ġmeth":11248,"build":11249,"config":11250,"NT":11251,"rell":11252,"blem":11253,"ĠMom":11254,"Ġveterans":11255,"ĠHu":11256,"Ġtrends":11257,"arer":11258,"ĠGiven":11259,"ĠCaption":11260,"may":11261,"AST":11262,"Ġwondering":11263,"ĠClark":11264,"normal":11265,"Ġseparated":11266,"Ġdesp":11267,"brew":11269,"Ġrelating":11270,"ĠNik":11271,"ĠFarm":11272,"good":11274,"deb":11275,"Ġactivist":11276,"Ġmart":11277,"Ġexplosion":11278,"ĠEconomic":11279,"Link":11280,"Ġinsight":11281,"Ġconvenient":11282,"Ġcounterpart":11283,"support":11284,"ĠVirt":11285,"agen":11286,"ĠTennessee":11287,"ĠSimon":11288,"ĠAward":11289,"OCK":11290,"ĠFigure":11291,"Ġoverseas":11292,"Ġpride":11293,"ĠCas":11294,"note":11295,"mg":11296,"Current":11297,"Ġdisplays":11298,"content":11299,"Ġtraveling":11300,"Ġhospitals":11301,"ĠFinancial":11302,"ĠPast":11303,"Ġdefendant":11304,"Ġstreaming":11305,"ĠBerlin":11307,"uki":11308,"Ġchocolate":11311,"ĠCastle":11312,"Ġinterrupt":11313,"ĠRow":11314,"Ġconversion":11315,"Ġbugs":11316,"ĠRather":11317,"LY":11319,"ĠJean":11320,"common":11321,"akh":11322,"Ġ130":11323,"ĠDean":11325,"Ġamendment":11326,"Ġgameplay":11327,"ĠWarren":11328,"oda":11329,"Ġhighlights":11330,"Ġirre":11331,"ĠNATO":11332,"Ġballs":11333,"Ġdemanding":11334,"URE":11335,"ĠLuke":11336,"Figure":11337,"stop":11338,"onia":11339,"zone":11340,"izers":11341,"ĠWR":11342,"Ġawarded":11343,"Ġregulatory":11344,"ĠHart":11345,"ĠSN":11346,"pling":11347,"Ġsour":11348,"ĠPixel":11349,"usive":11350,"Ġfet":11351,"ĠSent":11352,"Ġautomatic":11353,"Ġfer":11354,"ĠKhan":11356,"TON":11357,"father":11358,"Ġextraordinary":11359,"ĠPython":11361,"ĠGPU":11362,"Ġsexually":11363,"Ġdesktop":11364,"ĠAntonio":11366,"Ġears":11368,"obby":11369,"ouses":11370,"Ġmanufacturers":11372,"minute":11374,"Ġconviction":11375,"Ġgarden":11376,"public":11377,"Ġsatisfied":11378,"fold":11379,"OK":11380,"Ġinhab":11381,"ĠThink":11382,"Ġprogramme":11383,"Ġstomach":11384,"Ġholy":11386,"Ġthreshold":11387,"Ġserial":11389,"Ġemployers":11390,"ĠEverything":11391,"rah":11392,"Ġbother":11393,"Ġbrands":11394,"Value":11395,"ĠTed":11396,"ĠPlanet":11397,"Ġpink":11398,"ĠFurthermore":11399,"sa":11400,"PE":11401,"reck":11402,"ĠUSD":11403,"otte":11404,"Ġ&&":11405,"Ġlanded":11406,"gets":11407,"Ġproducers":11408,"Ġhealthcare":11409,"Ġdominant":11410,"Ġamended":11412,"chron":11413,"Ġfits":11414,"ĠAuthority":11416,"ATCH":11417,"Ġfights":11418,"ĠLLC":11419,"Ġ---":11420,"ĠCorp":11421,"Ġtoxic":11422,"specific":11423,"ĠCorn":11424,"Ġtelephone":11426,"ĠPant":11427,"Ġmysterious":11428,"media":11431,"Ġwitnesses":11432,"agu":11433,"Ġquestioned":11434,"ĠBrexit":11435,"ĠRemember":11436,"Ġendorse":11438,"Ġridiculous":11441,"110":11442,"Ġprayer":11443,"Ġscientist":11444,"Ġ1950":11445,"ĠAqu":11446,"Ġunderground":11447,"ĠUFC":11448,"mare":11449,"ĠLater":11450,"wich":11451,"Ġhosts":11453,"Ġerr":11454,"Ġgrants":11455,"antom":11456,"Ġsummon":11457,"early":11458,"ĠClear":11459,"ĠPrim":11460,"Ġsuspension":11461,"Ġguaranteed":11462,"apper":11463,"Ġrice":11464,"ĠSean":11465,"ĠShin":11466,"Ġreferendum":11467,"Ġfled":11468,"rust":11469,"Ġ360":11470,"tery":11471,"Ġshocked":11472,"BR":11473,"ĠOil":11474,"ĠAllah":11475,"Ġpartly":11476,"Ġtransmission":11478,"Ġhomosexual":11479,"Ġhopefully":11481,"ãĤ¤":11482,"Ġlesson":11483,"Leg":11484,"Ġ..":11485,"Yet":11486,"table":11487,"rett":11489,"Ġboards":11490,"Ġincorrect":11491,"Ġbacteria":11492,"aru":11493,"Ġsnap":11495,".'\"":11496,"Ġparad":11497,"tem":11498,"heart":11499,"Ġavailability":11500,"Ġwisdom":11501,"Ġ(+":11502,"Ġpriest":11503,"Open":11505,"Ġspan":11506,"Ġparameter":11507,"Ġconvince":11508,"rac":11510,"Ġfo":11511,"Ġsafely":11512,"Ġconverted":11513,"ĠOlympic":11514,"Ġreserve":11515,"Ġhealing":11516,"ĠMine":11517,"Max":11518,"Ġinherent":11519,"ĠGraham":11520,"Ġintegrated":11521,"Dem":11522,"Ġpipeline":11523,"Ġapplying":11524,"Ġembed":11525,"ĠCharlie":11526,"Ġcave":11527,"2008":11528,"Ġconsensus":11529,"Ġrewards":11530,"Pal":11531,"ĠHTML":11532,"Ġpopularity":11533,"looking":11534,"ĠSword":11535,"ĠArts":11536,"')":11537,"Ġelectron":11538,"Ġintegrity":11540,"Ġexclusively":11541,"Ġgrace":11542,"Ġtorture":11543,"Ġburned":11544,"two":11545,"Ġ180":11546,"Ġgym":11550,"ĠTam":11552,"Ġadministrative":11553,"Ġmanufacturer":11554,"Ġvel":11555,"ĠNi":11556,"Ġisolated":11557,"ĠMedicine":11558,"Ġbackup":11559,"Ġpromoting":11560,"Ġcommander":11561,"Ġflee":11562,"ĠRussell":11563,"Ġforgotten":11564,"ĠMissouri":11565,"Ġresidence":11566,"mons":11567,"Ġwand":11569,"Ġmeaningful":11570,"PT":11571,"Ġwealthy":11574,"Ġrifle":11575,"strong":11576,"rowing":11577,"plan":11578,"âĢ¦.":11580,"Ġexpanding":11581,"ĠHamilton":11582,"Ġreceives":11583,"SI":11584,"REE":11587,"Put":11588,"Ġbriefly":11589,"rive":11590,"Ġ__":11593,"Ġchip":11594,"Ġprize":11596,"ĠThings":11597,"ACE":11598,"ulin":11599,"dict":11600,"oku":11601,"Ġassociate":11602,"youtube":11604,"Story":11605,"Ġmild":11607,"ailing":11608,"ĠYe":11609,"ĠKa":11611,"Ġpropaganda":11613,"Ġanonymous":11614,"Ġstruggled":11615,"Ġoutrage":11616,"ATED":11617,"ĠBeijing":11618,"rary":11619,"Ġleather":11620,"Ġworlds":11621,"Ġbroader":11622,"125":11623,"idal":11624,"ĠBetter":11625,"Ġtear":11626,"Ext":11627,"Ġproposals":11628,"Ġiter":11629,"ĠSquad":11630,"mi":11632,"Did":11633,"ĠPu":11634,"pin":11635,"Ġspeakers":11636,"Ġborders":11637,"Ġfigured":11638,"='":11639,"Ġsimultaneously":11640,"Ġcharging":11642,"Ġurged":11643,"Ġconj":11644,"256":11645,"ĠGordon":11646,"Ġdocumentary":11648,"Share":11649,"ONE":11651,"ĠGarden":11652,"ĠThompson":11654,"aneous":11655,"apore":11656,"Ġtanks":11657,"Ġlessons":11658,"track":11659,"Ġoutstanding":11660,"Ġvolunteers":11661,"Ġspray":11662,"Ġmanagers":11663,"large":11664,"Ġcamps":11665,"Ġartificial":11666,"ĠRu":11667,"Ġbags":11668,"thal":11669,"Ġcompatible":11670,"ĠBlade":11671,"Ġfed":11672,"Ġargues":11673,"FI":11674,"Ġunfair":11675,"Ġcorn":11676,"Ġoffset":11677,"Ġdirections":11678,"Ġdisappointed":11679,"ĠConvention":11680,"Ġviewing":11681,"ME":11682,"Ġtowns":11684,"Ġlayers":11685,"Ġrolled":11686,"Ġjumped":11687,"Ġattribute":11688,"Ġsuppose":11691,"cha":11693,"Ġburied":11694,"Ġsixth":11695,"Ben":11696,"ressing":11697,"OUR":11698,"Ġwound":11699,"Ġcycl":11700,"Ġmechanisms":11701,"Ġcongressional":11702,"ĠElement":11703,"Ġagreements":11704,"Ġdecor":11705,"Ġclosest":11706,"ĠMit":11707,"Google":11708,"}}":11709,"Ġmixture":11710,"Ġfluid":11711,"Sign":11712,"ĠScholar":11713,"asket":11715,"Ġracing":11717,"hero":11718,"riel":11719,"Ġcheaper":11721,"ben":11722,"Ġvertical":11723,"ĠReading":11725,"Ġsacrifice":11728,"aya":11729,"VA":11731,"ĠLes":11732,"ĠStudio":11733,"Ġviolations":11734,"ĠAnna":11735,"acer":11736,"é¾":11737,"ĠRat":11738,"ĠBeck":11739,"ĠDick":11740,"ĠACT":11741,"Ġcomposition":11742,"Ġtexture":11743,"ĠOwn":11744,"Ġsmartphone":11745,"ĠNA":11746,"Ġforb":11747,"import":11748,"Ġdefending":11749,"rer":11751,"Ġoh":11752,"ĠJeremy":11753,"Ġbanking":11754,"ceptions":11755,"Ġrespective":11756,"/.":11757,"Ġdrinks":11758,"ĠWi":11759,"Ġbands":11760,"ĠLiverpool":11761,"Ġgrip":11762,"ĠBuy":11763,"Ġopenly":11764,"Ġreviewed":11765,"pert":11766,"Ġverify":11767,"ĠCole":11768,"ĠWales":11769,"MO":11770,"Ġshelter":11772,"ĠImperial":11773,"ĠDak":11775,"Ġsuggestions":11776,"Ġexplicitly":11777,"Ġslave":11778,"Ġblockchain":11779,"Ġcompeting":11780,"Ġpromising":11781,"SON":11782,"Ġsoccer":11783,"Ġconstitution":11784,"429":11785,"Ġdistract":11786,"ĠUser":11787,"ĠMethod":11789,"ĠTokyo":11790,"Ġaccompanied":11791,"Client":11792,"sur":11793,"alog":11794,"Ġidentification":11795,"Ġinvasion":11796,"Ġindustries":11798,"ppers":11799,"Ġsubtle":11800,"ĠUnit":11801,"natural":11802,"Ġsurvived":11803,"Ġflaw":11804,"ĺħ":11805,"ĠHoll":11806,"Ġdeficit":11807,"Ġtutorial":11808,"ĠChance":11809,"Ġarguing":11810,"Ġcontemporary":11811,"Ġintegration":11812,"forward":11813,"Ġtum":11814,"itis":11815,"Ġhiding":11816,"ĠDomin":11817,"ĠTan":11818,"ĠBuilding":11819,"ĠVin":11820,"Ġspokesperson":11821,"ĠNotes":11822,"Ġemerging":11823,"Ġpreparation":11824,"Ġprost":11825,"Ġsuspects":11826,"Description":11828,"Ġdealt":11829,"ĠPear":11830,"Ġsteady":11831,"Ġdecreased":11832,"Ġgradually":11835,"ĠWAR":11837,"ãĤ¢":11839,"hr":11840,"Ġdirty":11841,"ĠBarn":11842,"ĠBC":11843,"Ġdil":11844,"Ġcalendar":11845,"Ġcompliance":11846,"Ġchamber":11847,"bb":11848,"Ġpassenger":11849,"ĠTitle":11851,"ĠSydney":11852,"ĠGot":11853,"Ġdarkness":11854,"Ġdefect":11855,"Ġpacked":11856,"assion":11857,"Ġgods":11858,"Ġharsh":11859,"ICK":11860,"Ġalgorithm":11862,"Ġoxygen":11863,"Ġvisits":11864,"Ġblade":11865,"ĠKentucky":11867,"Ġkiller":11868,"Pack":11869,"enny":11870,"Ġdivine":11871,"Ġnomination":11872,"being":11873,"Ġengines":11874,"Ġcats":11875,"Ġbuffer":11876,"AGE":11879,"Ġtongue":11880,"Ġradiation":11881,"erer":11882,"mem":11883,"é¾į":11885,"Ġcouples":11886,"Ġphysics":11887,"ĠMcK":11888,"Ġpolitically":11889,"ĠBloom":11891,"Ġworship":11892,"uter":11894,"ĠFO":11895,"Ġsentenced":11897,"Ġdisk":11898,"ĠMarg":11899,"Ġ/*":11900,"PI":11901,"Ġoptional":11902,"Ġbabies":11903,"Ġseeds":11904,"ĠScottish":11905,"Ġthy":11906,"]]":11907,"ĠHitler":11908,"PH":11909,"Ġrecovered":11911,"inge":11912,"Ġpowder":11913,"Ġlips":11914,"Ġdesigner":11915,"Ġdisorders":11916,"Ġcourage":11917,"Ġchaos":11918,"Ġcarrier":11920,"High":11922,"ĠRT":11923,"len":11925,"Ġroutes":11926,"uating":11927,"Fil":11928,"NOT":11929,"wall":11930,"Ġengaging":11932,"ĠJavaScript":11933,"orer":11934,"Ġunions":11936,"ĠFederation":11937,"ĠTesla":11938,"Ġcompletion":11939,"ĠTa":11940,"Ġprivilege":11941,"ĠOrange":11942,"Ġbones":11945,"Ġtitled":11946,"Ġprosecutors":11947,"ĠME":11948,"Ġengineer":11949,"ĠUniverse":11950,"nie":11952,"Ġhearts":11954,"ĠGre":11955,"Ġministry":11957,"ĠNut":11959,"ĠXP":11961,"Ġbulk":11963,"System":11964,"icism":11965,"Ġposter":11968,"Ġattending":11969,"urable":11970,"Ġlicensed":11971,"ĠGh":11972,"etry":11973,"Ġblast":11975,"à¤":11976,"ĠTitan":11977,"elled":11978,"die":11979,"Have":11980,"ĠFlame":11981,"Ġprofound":11982,"Ġparticipating":11983,"Ġanime":11984,"ĠEss":11985,"Ġspecify":11986,"Ġregarded":11987,"ĠSpell":11988,"Ġsons":11989,"owned":11990,"Ġmerc":11991,"Ġexperimental":11992,"hs":11994,"ĠDungeon":11995,"inos":11996,"Ġcomply":11997,"ĠSystems":11998,"arth":11999,"Ġseized":12000,"local":12001,"ĠGirls":12002,"udo":12003,"oned":12004,"ĠFle":12005,"Ġconstructed":12006,"Ġhosted":12007,"Ġscared":12008,"actic":12009,"ĠIslands":12010,"ĠMORE":12011,"Ġbless":12012,"Ġblocking":12013,"Ġchips":12014,"Ps":12016,"Ġcorporation":12017,"Ġlighting":12019,"Ġneighbors":12020,"aro":12022,"Ġbeef":12023,"ĠUber":12024,"Facebook":12025,"armed":12026,"itate":12027,"ĠRating":12028,"ĠQuick":12029,"Ġoccupied":12030,"Ġaims":12031,"ĠAdditionally":12032,"ĠInterest":12033,"Ġdramatically":12034,"Ġheal":12035,"Ġpainting":12036,"Ġengineers":12037,"MM":12038,"ĠMust":12039,"Ġquantity":12040,"Paul":12041,"Ġearnings":12042,"ĠPosts":12043,"stra":12044,"ãĥ¼ãĥ":12045,"Ġstance":12046,"Ġdropping":12047,"script":12048,"Ġdressed":12049,"Make":12050,"Ġjustify":12051,"ĠLtd":12052,"Ġprompted":12053,"Ġspeeds":12055,"ĠGiants":12056,"omer":12057,"ĠEditor":12058,"Ġdescribing":12059,"ĠLie":12060,"mented":12061,"Ġnowhere":12062,"Ġinstruction":12064,"Ġentities":12066,"Ġcm":12067,"ĠNatural":12068,"Ġinquiry":12069,"Ġpressed":12070,"Ġraises":12073,"ĠNetflix":12074,"ĠSide":12075,"Ġouter":12076,"Ġamongst":12077,"ims":12078,"owski":12079,"Ġclimb":12080,"never":12081,"Ġcombine":12082,"ding":12083,"Ġsignificance":12085,"Ġremembered":12086,"ĠNevada":12087,"ĠTel":12088,"ĠScar":12089,"ĠWarriors":12090,"ĠJane":12091,"Ġcoup":12092,"bas":12093,"Ġterminal":12094,",-":12095,"OH":12096,"Ġtension":12097,"Ġwings":12098,"ï¿½ï¿½ï¿½ï¿½":12100,"ĠUnlike":12101,"valid":12102,"ĠAli":12104,"Ġnaked":12105,"books":12106,"ĠMun":12107,"ĠGulf":12108,"Ġdensity":12109,"Ġdimin":12110,"Ġdesperate":12111,"Ġpresidency":12112,"Ġ1986":12113,"hy":12114,"IND":12115,"Ġunlock":12116,"Ġhandled":12118,"ĠEb":12119,"Ġdisappeared":12120,"Ġgenre":12121,"Ġ1988":12122,"Ġdetermination":12123,"Stream":12124,"iko":12125,"Ġacknowledge":12127,"Jan":12128,"Ġcapitalism":12129,"Pat":12130,"Ġ2020":12131,"Ġpainful":12132,"Ġcurve":12133,"Ġbombs":12134,"storm":12135,"ĠMetal":12136,"encer":12137,"ĠFig":12138,"ĠAaron":12139,"Ġinspiration":12141,"Ġexhaust":12142,"ashi":12144,"Ġritual":12146,"ĠChelsea":12147,"Ġpromotion":12148,"ĠHung":12149,"ĠWard":12150,"iva":12151,"ĠET":12152,"Ġtoss":12153,"allow":12154,"ĠFrancis":12155,"Dep":12156,"Ġhappiness":12157,"ĠGlass":12158,"Ġbeta":12159,"Ġstrengthen":12160,"NE":12161,"oa":12162,"Ġbuttons":12163,"ĠMurray":12164,"Ġkicked":12165,"Quest":12166,"ĠTalk":12167,"ĠSeveral":12168,"ĠZero":12169,"Ġdrone":12170,"ulk":12171,"Ġcam":12172,"ĠMobile":12173,"Ġpreventing":12174,"Ġretro":12175,"ĠAx":12176,"Ġcruel":12177,"Ġfloat":12178,".),":12179,"Ġfiling":12180,"ĠGrant":12181,"ĠBor":12182,"Ġrib":12183,"Ġchampionship":12184,"ĠMerc":12185,"Ġstyles":12186,"Ġcake":12187,"Ġbuilds":12188,"ĠSelf":12189,"Ġepic":12191,"Bel":12193,".(":12195,"ahu":12196,"ĠBeyond":12197,"Ġouts":12198,"Ġsolo":12199,"ĠTree":12200,"Ġpreserve":12201,"Ġtub":12202,"ARE":12203,"roc":12204,"ĠWright":12206,"Ġoccasional":12209,"Second":12211,"rons":12212,"Ġinteractions":12213,"formed":12214,"sing":12215,"Ġowns":12216,"Ġhockey":12217,"General":12218,"Ġlogical":12219,"ĠCrown":12223,"ĠReserve":12224,"Ġstopping":12225,"Ġexcuse":12226,"second":12227,"Ġoperated":12228,"Ġreaches":12229,"Ġpollution":12231,"ĠBrooklyn":12232,"Ġdelete":12233,"Ġhash":12234,"Block":12235,"aha":12236,"âĢ³":12237,"Ġshorter":12238,"piece":12239,"></":12240,"ĠWat":12242,"ĠBreak":12243,"Ġprohibited":12244,"Ġintensity":12245,"ĠAlan":12246,"Ġliability":12247,"?!":12248,"anded":12249,"Ġneighbour":12250,"ĠCollection":12251,"Ġfires":12252,"Ġrevolutionary":12253,"fly":12254,"ĠOrleans":12255,"White":12256,"ĠDawn":12258,"Ġsettle":12259,"Ġexecute":12260,"BM":12261,"Ġspokeswoman":12262,"Ġlifestyle":12263,"Ġclicking":12264,"ĠKill":12265,"ĠLiberal":12266,"ĠNazi":12267,"Ġtrailer":12268,"Ġmountains":12269,"Ġdamn":12270,"zes":12271,"pes":12272,"Ġpressing":12273,"Ġbail":12274,"ĠOrganization":12275,"Ġthirty":12277,"Ġelectrical":12278,"Ġ115":12279,"ĠPoly":12280,"ĠRap":12281,"ĠStrike":12282,"ĠCann":12283,"Ġdemanded":12284,"Ġbacking":12285,"default":12286,"speed":12287,"Ġmothers":12289,"ĠBody":12290,"Ġvariation":12291,"powered":12293,"leading":12294,"Never":12295,"Ġgrave":12296,"ĠAnti":12297,"AW":12298,"Ġinterviewed":12299,"ĠGab":12300,"ĠFat":12301,"Ġrookie":12302,"uu":12303,"Ġampl":12306,"ĠHeat":12308,"Ġpeaceful":12309,"SM":12310,"ieve":12311,"Ġdiver":12312,"ĠVictoria":12313,"Ġmic":12314,"pdf":12315,"Ġstating":12316,"Ġlung":12317,"Ġcriticized":12318,"Ġvaccine":12319,"ĠLoading":12320,"urse":12321,"Take":12322,"ĠFran":12323,"ĠRobin":12325,"Ġdetected":12326,"ĠScript":12327,"Ġadjusted":12328,"Ġsenator":12329,"Ġopposing":12330,"Error":12331,"Count":12332,"Ġconflicts":12333,"Ġow":12334,"Ġmatching":12336,"hh":12337,"ĠTrek":12338,"starter":12339,"\"),":12340,"ĠAF":12341,"oder":12342,"xxxx":12343,"ĠAlt":12344,"acre":12345,"ĠPick":12346,"ĠSolar":12347,"ĠDal":12348,"Oct":12349,"ĠBatt":12350,"Ġsrc":12351,"Ġengagement":12352,"Ġexecutives":12353,"Ġliberty":12354,"java":12355,"Ġtalented":12356,".....":12359,"Info":12360,"Ġhorrible":12361,"Ġsurprisingly":12362,"feed":12363,"icating":12364,"ĠLED":12365,"Ġfemales":12366,"Station":12367,"eller":12368,"ĠOakland":12369,"Ġmechanical":12370,"iology":12371,"ĠVar":12372,"Ġrobust":12373,"otta":12375,"Ġretain":12377,"Ġda":12379,"Ġdeployed":12380,"del":12381,"ĠAndy":12382,"Ġsubscribe":12383,"web":12384,"Ġna":12385,"ĠMichel":12386,"Ġpartially":12387,"ĠComey":12388,"Ġcrown":12389,"ĠMaj":12390,"ĠBlu":12391,"rator":12392,"Day":12393,"INT":12394,"Ġdocumented":12395,"ĠGDP":12396,"gi":12397,"chell":12398,"Ġbrutal":12399,"ĠBab":12400,"Ġtheft":12402,"Ġtube":12403,"@@":12404,"Ġquery":12405,"ĠLincoln":12406,"Ġpublishing":12407,"Ġwore":12408,"orical":12409,"Ġnotable":12411,"Ġsubsequently":12412,"nex":12413,"Ġobserve":12414,"Ġcodes":12416,"main":12417,"WH":12418,"ĠSL":12419,"Ġresidential":12420,"avan":12421,"Ġmas":12422,"arest":12423,"OUT":12425,"ante":12427,"Ġcens":12428,"Ġ**":12429,"Ġmortality":12430,"Ġyours":12431,"Ġoccasions":12432,"Ġrecalled":12433,"ĠDriver":12434,"Ġvocal":12435,"Ġbathroom":12436,"Ġshops":12437,"Ġcollaboration":12438,"ĠObamacare":12439,"ĠCell":12440,"Char":12441,"Super":12442,"Cre":12443,"Ġtends":12444,"Ġtorn":12445,"Ġeconomics":12446,"ĠSem":12449,"Ġshoulders":12450,"Ġexpecting":12451,"Ġexamination":12452,"ĠUI":12454,"olas":12456,"ĠAmb":12457,"ĠDra":12458,"Ġmidfield":12459,"ĠIC":12460,"Ġlayout":12461,"Ġfloating":12462,"fi":12463,"itative":12464,"Ġtremendous":12465,"ĠÐ":12466,"Work":12468,"ĠLightning":12469,"Ġsimilarly":12470,"Ġconservatives":12471,"Ġpray":12472,"BE":12473,"Ġemphasis":12476,"ĠMetro":12477,"Ġfishing":12478,"Ġmarry":12479,"neg":12480,"ĠStudy":12481,"Ġreck":12482,"oning":12484,"ĠGib":12488,"ĠDescription":12489,"ĠDVD":12490,"whe":12491,"ĠYemen":12492,"Ġenvironments":12493,"ooting":12494,"ĠModern":12495,"eu":12496,"Ġreflects":12497,"Ġhoney":12498,"Ġanalyst":12499,"Ġgut":12500,"dec":12501,"Action":12502,"Ġhouseholds":12503,"Ġtemple":12505,"Ġreforms":12506,"Ġfavourite":12507,"Ġdeadline":12508,"ĠLE":12509,"Three":12510,"ĠWithin":12511,"Aug":12512,"Ġnights":12513,"Ġinvalid":12515,"ĠExchange":12516,"ĠDelhi":12517,"when":12518,"income":12519,"ĠðŁ":12520,"Ġwireless":12521,"ista":12523,"Ġhostile":12524,"Ġally":12525,"Ġgig":12526,"Ġoutlets":12527,"ĠDor":12528,"EMENT":12529,"Ġash":12530,"Ġabstract":12531,"ORD":12532,"ĠMotor":12533,"Ġadviser":12534,"istle":12535,"Ġbases":12536,"Ġcourtesy":12537,"Ġcrossing":12538,"Ġcleared":12539,"Ġrefugee":12540,"Ġthrows":12542,"fun":12543,"bourne":12544,"days":12545,"Ġdisagree":12546,"ĠNative":12547,"Ġreflected":12548,"ĠFast":12549,"ĠYellow":12550,"ĠSingapore":12551,"ĠRaven":12552,"Ġembrace":12553,"ĠKu":12554,"ĠChen":12555,"ĠEarly":12556,"Ġappointment":12557,"ĠMini":12558,"Ġplacing":12560,"SR":12562,"SU":12564,"Ġinvestigated":12565,"Ġphotographs":12566,"github":12567,"ĠBeat":12568,"ĠRing":12569,"iar":12571,"Ġevolved":12572,"erald":12573,"Ġhub":12575,"IAL":12576,"Ġencouraging":12577,"ĠPrint":12578,"ĠDays":12579,"Ġprosecution":12580,"Ġpants":12581,"azy":12582,"live":12583,"Ġfossil":12584,"ĠJu":12585,"Ġrocks":12586,"udge":12587,"ĠRace":12588,"Ġgreet":12589,"bie":12590,"Ġfilling":12591,"ĠLen":12592,"Ġdiabetes":12593,"Ġfirearms":12594,"uming":12595,"ĠBB":12597,"Ġaccepting":12598,"ATH":12599,"Ġresort":12600,"Ġhunt":12601,"rik":12602,"ucker":12603,"aments":12604,"Ġsustained":12605,"Ġcrossed":12606,"Ġbreakfast":12607,"Ġattributes":12608,"lected":12609,"Ġvibr":12611,"ĠKal":12612,"Ġtouched":12615,"Ġdamages":12616,"Ġimpressed":12617,"rup":12618,"ĠAdams":12620,"Hel":12621,"ĠVictor":12622,"Ġmounted":12623,"ĠCC":12624,"Ġdelicious":12625,"span":12626,"ella":12627,"uates":12632,"ĠMission":12633,"ĠTher":12634,"ĠMonster":12635,"bes":12636,"Reuters":12637,"hill":12639,"Ġconfirmation":12641,"ĠConsider":12642,"acent":12643,"Ġjet":12644,"ĠGTX":12646,"nan":12647,"ĠSpider":12648,"Ġprocessor":12649,"ĠPentagon":12651,"ĠRobinson":12652,"Ġrealistic":12653,"Ã±":12654,"Ġappearing":12655,"Ġpipe":12656,"omed":12657,"Ġawful":12659,"Ġevaluation":12660,"Ġintelligent":12661,"Ġtweets":12665,"Ġworn":12666,"Ġrebels":12669,"ĠKam":12670,"ĠNetherlands":12671,"ĠSW":12672,"Ġacquisition":12673,"ĠMale":12674,"ãĥª":12675,"ĠStatus":12678,"Bre":12679,"ĠTHIS":12680,"Ġadverse":12681,"ĠNEW":12682,"sign":12683,"Ġorganisation":12684,"enc":12685,"ĠHarper":12686,"ĠMembers":12688,"ĠPeace":12689,"ĠAirport":12690,"ĠOthers":12691,"Ġscratch":12692,"ĠPil":12693,"Ġsensor":12694,"Ġadoption":12695,"ĠHotel":12696,"ĠDrag":12697,"Ġhonestly":12698,"Ġyard":12699,"ĠForces":12700,"Ġpatent":12701,"Ġbass":12702,"Ġquietly":12703,"Ġbreathing":12704,"Ġpose":12705,"iors":12706,"ĠJess":12707,"static":12708,"ITE":12709,"Offic":12710,"Ġ140":12713,"Ġpreview":12714,"ippi":12715,"Ġunfortunately":12716,"Ġhorn":12718,"Ġreass":12719,"Ġpeer":12720,"ocker":12721,"Ġunto":12722,"ĠGray":12723,"Ġcleaning":12724,"Ġattracted":12725,"2007":12726,"Point":12727,"kill":12728,"ĠAgreement":12729,"Ġworthy":12733,"Ġflowers":12734,"town":12735,"Ġreactions":12737,"Ġindicating":12739,"MD":12740,"Ġpreference":12741,"ĠMVP":12742,"ĠTarget":12744,"gence":12745,"ĠIndians":12746,"Ġfreely":12748,"Ġmuscles":12749,"Ġlineup":12750,"Ġimpacts":12751,"ousing":12752,"omi":12753,"acular":12754,"Ġcontrolling":12755,"cery":12757,"hell":12758,"Ġranking":12759,"ĠAve":12761,"128":12762,"Ġhighway":12763,"Ġbinding":12765,"Ġstruggles":12766,"ĠPittsburgh":12767,"Ġgray":12768,"rin":12769,"Ġcomics":12770,"ĠSport":12771,"Ġrelatives":12772,"Ġprobe":12774,"Ġvoc":12776,"Ġtu":12777,"ĠCorps":12778,"Ġpossibilities":12779,"Ġqualify":12780,"Ġlibraries":12782,"Ġmigrants":12783,"Ġentries":12784,"Ġconsecutive":12785,"ĠChairman":12787,"Ġhill":12788,"IME":12789,"ĠGard":12790,"Ġinequality":12791,"fox":12792,"ĠSave":12793,"Ġtraits":12796,"Ġpour":12797,"Ġmissiles":12798,"Ġessence":12799,"Ġsends":12800,"Ġalliance":12801,"Ġwishes":12802,"ĠChristopher":12803,"Big":12804,"NY":12805,"ĠJacob":12806,"san":12807,"urred":12808,"ĠSO":12809,"lly":12810,"Ġadvocate":12811,"ĠBond":12812,"Using":12814,"Ġdistricts":12815,"ĠGate":12816,"ĠBir":12817,"ridge":12818,"ĠNaz":12819,"ĠRs":12820,"boards":12821,"ĠGa":12822,"ĠReagan":12823,"Ġinfluenced":12824,"1000":12825,"apy":12826,"Ġchallenged":12827,"Ġfaculty":12829,"Ġacquire":12831,"Ac":12832,"Ġinsect":12833,"Ġinstruments":12834,"Ġleaf":12835,"Message":12837,"Ġtale":12838,"Ġthereby":12839,"Ġtrap":12840,"Ġstrongest":12841,"ĠMilitary":12842,"Ġ1984":12844,"Ġflexible":12846,"Ġkills":12847,"Ġfinishing":12848,"ĠSize":12849,"Ġreduces":12850,"Ġorientation":12852,"full":12853,"Ġtrace":12854,"Ġlaser":12855,"Ġoppose":12856,"Ġediting":12857,"Ġmomentum":12858,"äº":12859,"show":12860,"VI":12861,"ĠLad":12862,"Ġ1985":12863,"Ġmurdered":12864,"900":12865,"Ġprobability":12867,"ĠPoll":12868,"ĠMontreal":12871,"Ġadequate":12872,"ĠPoland":12873,"ĠSheriff":12874,"Ġok":12876,"Ġ000":12877,"Ġ\"[":12878,"Ġoperators":12879,"ĠFer":12880,"Ġmodes":12881,"ĠEve":12882,"Ġdiscipline":12883,"NET":12884,"Hand":12885,"Ġoral":12886,"ĠWE":12887,"email":12888,"JP":12889,"ĠPalestinians":12890,"Ġhence":12891,"ĠLess":12892,"Ġoverl":12893,"dig":12894,"ĠCoal":12896,"Ġranging":12897,"tha":12898,"Ġdistant":12899,"Ġfib":12900,"ĠIndex":12901,"ĠWonder":12902,"ĠPel":12903,"ĠHug":12905,"ÃĹ":12906,"rait":12907,"Ġwrapped":12908,"ĠRPG":12909,"Ġchemicals":12910,"ĠMoney":12911,"Ġfrozen":12912,"Ġindirect":12913,"ĠAgainst":12914,"End":12915,"Ġuncomfortable":12916,"ĠGallery":12917,"ĠPosted":12918,"Ø§":12919,"onduct":12920,"Ġconsequence":12921,"Ġbitter":12922,"Ġ1987":12923,"pop":12924,"Ġcountless":12925,"ĠAlaska":12926,"ffff":12927,"Ġdeparture":12928,"Ġrefund":12929,"ĠIan":12930,"iated":12931,"Ġseeks":12932,"Ġmechanics":12933,"Ġjurisdiction":12934,"Ġalike":12936,"ĠHunt":12937,"athon":12938,"Ġresolved":12939,"Ġcache":12940,"Ġdistinction":12941,"direct":12942,"beat":12945,"ĠCountry":12946,"search":12947,"Ġcontinuous":12948,"Ġmodest":12949,"ĠRail":12950,"130":12952,"BUG":12953,"Ġcriminals":12954,"Ġindication":12955,"Ġencountered":12956,"last":12957,"ĠWy":12958,"Ġideology":12959,"ĠPDF":12960,"security":12961,"])":12962,"ĠJimmy":12963,"ĠEN":12964,"Ġhiring":12965,"Tem":12966,"Ġpig":12967,"aunt":12968,"ĠCrystal":12969,"Ġpenalties":12970,"Ġcapability":12971,"Ġpy":12972,"Ġproductive":12973,"Ġbalanced":12974,"ĠGeForce":12975,"click":12976,"ods":12978,"Ġafterwards":12979,"Ġplayoffs":12980,"ĠGill":12981,"User":12982,"Ġbacks":12983,"pub":12984,"tag":12985,"Ġabsurd":12986,"Ġciting":12988,"Ġtrillion":12989,"Ġobligation":12990,"Ġmaxim":12991,"ahoo":12992,"cf":12993,"umi":12994,"ĠAlpha":12995,"ĠNelson":12996,"entry":13000,"bery":13001,"ĠThor":13002,"Added":13003,"ĠDJ":13004,"ĠGene":13005,"Ġawkward":13006,"Ġwallet":13008,"ĠDivine":13009,"Ġreleasing":13011,"Ġedited":13012,"Ġaccomplished":13013,"Best":13014,"Ġedges":13015,"Ġplanes":13016,"Ġfeeding":13017,"Ġdisclosure":13019,"Ġgrain":13020,"airy":13021,"oons":13022,"VR":13024,"Ġreasonably":13025,"Ġdrum":13026,"Ġpartial":13027,"Ġgraphic":13028,"Ġunprecedented":13029,"Ġadvised":13030,"ĠAssad":13032,"points":13033,"scar":13034,"ĠZone":13035,"Ġ700":13037,"vo":13038,"Ġfixes":13040,"Ġcaution":13041,"Ġstrings":13042,"Ġpanels":13043,"Ġleak":13044,"Ġpricing":13045,"rowth":13046,"ĠError":13047,"ĠSaints":13048,"fix":13049,"Ġobservations":13050,"ĠAbs":13051,"Ġsuggestion":13052,"ĠUkrainian":13053,"Ġbarrier":13054,"Ġpainted":13055,"Bet":13056,"imir":13057,"ĠSpect":13058,"pot":13059,"Ġcompound":13061,"Ġbears":13062,"ĠRush":13063,"Ġluxury":13064,"Sum":13065,"Ġorbit":13066,"ĠMarc":13067,"Ġexempt":13068,"ĠTrail":13069,"ĠMO":13070,"ĠHans":13071,"ĠWeapon":13072,"uminum":13074,"ĠJerry":13075,"Ġbust":13076,"ĠAG":13077,"ĠWiki":13078,"Ġendless":13079,"ĠBah":13081,"ĠRadeon":13082,"keys":13083,"ĠSurvey":13084,"ĠViol":13085,"define":13086,"lean":13087,"Ġrevenues":13089,"Åį":13090,"Ġfurniture":13091,"Ġcasting":13092,"Ġdiplomatic":13093,"ĠPlayers":13094,"ĠKilled":13095,"Ġmodify":13096,"Ġinnovative":13097,"ĠAbu":13098,"nor":13099,"Ġbonds":13100,"Ġcoaching":13101,"Mer":13102,"Ġmodules":13103,"ĠPatriots":13104,"Ġenhanced":13105,"Ġproceedings":13106,"Ġteammates":13107,"Ġ128":13108,"ardo":13109,"Ġcompromise":13110,"ĠMuch":13111,"Ġflew":13112,"ĠEdge":13113,"Ġunnecessary":13114,"Ġdoctrine":13115,"report":13116,"ĠOrlando":13117,"ĠProfile":13118,"Ġplayoff":13119,"friendly":13120,"Ġcomplain":13121,"ĠMC":13122,"ĠOpt":13123,"ĠGB":13124,"Ġbeaten":13125,"Ġgolf":13126,"Ġplacement":13127,"Bit":13128,"Ġnewsletter":13129,"Ġ2019":13130,"rawl":13132,"ĠiPad":13133,"Ġacted":13134,"Ġjuice":13135,"Ġdecks":13136,"PN":13137,"ĠHalf":13139,"Ġdeleted":13140,"Ġsecrets":13141,"Ġasylum":13142,"Mart":13143,"ĠActiv":13144,"ĠGuy":13145,"ĠTs":13146,"Ġdys":13147,"Ġassuming":13148,"Ġmana":13149,"Ġ125":13151,"Media":13152,"ARY":13153,"ride":13154,"cp":13155,"Ġdifficulties":13156,"Ġcollecting":13157,"Ġbankrupt":13158,"non":13159,"Ġcomposed":13160,"Ġmilitants":13162,"Ġ>>>":13163,"ĠMormon":13164,"tor":13165,"Ġparticles":13166,"ĠBart":13167,"Ġadmin":13169,"Ġcreator":13172,"icular":13174,"NBC":13175,"Ġgrabbed":13176,"Ġrated":13178,"Ġrotation":13179,"Ġgrasp":13180,"Ġexcessive":13181,"ĠEC":13182,"ĠWhit":13183,"Ġinventory":13184,"Ġecosystem":13187,"Ġbillions":13188,"Ġventure":13189,"named":13190,"Ġdefender":13191,"oute":13192,"Instead":13193,"War":13195,"Ġassumption":13196,"Ġbite":13197,"tail":13199,"space":13200,"Ġgifts":13201,"boys":13202,"Ġinevitable":13203,"Ġstructural":13204,"Ġbeneficial":13205,"Ġcompelling":13206,"hole":13207,"ervation":13208,"Ġcoat":13209,"oj":13210,"incarn":13211,"ĠYears":13212,"Ġdetermining":13213,"Ġrhetoric":13214,"Ġboundaries":13215,"Ġwhites":13216,"Ant":13217,"addy":13218,")-":13219,"Ġharvest":13222,"ĠConc":13223,"Ġlaptop":13224,"ĠMatch":13225,"Ġenjoying":13226,"cca":13227,"ollar":13228,"Ġtrips":13229,"Ġaddiction":13230,"ĠSak":13231,"Ġpowered":13232,"ĠRussians":13234,"iere":13235,"quality":13237,"Ġdiffer":13238,"Ġkingdom":13239,"ĠCapitol":13241,"Ġconclusions":13242,"ĠNav":13244,"Ġtransparent":13245,"BER":13246,"Group":13247,"ĠComplete":13248,"Ġinsane":13251,"RO":13252,"isen":13254,"Michael":13256,"Ġmuseum":13257,"ĠPope":13258,"Ġreset":13259,"rative":13260,"five":13261,"Ġaggreg":13262,"Ġcarb":13265,"ĠRecord":13266,"Ġdecides":13267,"ĠFix":13268,"Ġexceptions":13269,"ĠCommissioner":13270,"uns":13271,"ĠEnvironmental":13272,"Ġlegendary":13273,"Ġtunnel":13275,"km":13276,"Ġinsult":13277,"Ġtroll":13278,"Ġshake":13279,"Ġdetention":13280,"ques":13281,"ĠChrome":13282,"ĠFiles":13283,"Ġsubt":13284,"Ġprospects":13285,"Ġprol":13286,"render":13287,"proof":13288,"Ġperformances":13289,"Str":13290,"Ġhref":13291,"Ġachievement":13293,"Ġfut":13294,"Full":13295,"google":13297,"ãĥĪ":13298,"ampa":13299,"Maybe":13300,"Ġprojected":13301,"ĠEmb":13302,"Ġawards":13304,"ĠâĶ":13305,"Gold":13306,"ĠBlake":13307,"ĠRaj":13308,"ifting":13309,"Ġpending":13310,"Ġinstinct":13311,"Ġdevelopments":13312,"Connect":13313,"ĠMand":13314,"ĠWITH":13315,"ĠPhilippines":13316,"profile":13317,"Ġaltogether":13318,"ĠTD":13320,"oooo":13321,"amped":13322,"iph":13323,"Ġsteam":13324,"Ġoldest":13325,"Ġdetection":13326,"Ġç":13328,"ĠWayne":13329,"2006":13330,"fa":13331,"Ġcircles":13332,"ĠFu":13333,"Ġdonors":13334,"appropriate":13335,"ĠDakota":13336,"jamin":13337,"Ġmotivated":13338,"Ġpurchases":13339,"ĠLouisiana":13340,"ĠSpl":13341,"Ġglobe":13342,"Ġ105":13343,"zip":13344,"call":13345,"Ġdepartments":13346,"Ġsustainable":13347,"105":13348,"ĠOP":13349,"ifiers":13350,"Ġprevented":13351,"ĠCommander":13353,"Ġdominated":13354,"ĠÂ»":13355,"Ġinvested":13356,"Ġcomplexity":13357,"Ġensuring":13359,"Ġrealm":13360,"ĠIndependent":13362,"rained":13363,"ĠJen":13364,"ĠFlight":13365,"Ġspeculation":13367,"ĠTE":13368,"ocate":13369,"tic":13370,"herry":13372,"Ġtoy":13373,"Ġ111":13374,"Ġplates":13375,"status":13376,"Ġdevoted":13378,"Cop":13379,"ĠES":13380,"255":13381,"urrency":13382,"Main":13383,"Ġslaves":13384,"Ġpepper":13385,"Ġquotes":13386,"Ġceiling":13387,"ĠFish":13388,"Ġtransformation":13389,"Ġfraction":13390,"Ġadvantages":13391,"Ġstunning":13393,"breaking":13395,"si":13396,"ĠLocation":13397,"ĠMedium":13398,"Ġtexts":13399,"Ġugly":13400,"Ġbio":13401,".âĢĶ":13402,"ĠBased":13403,"Ġtrains":13404,"ĠWing":13405,"ĠAncient":13406,"ĠRecords":13407,"ĠHope":13408,"Special":13409,"obi":13411,"[/":13412,"Ġtemporarily":13413,"Ver":13414,"hu":13415,"oser":13416,"Ġovernight":13417,"ĠTreasury":13419,"ĠMega":13421,"Ġtar":13422,"Ġexpects":13423,"black":13424,"orph":13425,"\\\\\\\\":13426,"Ġacceptance":13427,"Ġradar":13428,"sis":13429,"Ġjunior":13430,"Ġframes":13431,"Ġobservation":13432,"acies":13433,"Power":13434,"ĠAdvanced":13435,"Mag":13436,"ologically":13437,"ĠMechan":13438,"Ġsentences":13439,"Ġanalysts":13440,"aughters":13441,"Ġvague":13443,"Ġclause":13444,"Ġdirectors":13445,"Ġevaluate":13446,"Ġcabinet":13447,"Matt":13448,"ĠClassic":13449,"Ang":13450,"ĠBuck":13452,"Ġresearcher":13453,"Ġ160":13454,"Ġpoorly":13455,"Ġexperiencing":13456,"ĠPed":13457,"ĠManhattan":13458,"Ġfreed":13459,"Ġthemes":13460,"Ġpraise":13463,"104":13464,"ĠLibya":13465,"best":13466,"Ġtrusted":13467,"Ġcease":13468,"Ġdign":13469,"Direct":13470,"Ġbombing":13471,"Ġmigration":13472,"ĠSciences":13473,"Ġmunicipal":13474,"ĠAverage":13475,"Ġglory":13476,"Ġrevealing":13477,"Ġarena":13478,"Ġuncertainty":13479,"Ġbattlefield":13480,"iao":13481,"God":13482,"Ġcinem":13483,"rape":13484,"elle":13485,"Ġlisting":13487,"Ġwaited":13488,"Ġspotted":13489,"ĠAudio":13491,"eor":13492,"arding":13493,"idding":13494,"igma":13495,"ĠNeg":13496,"Ġlone":13497,"Ġ----":13498,"exe":13499,"deg":13500,"Ġtransf":13501,"Ġwash":13502,"Ġslavery":13503,"Ġexploring":13504,"ĠWW":13505,"Ġencl":13507,"lies":13508,"ĠCreek":13509,"Ġwooden":13510,"Manager":13511,"ĠBrand":13512,"ummy":13513,"ĠArthur":13514,"Ġblend":13516,"arians":13517,"Further":13518,"Ġsupposedly":13519,"Ġwinds":13520,"Ġ1979":13521,"Ġgravity":13522,"Ġanalyses":13523,"ĠTravel":13524,"Ġdumb":13526,"Ġalternate":13527,"gal":13528,"Ġconsumed":13529,"Ġeffectiveness":13530,".''":13531,"Ġpaths":13532,"onda":13533,"LA":13534,"ĠStrong":13535,"Ġenables":13536,"Ġescaped":13537,"Ġ\"\"":13538,"Ġ112":13539,"Ġ1983":13540,"Ġsmiled":13541,"Ġtendency":13542,"Fire":13543,"ĠRoc":13545,"Ġlake":13546,"Ġfitness":13547,"ĠAth":13548,"ĠHorn":13549,"Ġhier":13550,"Ġimpose":13551,"mother":13552,"Ġpension":13553,"icut":13554,"borne":13555,"._":13557,"ĠSU":13558,"Ġpolar":13559,"isy":13560,"ATA":13563,"write":13564,"Ġexercises":13565,"ĠDiamond":13566,"Ġharmful":13568,"onz":13569,"Ġprinting":13570,"story":13571,"Ġexpertise":13572,"ĠGer":13573,"Ġtragedy":13574,"ĠFly":13575,"ampire":13577,"stock":13578,"Mem":13579,"Ġreign":13580,"Ġamend":13582,"ĠProphet":13583,"Ġmutual":13584,"Ġreplacing":13586,"Har":13587,"ĠCircuit":13588,"Ġthroat":13589,"ĠShot":13590,"Ġbatteries":13591,"Ġtoll":13592,"Ġaddressing":13593,"ĠMedicaid":13594,"ĠNar":13596,"olk":13597,"Ġequity":13598,"MR":13599,"ĠLarge":13601,"mid":13602,"Dev":13603,"Ġexped":13604,"Ġdemo":13605,"ĠMarshall":13606,"Ġfiber":13608,"Ġdivorce":13609,"ĠCreate":13610,"Ġslower":13611,"ĠParker":13612,"ĠStudent":13613,"ĠTraining":13614,"Return":13615,"ĠTru":13616,"Ġcub":13617,"Ġpanic":13619,"Ġquarters":13620,"Ġrect":13621,"Ġtreating":13622,"Ġrats":13623,"ĠChristianity":13624,"oler":13625,"Ġsacred":13626,"Ġdeclare":13627,"eting":13629,"Ġdelivering":13630,"estone":13631,"Ġtel":13632,"ĠLarry":13633,"Ġmeta":13634,"accept":13635,"artz":13636,"ĠRoger":13637,"handed":13638,"Ġheader":13639,"Ġtrapped":13640,"ĠCentury":13641,"Ġknocked":13642,"ĠOxford":13643,"Ġsurvivors":13644,"bot":13645,"Ġdemonstration":13646,"Ġdirt":13647,"Ġassists":13648,"OME":13649,"ĠDraft":13650,"folio":13652,"pered":13653,"usters":13654,"gt":13655,"ĠLock":13656,"Ġjudicial":13657,"verted":13658,"Ġsecured":13659,"outing":13660,"ĠBooks":13661,"Ġhosting":13662,"Ġlifted":13663,"length":13664,"Ġjer":13665,"Ġwheels":13666,"ĠRange":13667,"Ġdiagnosis":13669,"tech":13670,"ĠStewart":13671,"Ġnationwide":13673,"Ġdear":13674,"Ġobligations":13675,"Ġgrows":13676,"Ġmandatory":13677,"Ġsuspicious":13678,"!'":13679,"Great":13681,"Ġmortgage":13682,"Ġprosecutor":13683,"Ġeditorial":13684,"ĠKr":13685,"Ġprocessed":13686,"ungle":13687,"Ġflexibility":13688,"Earlier":13689,"ĠCart":13690,"Ġfocuses":13692,"Ġstartup":13693,"Ġbreach":13694,"ĠTob":13695,"cycle":13696,"ãĢĮ":13697,"rose":13698,"Ġbizarre":13699,"ãĢį":13700,"Ġvegetables":13701,"$$":13702,"Ġretreat":13703,"oshi":13704,"ĠShop":13705,"ĠGround":13706,"ĠStop":13707,"ĠHawaii":13708,"ĠAy":13709,"Perhaps":13710,"enna":13713,"Ġproductivity":13714,"Fixed":13715,"control":13716,"Ġabsent":13717,"ĠCampaign":13718,"Green":13719,"Ġidentifying":13720,"Ġregret":13721,"Ġpromoted":13722,"ĠSeven":13723,"ĠPin":13727,"ĠLiving":13728,"Cost":13729,"omatic":13730,"ocy":13733,"Ġinbox":13734,"Ġempire":13735,"Ġbranches":13737,"Ġmetaph":13738,"Active":13739,"edi":13740,"ĠFilm":13741,"ĠSomething":13742,"Ġmods":13743,"ĠOriginal":13745,"Gen":13746,"Ġspirits":13747,"Ġearning":13748,"Hist":13749,"Ġriders":13750,"MT":13752,"ĠVA":13753,"ĠSalt":13754,"Ġoccupation":13755,"ĠMi":13756,"lict":13758,"Ġnit":13759,"Ġnodes":13760,"ĠPier":13762,"Ġhatred":13763,"psy":13764,"ãĥī":13765,"Ġtheater":13766,"Ġsophisticated":13767,"Ġdefended":13768,"Ġbesides":13769,"Ġthoroughly":13770,"ĠMedicare":13771,"Ġblamed":13772,"Ġcrying":13774,"FOR":13775,"priv":13776,"Ġsinging":13777,"ĠIl":13778,"Ġcute":13779,"ĠNeuro":13782,"å¤":13783,"Ġdonation":13784,"ĠEagles":13785,"ĠGive":13786,"Tom":13787,"Ġsubstantially":13788,"ĠLicense":13789,"ĠJa":13790,"Ġgrey":13791,"ĠAnimal":13792,"ĠER":13793,"ĠUnd":13794,"Ġkeen":13795,"Ġconclude":13796,"ĠMississippi":13797,"ĠStudios":13799,"Press":13800,"overs":13801,"llers":13802,"Ġ350":13803,"ĠRangers":13804,"Ġrou":13805,"erto":13806,"Ep":13807,"issa":13808,"ivan":13809,"Ġseal":13810,"display":13812,"Ġweaken":13813,"uum":13814,"ĠCommons":13815,"ĠSay":13816,"Ġcultures":13817,"Ġlaughed":13818,"Ġslip":13819,"Ġtreatments":13820,"mart":13822,"ĠRice":13823,"Ġbeast":13824,"Ġobesity":13825,"ĠLaure":13826,"iga":13827,"Which":13828,"holder":13829,"Ġelderly":13830,"Ġpays":13831,"Ġcomplained":13832,"Ġcrop":13833,"Ġproc":13834,"Ġexplosive":13835,"ĠFan":13836,"ĠArsenal":13837,"Author":13838,"eful":13839,"Ġmeals":13840,"Ġ(-":13841,"idays":13842,"Ġimagination":13843,"Ġannually":13844,"Ġms":13845,"Head":13847,"ikh":13848,"matic":13849,"Ġboyfriend":13850,"ĠComputer":13851,"Ġbump":13852,"Ġsurge":13853,"ĠCraig":13854,"ĠKirk":13855,"Del":13856,"Ġscenarios":13858,"ĠMut":13859,"ĠStream":13860,"Ġcompetitors":13861,"ÙĦ":13862,"ĠStanford":13863,"ĠResources":13864,"azed":13865,"bage":13866,"ĠRelease":13868,"Ġseparately":13869,"Ġhabits":13870,"Ġmeasurements":13871,"ĠClose":13872,"Ġaccompany":13873,"Ġgly":13874,"Ġtang":13875,"ĠRou":13876,"Ġplugin":13877,"Ġconvey":13878,"ĠChallenge":13879,"oots":13880,"jan":13881,"ĠRelations":13883,"keeper":13884,"Ġapproaching":13885,"ping":13886,"Speaking":13887,"Ġarrangement":13888,"ĠVI":13889,"Ġaffecting":13891,"Ġpermits":13892,"because":13893,"Ġuseless":13894,"ĠHus":13895,"!!!!":13896,"Ġdestroying":13897,"Unfortunately":13898,"Ġfascinating":13899,"Sem":13900,"Ġelectoral":13901,"Ġtransparency":13902,"ĠChaos":13903,"Ġvolunteer":13904,"Ġstatistical":13905,"Ġactivated":13906,"rox":13907,"Web":13908,"HE":13909,"ĠHampshire":13910,"isive":13911,"Map":13912,"Ġtrash":13913,"ĠLawrence":13914,"stick":13915,"Cr":13916,"Ġrings":13917,"EXT":13918,"Ġoperational":13919,"opes":13920,"Does":13921,"ĠEvans":13922,"Ġwitnessed":13923,"Port":13924,"Ġlaunching":13925,"econom":13926,"wear":13927,"umm":13929,"ĠRAM":13931,"ĠTun":13932,"Ġassured":13933,"Ġbinary":13934,"Ġbetray":13935,"Ġexploration":13936,"ĠFel":13937,"Ġadmission":13938,"itated":13939,"Sy":13940,"Ġavoided":13941,"ĠSimulator":13942,"Ġcelebrated":13943,"ĠElectric":13944,"¥ŀ":13945,"Ġcluster":13946,"health":13948,"Line":13949,"ĠNash":13950,"aton":13951,"Ġspare":13952,"Ġenterprise":13953,"ĠDIS":13954,"Ġflights":13956,"Ġregards":13957,"ĠÃĹ":13958,"half":13959,"Ġtrucks":13960,"Ġcontacts":13961,"ĠClimate":13963,"Ġimmense":13964,"NEW":13965,"occ":13966,"ective":13967,"Ġpatrol":13969,"Ġbeside":13970,"Ġviable":13971,"Ġcreep":13972,"Ġtriggered":13973,"Ġcomparable":13975,"ql":13976,"Ġgaining":13977,"asses":13978,"ĠGrey":13980,"ĠMLS":13981,"sized":13982,"Ġprosper":13983,"\"?":13984,"Ġpolling":13985,"ĠRC":13987,"Ġfirearm":13988,"orient":13989,"Ġfence":13990,"Ġvariations":13991,"giving":13992,"ĠPi":13993,"ospel":13994,"Ġpledge":13995,"Ġcure":13996,"Ġspy":13997,"Ġviolated":13998,"Ġrushed":13999,"Ġstroke":14000,"ĠBlog":14001,"ĠEc":14003,",''":14004,"Ġpale":14005,"ĠCollins":14006,"terror":14007,"ĠCanadians":14008,"Ġtune":14009,"Ġlaboratory":14010,"Ġdisability":14013,"ĠGam":14014,"Ġsinger":14015,"alg":14016,"ĠSenior":14017,"Ġtraded":14018,"ĠWarrior":14019,"Ġinfring":14020,"ĠFranklin":14021,"Ġstrain":14022,"ĠSwedish":14023,"Ġseventh":14024,"ĠBenn":14025,"ĠTell":14026,"Ġsyndrome":14027,"Ġwondered":14028,"iden":14029,"++++":14030,"igo":14031,"Ġpurple":14032,"Ġjournalism":14033,"Ġrebel":14034,"Ġfu":14035,"blog":14036,"Ġinvite":14037,"ĠContact":14039,"Israel":14040,"ĠContent":14041,"Ġcheer":14042,"Ġbedroom":14043,"ĠEngineering":14044,"ĠQueens":14045,"Ġdwell":14046,"ĠPlayStation":14047,"ĠDim":14048,"lr":14050,"Ġoperates":14051,"Ġmotivation":14052,"USA":14053,"Core":14055,"ĠTruth":14056,"olo":14057,"OSE":14058,"ĠMemory":14059,"Ġ1920":14062,"ĠYam":14063,"Ã¨":14064,"bid":14065,"Ġgrateful":14066,"Ġexcitement":14067,"Ġtreasure":14068,"Ġlongest":14069,"ctive":14070,"Ġdeserves":14071,"Ġreserves":14072,"Ġcops":14073,"ĠOttawa":14074,"ĠEgyptian":14075,"anked":14076,"Ġhypothesis":14078,":/":14079,"Ġpurchasing":14080,"Ġlovely":14081,"HP":14082,"Ġdivide":14083,"Ġstrictly":14084,"Ġquestioning":14085,"Ġtaxpayers":14086,"ĠJoy":14087,"Ġrolls":14088,"ĠHeavy":14089,"Ġports":14090,"Ġmagnetic":14091,"Ġbrush":14093,"âĪĴ":14095,"Ġbottles":14096,"ppy":14097,"Ġpadd":14098,"ãĤ¯":14099,"million":14100,"Ġdevastating":14101,"Ġcompiled":14102,"Ġmedication":14103,"Ġtwelve":14104,"ĠPerry":14105,"Space":14106,"imb":14107,"your":14108,"Ġleaked":14109,"ĠTar":14110,"Ġunity":14111,"Ġinfected":14112,"Ġtraveled":14113,"IDE":14114,"ĠMcDonald":14115,"txt":14116,"ĠTaiwan":14119,"Ġbearing":14121,"ĠThread":14122,"Ġzones":14123,"izards":14124,"unks":14125,"Chapter":14126,"llor":14127,"ĠÂ·":14128,"Ġwounds":14129,"Ġdiscretion":14130,"Ġsucceeded":14131,"iking":14132,"Ġiconic":14133,"Call":14134,"Ġscreening":14135,"ĠMis":14136,"Ġministers":14138,"Ġseparation":14139,"Player":14140,"Ġbeloved":14142,"Ġcounting":14143,"ĠEye":14144,"around":14145,"inging":14146,"Ġtablet":14147,"Ġoffence":14148,"inance":14149,"have":14150,"ĠInfo":14151,"ĠNinja":14152,"Ġprotective":14153,"ĠCass":14154,"Mac":14155,"ĠQuality":14156,"North":14157,"ĠCuba":14159,"ĠChronicle":14160,"ĠProperty":14161,"Ġfastest":14162,"otos":14163,"OWN":14165,"Ġboom":14166,"ĠStanley":14167,"Ġclever":14169,"Ġenters":14170,"mode":14171,"ĠSens":14173,"Ġlinear":14174,"ARK":14175,"Ġcomparing":14176,"Ġpurely":14177,"Ġsafer":14178,"ĠPotter":14179,"Ġcups":14180,"RT":14181,"Ġattributed":14183,"Ġdupl":14184,"ĠPap":14185,"Ġprecious":14186,"Ġpa":14187,"ictionary":14188,"ĠToo":14190,"stan":14192,"Ġrobots":14193,"Ġstatute":14195,"Ġprevention":14196,"western":14197,"160":14198,"ĠActive":14199,"ĠMaria":14200,"hal":14201,"None":14202,"ĠKB":14204,"ĠPartners":14205,"ĠSingle":14206,"ĠFollowing":14207,"ango":14208,"acious":14209,"Ġthou":14210,"Ġkg":14211,"Ġinfluential":14212,"ĠFriends":14213,"Sur":14214,"ainted":14215,"Ġforums":14216,"Ġstarter":14217,"Ġcitizenship":14218,"ĠElection":14219,"osph":14222,";;;;":14223,"pur":14225,"eren":14226,"Ġaccusations":14227,"abbit":14229,"ĠOrd":14230,"Posted":14231,"irk":14232,"Ġsensitivity":14233,"iche":14234,"ĠAmy":14235,"ĠFab":14236,"Ġsummit":14237,"Ġrubber":14239,"Ġagricultural":14240,"Ġcancel":14241,"AE":14242,"Ġfirmly":14245,"iw":14246,"stage":14247,"ĠKan":14248,"Ġtier":14249,"Ġinvention":14250,"Ġtranslated":14251,"ĠRules":14252,"Box":14253,"Twitter":14254,"Ġpizza":14256,"Ġdebug":14257,"ĠDrop":14258,"vs":14259,"Ġhorses":14260,"big":14261,"Ġboring":14262,"Ġhood":14263,"ĠMcCain":14264,"ĠBros":14266,"Ġskip":14267,"Ġessay":14268,"stat":14269,"ĠLegends":14270,"Ġammunition":14271,"auc":14272,"Ġshooter":14273,"Ġunh":14274,"Ġsupplied":14275,"Ġgeneric":14276,"ĠSK":14277,"Ġ255":14280,"Ġclimbing":14281,"Former":14282,"Ġflip":14283,"Ġjumping":14284,"Ġfrustration":14285,"ĠTerry":14286,"Ġneighborhoods":14287,"Ġmedian":14288,"Ġbrains":14290,"Following":14291,"Ġshaped":14292,"Ġdraws":14293,"Ġaltered":14294,"Jack":14295,"Ġrecipes":14296,"Ġskilled":14297,"wealth":14298,"achi":14299,"election":14300,"Ġbehaviors":14301,"ĠUntil":14303,"Fe":14304,"Ġdeclaration":14305,"marks":14306,"ĠBetween":14307,"Ġreson":14309,"Ġbubble":14310,"Among":14311,"Ġimperial":14312,"GS":14313,"Ġfeminist":14314,"2005":14315,"ĠKyle":14316,"Ġaccounting":14317,"ĠTele":14318,"ĠTyr":14319,"Ġconnecting":14320,"Ġrehab":14321,"sim":14323,"Ġmeantime":14324,"Ġphysician":14325,"MW":14326,"ĠCampbell":14327,"ĠBrandon":14328,"Ġcontributing":14329,"ĠRule":14330,"ĠWeight":14331,"ĠNap":14332,"Ġinteractive":14333,"Ġvag":14334,"Ġhelmet":14335,"ĠComb":14336,"four":14337,"Ġshipped":14338,"Ġcompleting":14339,"ĠPD":14340,"Ġspreading":14342,"Ġscary":14343,"erving":14344,"ĠGas":14345,"Ġfrank":14346,"school":14347,"Ġromantic":14348,"Ġstabil":14349,"Rob":14350,"Ġaccurately":14351,"Ġacute":14352,"ĠHann":14353,"Ġsymbols":14354,"Ġcivilization":14355,"ĠAW":14356,"Ġlightning":14357,"Ġconsiders":14358,"Ġvenue":14359,"Ġ×":14360,"Ġoven":14361,"ĠSF":14362,"his":14363,"Ġnu":14364,"ĠLearn":14365,"Ġpeoples":14366,"Ġstd":14367,"ĠStatistics":14370,"Ġcorners":14371,"ĠBaker":14372,"Ġ:)":14373,"olver":14375,"Ġlaughing":14376,"ĠTodd":14377,"onde":14378,"ĠHills":14379,"Ġnuts":14380,"ĠWoman":14381,"plane":14382,"Ġliver":14383,"ĠInside":14384,"Sorry":14385,"Ġagrees":14386,"ĠFisher":14388,"Ġauction":14389,"Ġthreads":14390,"glas":14391,"ĠBasic":14392,"ĠNat":14393,"Ġlacking":14394,"Ġcelebration":14395,"ju":14396,"Ġsilly":14397,"Euro":14398,"ighty":14400,"controlled":14401,"Test":14402,"ĠSingh":14403,"Ġrage":14404,"ĠPhantom":14407,"Ġheadlines":14408,"Ġresponding":14409,"ĠMorning":14410,"Ġvitamin":14411,"Ġboots":14412,"ĠSite":14413,"pi":14415,"Ġviral":14416,"ĠUC":14417,"DER":14418,"ĠSex":14419,"Ġstocks":14420,"current":14421,"Ġchurches":14422,"ĠRare":14423,"ĠMurphy":14424,"Ġdenial":14425,"ĠGaming":14426,"Ġmakers":14429,"ĠRonald":14430,"Ġgenerous":14431,"ĠDoc":14432,"ĠMorris":14433,"Ġtransformed":14434,"ĠNormal":14435,"Ġ104":14436,"ĠKickstarter":14437,"ĠUpon":14438,"Online":14439,"ĠIRS":14440,"Ġwrap":14441,"Ġloving":14442,"Ġarrives":14443,"ĠDue":14444,"Ġheter":14445,"ĠMade":14446,"Ġrental":14447,"Ġbelongs":14448,"Ġattorneys":14449,"Ġcrops":14450,"Ġmatched":14451,"ulum":14452,"oline":14453,"109":14454,"Ġdispar":14455,"Ġbuyers":14456,"ĠCambridge":14457,"Ġethics":14458,"Ġjustified":14460,"Ġmarginal":14461,"Ġrespected":14462,"winning":14463,"Ġnodded":14464,"ĠFormer":14466,"Craft":14467,"################":14468,"ĠWarner":14469,"Ġdash":14470,"ete":14471,"ĠEscape":14473,"Ġknees":14475,"ĠBomb":14476,"Pass":14478,"Ġattitudes":14479,"government":14480,"ĠPrior":14481,"Ġqualities":14482,"Ġnotification":14483,"ĠPhone":14484,"lie":14485,"Ġanticipated":14486,"ĠCombat":14487,"ĠBarry":14488,"Ġ1982":14489,"Users":14490,"oner":14491,"Ġcomputing":14492,"ĠConnecticut":14493,"Ġlesser":14494,"Ġpeers":14495,"ĠCu":14496,"Ġtechnically":14497,"Ġsubmission":14498,"ĠUniversal":14499,"Ġmanually":14500,"Ġrespondents":14502,"ĠBTC":14503,"ĠHost":14504,"Ġfare":14505,"ĠBird":14506,"Ġreceipt":14507,"also":14508,"Ġjack":14509,"Ġagriculture":14510,"Ġskull":14511,"Ġ!=":14512,"Ġpassive":14513,"ĠCI":14514,"Ġsocieties":14515,"Ġreminded":14516,"Ġinterference":14517,"Buy":14518,"Ġâľ":14519,"gon":14520,"Ġscrutiny":14521,"ĠWitch":14522,"Ġconducting":14523,"Ġãĥ":14524,"Ġexchanges":14525,"ĠMitchell":14526,"Ġinhabit":14527,"Ġtwist":14528,"BD":14529,"Ġwherever":14530,"Ġjokes":14532,"ĠBenjamin":14533,"ĠRandom":14534,"frame":14535,"ĠLions":14536,"Ġhighlighted":14537,"ĠArkansas":14538,"Ent":14539,"Ġpile":14540,"gs":14542,"minded":14543,"Ġfelony":14544,"ĠGA":14545,"ĠLuck":14546,"Ġpractically":14547,"ĠBos":14548,"Ġactress":14549,"Dam":14550,"ĠBou":14551,"Ġvisa":14552,"Ġembedded":14553,"Ġhybrid":14554,"Ġearliest":14555,"Ġsooner":14556,"social":14557,"ĠHA":14558,"Ġsteep":14559,"Ġexploit":14561,"ĠEgg":14562,"ĠUltra":14563,"Ġnecessity":14564,"Local":14565,"iege":14566,"Ġdated":14567,"Ġmasses":14568,"Ġsubscription":14569,"pless":14570,"Ġpresumably":14572,"Blue":14573,"Their":14574,"ĠPhilip":14576,"loaded":14578,"rane":14579,"Ġreflection":14580,"China":14581,"Ġextends":14582,"Ġforming":14583,"Ġunders":14584,"2001":14585,"Ġgrat":14586,"Ġconcentrations":14587,"Ġinsulin":14588,"Ġsecular":14589,"Ġwhilst":14590,"Ġwinners":14591,"Advertisements":14592,"Ġdeliberately":14593,"ĠWorking":14594,"Ġsink":14595,"etics":14596,"dale":14597,"Ġmandate":14598,"Ġgram":14599,"Ġvacation":14600,"Ġwarnings":14601,"ripp":14602,"ĠTHAT":14603,"Ġcommentary":14604,"Ġaest":14606,"Ġreasoning":14607,"Ġbreakdown":14608,"ĠZombie":14609,"Ġ-->":14610,"ĠPolitical":14611,"cott":14612,"Ġthrust":14613,"Ġtechnological":14614,"Ġdeciding":14615,"Ġtrafficking":14616,"Long":14617,"Welcome":14618,"prising":14619,"ĠCommunications":14620,"Ġswift":14622,"ĠHTTP":14626,"Ġenroll":14627,"ĠHappy":14628,"usr":14629,"intage":14630,"ĠMaterial":14633,"Ġrepeal":14634,"kh":14636,"ĠModi":14637,"Ġunderneath":14638,"ĠIL":14639,"shore":14640,"Ġdiagnosed":14641,"Ġshower":14643,"aux":14644,"ĠSwitch":14645,"ĠStrength":14646,"Ġjihad":14647,"national":14648,"Ġtrauma":14649,"ussy":14650,"oni":14651,"Ġcalories":14653,"ĠFlynn":14654,"agged":14655,"168":14656,"ĠPink":14657,"Ġfulfill":14658,"Ġchains":14659,"Ġnotably":14660,"ĠAV":14661,"Life":14662,"ĠChuck":14663,"mus":14664,"ĠUrban":14665,"ĠHend":14666,"Ġdeposit":14667,"ĠSad":14668,"Ġaffair":14669,"ORK":14670,"ĠFDA":14672,"Ġtrop":14673,"ĠOverall":14674,"Ġvirtue":14675,"Ġsatisfaction":14676,"Ġlun":14678,"ĠSwitzerland":14679,"ĠOperation":14680,"process":14681,"Ġshook":14682,"Ġcounties":14683,"ĠCharlotte":14685,"112":14686,"Ġtranscript":14687,"push":14689,"ĠHey":14690,"ĠAnalysis":14691,"[\"":14692,"Ġalternatives":14693,"ĠLeaf":14697,"Having":14698,"ĠHub":14699,"Ġexpressions":14700,"ĠVolume":14701,"Ġshocking":14702,"ĠReds":14703,"Ġreadily":14704,"Ġplanets":14705,"Ġcollapsed":14707,"ĠMadrid":14708,"Ġirrit":14709,"ipper":14710,"ĠEnc":14711,"ĠWire":14712,"Ġbuzz":14713,"ĠGP":14714,"asha":14715,"Ġaccidentally":14716,"uru":14717,"Ġfrustrated":14718,"ĠSA":14719,"Ġhungry":14720,"ĠHuff":14721,"Ġlabels":14722,"anto":14723,"ĠEP":14724,"Ġbarriers":14725,")|":14726,"ĠBerkeley":14727,"ĠJets":14728,"Ġpairs":14729,"ĠLan":14730,"James":14731,"ĠBear":14732,"Ġhumor":14733,"ĠLiberty":14734,"Ġmagnitude":14735,"Ġaging":14736,"ĠMason":14737,"Ġfriendship":14738,"umbling":14739,"Ġemerge":14740,"Ġnewspapers":14741,"Ġambitious":14742,"ĠRichards":14743,"Ġ1981":14745,"Ġcookies":14746,"Ġsculpt":14747,"Ġpursuit":14748,"Location":14749,"Ġscripts":14750,"pc":14751,"Ġarrangements":14752,"Ġdiameter":14753,"Ġloses":14754,"Ġliqu":14756,"ĠJake":14757,"arette":14758,"Ġunderstands":14759,"ĠZen":14760,"vm":14761,"Ġapprove":14762,"Ġultra":14764,"Ġintend":14765,"ĠDI":14766,"Ġstays":14768,"ĠKor":14769,"ĠKl":14770,"Ġinvesting":14771,"La":14772,"Ġbelieving":14773,"bad":14774,"mouth":14775,"Ġtaxpayer":14776,"ãĥĥ":14777,"ĠQuebec":14778,"Ġlap":14779,"ĠSwiss":14780,"drop":14781,"Ġdrain":14782,"iri":14783,"etc":14784,"Ġstraw":14787,"Ġscreaming":14788,"Ġcounted":14789,"Ġdamaging":14790,"Ġambassador":14791,"century":14792,"Ġarrests":14794,"uv":14795,"ilateral":14796,"Ġprescribed":14798,"Ġindependently":14799,"Ġfierce":14800,"ĠBaby":14801,"Ġbrave":14802,"Ġsuits":14803,"=>":14804,"Ġbaseline":14805,"ĠRate":14806,"Ġislands":14807,"Ġ((":14808,"green":14809,"Ġnamely":14811,"ĠVillage":14812,"than":14813,"amy":14814,"Version":14815,"gmail":14816,"ĠSud":14818,"ĠMelbourne":14819,"Ġarriving":14820,"Ġquantum":14821,"eff":14822,"Tri":14824,"Ġfuneral":14825,"ĠIR":14826,"ĠCob":14828,"Ġcombo":14831,"Review":14832,"Ġdeployment":14833,"uity":14834,"Ġinvisible":14836,"Ġrendering":14837,"Ġunlocked":14838,"Ġaqu":14839,"ĠVladimir":14840,"Ġpad":14841,"ĠBrain":14842,"ĠLegacy":14843,"dragon":14844,"ĠKurdish":14845,"Ġsounded":14846,"Ġdetained":14847,"ĠDM":14848,"gary":14849,"Ġdaughters":14850,"Ġdisturbing":14851,"uka":14852,"ĠParad":14853,"Ġtast":14854,"Ġunfortunate":14855,"Ġul":14856,"emin":14857,"Ġattendance":14858,"Ġparks":14860,"ĠMemorial":14861,"ĠAlice":14862,"guard":14864,"ĠForum":14867,"Rich":14868,"Ġshifted":14869,"uez":14870,"Ġlighter":14871,"ĠMagn":14872,"Ġcod":14873,"Sch":14874,"Pub":14876,"350":14877,"ĠPokemon":14878,"Ġprototype":14879,"Ġunre":14880,"Base":14881,"ĠStudents":14882,"ĠReply":14883,"ĠCommunist":14884,"Ġgau":14885,"ĠTyler":14886,"IZ":14887,"Ġparticipated":14888,"ĠDetails":14890,"Ġvessels":14891,"rod":14892,"Ġtribe":14893,"keep":14894,"Ġassumptions":14895,"Ġpound":14896,"Ġcrude":14897,"ĠAvailable":14898,"Ġswimming":14899,"Ġinclusion":14900,"Ġadvances":14901,"Ġconservation":14903,"ĠBuffalo":14905,"Article":14906,"edge":14907,"ĠMadison":14909,"ĠKrist":14912,"ĠHighway":14914,"ĠTerror":14915,"Ġactivation":14916,"Ġunconscious":14917,"ĠSatan":14918,"ĠSusan":14919,"illery":14920,"Ġarranged":14921,"iop":14922,"Ġrumors":14923,"urring":14924,"think":14925,"ĠKeith":14926,"ĠKind":14927,"Ġavoiding":14928,"byn":14929,"nut":14930,"ĠSpeaker":14931,"rus":14932,"names":14933,"Ġguilt":14934,"ĠOlympics":14935,"Ġsail":14936,"ĠMes":14937,"levant":14938,"ĠColumbus":14939,"City":14941,"South":14942,"ĠHarvey":14943,"ĠPun":14944,"Several":14945,"Ġmentally":14946,"Ġimpress":14947,"mount":14948,"ĠUbuntu":14949,"âĢĶâĢĶâĢĶâĢĶâĢĶâĢĶâĢĶâĢĶ":14950,"ĠSuperman":14951,"ĠMPs":14952,"Ġintentions":14953,"ĠRacing":14954,"Ġlikelihood":14955,"Ġ240":14956,"Total":14957,"Ġtoys":14958,"ĠWatson":14959,"Ġurge":14960,"ĠPaper":14962,"Ġoccurring":14963,"Ġstones":14966,"Tim":14967,"ĠTwin":14968,"zb":14969,"Ġpolitician":14971,"kens":14972,"ĠEnterprise":14973,"Ġrefresh":14976,"Ġarbitrary":14977,"Ġtroubles":14979,"Ġ});":14980,"tv":14981,"Ġpilots":14982,"Ġdistribute":14983,"Ġaudit":14984,"Ġpause":14985,"original":14986,"Ġrivals":14987,"Â£":14988,"Fig":14989,"TL":14990,"abil":14991,"rying":14992,"Lin":14993,"lon":14995,"Ġfancy":14996,"Ġcrashed":14997,"Ġtract":14998,"Ġshed":14999,"Ġconsume":15000,"Based":15001,"download":15002,"init":15003,"Ġvoltage":15004,"Ġcondemned":15006,"ĠFinance":15007,"respect":15008,"Ġexcluded":15009,"Ġestablishing":15010,"Ġheritage":15012,"Ġspectacular":15013,"ĠSnowden":15015,"ĠLane":15016,"San":15017,"Ġprotections":15018,"Ġmacro":15021,"Custom":15022,"Ġesp":15024,"Ġfunctioning":15025,"Ġpuzzle":15027,"Ġethical":15028,"Mal":15029,"Ġgoverning":15030,"ĠFerguson":15031,"Ġrestored":15032,"Ġstressed":15033,"ĠCounter":15034,"ĠKas":15035,"clip":15036,"ANS":15037,"UK":15039,"api":15042,"Ġpermanently":15043,"West":15045,"Through":15046,"Light":15047,"Ġneat":15049,"Ġcord":15050,"urer":15051,"Ġseverely":15052,"Ġinterrog":15054,"Ġtriple":15055,"Given":15056,"Number":15057,"Ġarise":15058,"plant":15060,"Ġflower":15061,"ĠCou":15062,"Ġate":15063,"Ġnewer":15064,"bul":15065,"Ġmeanwhile":15066,"Ġadjustment":15068,"ĠCopyright":15069,"Ġdivers":15070,"iological":15071,"Ġgamers":15072,"oat":15073,"Ġhistorically":15074,"Ġanalog":15075,"Ġlongtime":15076,"Ġprescription":15077,"ĠMist":15078,"ĠHyper":15079,"ĠMaine":15080,"ĠPic":15085,"Sil":15086,"ĠCris":15088,".;":15089,"({":15090,"ependence":15091,"Ġquad":15094,"team":15097,"Ġcapitalist":15098,"ĠLot":15099,"Ġroyal":15100,"ĠCyber":15101,"Ġblacks":15102,"riv":15104,"ĠDanny":15105,"Ġspo":15106,"ĠRO":15107,"Ġanimated":15108,"ĠDeputy":15110,"Ġrendered":15111,"FE":15112,"Ġstreak":15113,"Ġclouds":15114,"ĠDoug":15115,"~~~~~~~~":15116,"Ġdiscour":15117,"Ġpsychology":15119,"ĠJourney":15120,"Ġcrystal":15121,"ĠFrost":15122,"Ġsuspicion":15123,"Ġrelate":15124,"orus":15125,"ĠCrypt":15126,"ĠNVIDIA":15127,"comed":15128,"uting":15129,"Ġvulnerability":15131,"Ġisolation":15133,"Ġcooling":15134,"ĠCoalition":15135,"Ġ119":15136,"Four":15137,"ĠDeal":15138,"Ġâī":15139,"semble":15140,"ĠBarcelona":15142,"Ġ102":15143,"Ġcocaine":15144,"ocalypse":15145,"Feb":15146,"ogenic":15147,"Ġmutation":15148,"ĠKel":15150,"ĠGit":15151,"ais":15152,"Ġsisters":15153,"ANK":15154,"Ġactivate":15155,"Ter":15156,"Ġdread":15157,"ylon":15158,"Aust":15160,"Ġoutdoor":15162,"Ġsheer":15163,"Ġgently":15165,"Ð¾":15166,"Program":15167,"ĠâĨĴ":15168,"Ġvegan":15169,"ĠCrus":15170,"Ġresponsibilities":15171,"ĠHR":15172,"OLD":15173,"Ġprevents":15174,"Ġstiff":15175,"ĠWere":15176,"Ġathletic":15177,"ĠScore":15178,"Ġ):":15179,"Ġcolumns":15180,"ĠLoc":15181,"available":15182,"ĠSessions":15184,"Ġcompanion":15185,"Ġpacks":15186,"140":15187,"ĠKnights":15188,"Ġfart":15189,"Ġstreams":15190,"Ġshore":15191,"Ġappeals":15192,"ĠPerformance":15193,"ĠStra":15195,"ĠNag":15196,"103":15197,"ĠTransportation":15198,"BB":15199,"Ev":15200,"zan":15201,"Public":15202,"Ġtwin":15203,"ulsion":15204,"Mult":15205,"Ġelectro":15206,"Ġstatue":15207,"ationally":15208,"ĠNort":15209,"Ġinspection":15210,"/*":15211,"igue":15212,"Ġcompassion":15213,"ĠTales":15214,"ĠStein":15215,"ĠScreen":15216,"ĠBug":15217,"ĠLion":15218,"girl":15219,"Ġwithdrawal":15220,"Ġobjectives":15221,"Ġbloody":15222,"Ġpreliminary":15223,"Ġjacket":15224,"Ġdimensions":15225,"ĠCool":15226,"ĠOccup":15227,"Ġwreck":15228,"Ġdoubled":15229,"anking":15230,"Ġ1975":15231,"Ġglasses":15232,"ĠWang":15233,"prov":15234,"Path":15235,"connected":15236,"ĠMulti":15237,"ĠNorway":15238,"Ġfeared":15240,"Ġtouching":15241,"Ġarguably":15242,"ĠNCAA":15244,"chem":15245,"Ġspat":15246,"ĠWWE":15247,"ĠCel":15248,"igger":15249,"Ġattacker":15250,"ĠJoin":15251,"object":15252,"etta":15253,"Ġeliminated":15254,"det":15255,"ĠLucas":15257,"ctuary":15258,"180":15259,"ĠBrady":15260,"ĠBlues":15261,"Bay":15262,"Ġtimeline":15264,"Ġdelegates":15265,"written":15266,"Ġshapes":15268,"Copyright":15269,"service":15271,"Ġcolleges":15273,"Ġrows":15274,"Ġspite":15275,"Ġassessed":15276,"360":15277,"Ġlease":15278,"Ġconfidential":15279,"cker":15280,"ĠManning":15281,"ĠVoice":15282,"Ġsealed":15283,"Ġcalculate":15284,"NO":15285,"ĠAssistant":15286,"Ġteenager":15287,"ulent":15288,"atherine":15289,"Ġmock":15290,"Ġdiamond":15291,"Ġswitched":15293,"Ġresume":15294,"ĠPuerto":15295,"Ġlanes":15296,"ĠSimilarly":15298,"Ġrod":15299,"ĠSel":15300,"ĠPalace":15301,"ĠLimited":15302,"Ġvariant":15304,"Ġward":15305,"Ġ))":15306,"Show":15307,"OOK":15308,"Alex":15309,"ĠNep":15310,"ĠWikipedia":15312,"Ġexceptional":15313,"Ġmanages":15314,"ĠDraw":15315,"Again":15316,"Ġcopper":15317,"utt":15318,"Ġexports":15319,"Ġportfolio":15320,"Ġelevated":15321,"Rated":15322,"ĠOtherwise":15323,"ĠShel":15325,"ĠTX":15326,"\"âĢĶ":15327,"Ġresur":15328,"ĠWa":15329,"Ġmonetary":15331,"people":15332,"Email":15333,"Ġfifty":15334,"ĠSweet":15335,"ĠMalaysia":15336,"Ġconfusing":15337,"ĠRio":15338,"uda":15339,"\");":15341,"Ġpraised":15342,"Ġvolumes":15343,"turn":15344,"Ġmature":15345,"Ġnonprofit":15346,"Ġpassionate":15347,"ĠPrivate":15348,"Ġ103":15349,"Ġdescend":15350,"ç¥ŀ":15351,"uffy":15352,"headed":15353,"Whether":15354,"rien":15355,"Ġchrom":15358,"ĠMcM":15359,"Ġdancing":15360,"115":15363,"Ġadvocacy":15364,"ENTS":15365,"ĠMinor":15367,"ĠFinn":15368,"Ġpriorities":15369,"Ġthereof":15370,"ĠStage":15371,"ĠRogers":15372,"Ġsubstitute":15373,"ĠJar":15374,"ĠJefferson":15375,"Ġlightly":15376,"102":15377,"ĠLisa":15378,"uits":15379,"ysical":15380,"Ġshifts":15381,"Ġdrones":15382,"Ġworkplace":15383,"ensed":15385,"ahn":15386,"Ġpreferences":15387,"server":15388,"Ġdebates":15389,"doc":15390,"ĠGods":15391,"Ġhelicopter":15392,"Ġhonour":15393,"Ġconsiderably":15394,"eded":15395,"ĠFemale":15396,"ĠAnne":15397,"Ġreun":15398,"ĠFace":15399,"ĠBudget":15401,"Ġcondemn":15402,"Ġtender":15403,"Prof":15404,"ocratic":15405,"ĠTurner":15406,"Ġ1976":15408,"Ġapt":15409,"disc":15410,"ĠFighter":15411,"Ġgarbage":15413,"input":15414,"ĠKarl":15415,"ĠOliver":15416,"ĠLanguage":15417,"kn":15418,"Non":15419,"ĠClar":15420,"Ġtraditions":15421,"Ġadvertisement":15422,"ĠSor":15423,"Ġarchive":15424,"Ġvillages":15425,"750":15426,"Ġimplementing":15427,"Ġdietary":15429,"Ġswitching":15430,"Ġvelocity":15432,"ĠAwards":15434,"Ġfinancing":15435,"Ġlasted":15436,")]":15437,"Ġreminder":15438,"Person":15439,"Ġprecision":15440,"Ġdesigners":15441,"ĠFried":15442,"ĠBorder":15443,"Ġtragic":15444,"Ġwield":15445,"Ġinitiatives":15446,"ĠTank":15447,"wer":15448,"Ġjoins":15449,"Ro":15450,"inery":15451,"Ġarrow":15452,"Ġgenerating":15453,"founder":15454,"Ġsearches":15455,"Ġrandomly":15456,"Access":15457,"Ġbatch":15458,"Ġposed":15459,"lat":15460,"Ġpursuing":15461,"asa":15462,"Ġtestified":15463,"forming":15464,"ĠShar":15465,"wiki":15466,"ĠEither":15467,"Sometimes":15468,"Ġsenators":15469,"ĠJohnny":15470,"ĠTaliban":15471,"ĠGPS":15472,"ãģ®å":15474,"Ġanalyzed":15475,"ĠRubio":15476,"ĠMovement":15477,"opard":15478,"iii":15479,"Stand":15480,"fight":15481,"Ġignoring":15482,"iang":15483,"Ġrefusing":15487,"Ġsweat":15488,"Ġbay":15489,"PORT":15490,"irmed":15491,"aky":15492,"Ġlabeled":15494,"Ġ108":15495,"Hello":15496,"Ġpleasant":15497,"aba":15498,"Ġtriumph":15499,"Ġaboard":15500,"Ġincom":15501,"ĠCrow":15502,"lett":15503,"Ġfolk":15504,"Ġchase":15505,"``":15506,"Ġteens":15508,"Ġterrain":15510,"hyd":15511,"ilight":15512,"ORY":15513,"Support":15514,"ews":15515,"lli":15516,"ĠCand":15518,"Ġabused":15519,"achment":15520,"Bas":15522,"ĠCancer":15523,"Ġ1978":15524,"Ġsupporter":15525,"access":15526,"ĠTampa":15528,"ĠANY":15529,"Ġnewest":15530,"ĠCriminal":15531,"edu":15532,"Ġ1930":15533,"Ġadmits":15534,"Ġfailures":15536,"urate":15537,"fulness":15538,"cycl":15539,"ĠSubject":15540,"Ġinfinite":15541,"three":15542,"WA":15543,"pit":15544,"ĠInstall":15545,"Rad":15546,"iliation":15547,"GM":15548,"Ġcontinent":15549,"Ġaccommodate":15550,"ĠClay":15551,"ĠFunction":15553,"Ġhammer":15554,"ĠAlberta":15555,"Ġrevised":15556,"Ġminorities":15557,"Ġmeasurement":15558,"Connell":15559,"Ġdisable":15560,"ĠMix":15561,"Ġfork":15563,"ĠRosen":15564,"Ġimplies":15565,"ANG":15567,"Ġproteins":15568,"Ġaggression":15569,"Ġfacilitate":15570,"SN":15571,"Ġillegally":15572,"uer":15573,"ĠShift":15576,"pay":15577,"ollo":15578,"Ġaudiences":15579,"Build":15580,"Ġnoble":15581,"Ġsyntax":15582,"âĺħ":15583,"Ġbeam":15584,"ĠBed":15585,"ĠAld":15586,"Ġorigins":15587,"video":15588,"Ġ1977":15589,"ĠAssault":15590,"Ġgarage":15591,"Team":15592,"Ġverdict":15593,"ĠVirtual":15595,"event":15596,"Keep":15597,"Ġsentiment":15598,"Ġwildlife":15599,"shirt":15600,"Ġrecommendation":15602,"Ġgallery":15604,"owners":15605,"Ġscholar":15606,"Ġconvenience":15607,"ĠSwift":15608,"Cap":15610,"Ġwarfare":15611,"ĠVisual":15612,"Ġconstitute":15613,"ĠWeather":15615,"ĠLooking":15616,"ĠHem":15617,"Ġmartial":15618,"Ġincoming":15619,"Ġtolerance":15621,"ĠCreated":15622,"Ġflows":15623,"ĠElder":15624,"Ġsouls":15625,"Ġfoul":15626,"ĠPain":15627,"ĠCAN":15628,"Ġ220":15629,"bc":15630,"Ġgenius":15632,"Real":15633,"ometer":15635,"pad":15636,"Ġlimiting":15637,"ĠSi":15638,"ĠLore":15639,"ĠAdventures":15640,"Ġvaried":15641,"Disc":15642,"fin":15643,"ĠPersonal":15644,"Chris":15645,"Ġinvented":15646,"Ġdive":15647,"ĠRise":15648,"Ġoz":15649,"ĠComics":15650,"Ġexpose":15651,"ĠReb":15652,"site":15654,"imated":15655,"Ġhacking":15656,"Ġeducated":15657,"ĠNobody":15658,"Ġincentive":15660,"ãĤ·":15661,"Ġoversight":15662,"Ġtribes":15663,"ĠBelgium":15664,"Ġlicensing":15665,"Product":15667,"ahl":15668,"ĠGem":15669,"Ġspecialist":15670,"Ġcra":15671,"anners":15672,"ĠCorbyn":15673,"Ġ1973":15674,"READ":15675,"Ġoverlook":15677,"ĠApplication":15678,"Ġinappropriate":15679,"Ġdownloaded":15680,"Que":15681,"ĠBears":15682,"Ġthumb":15683,"ĠCharacter":15684,"ĠSid":15686,"Ġdemonstrates":15687,"sky":15688,"ĠBloomberg":15689,"ĠArray":15690,"ĠResults":15691,"ĠFourth":15692,"ĠEDT":15693,"ĠOscar":15694,"Ġ106":15696,"ĠNULL":15697,"ĠHERE":15698,"match":15699,"ĠBrun":15700,"Ġglucose":15701,"ieg":15702,"egu":15703,
[...]
